{
  "version": "1.0",
  "truncation": null,
  "padding": null,
  "added_tokens": [
    {
      "id": 0,
      "content": "<unk>",
      "single_word": false,
      "lstrip": false,
      "rstrip": false,
      "normalized": false,
      "special": true
    },
    {
      "id": 1,
      "content": "<pad>",
      "single_word": false,
      "lstrip": false,
      "rstrip": false,
      "normalized": false,
      "special": true
    }
  ],
  "normalizer": null,
  "pre_tokenizer": {
    "type": "Whitespace"
  },
  "post_processor": null,
  "decoder": null,
  "model": {
    "type": "WordPiece",
    "unk_token": "<unk>",
    "continuing_subword_prefix": "##",
    "max_input_chars_per_word": 100,
    "vocab": {
      "<unk>": 0,
      "<pad>": 1,
      "!": 2,
      "\"": 3,
      "(": 4,
      ")": 5,
      ",": 6,
      "-": 7,
      ".": 8,
      "0": 9,
      "1": 10,
      "2": 11,
      "3": 12,
      "4": 13,
      "5": 14,
      "6": 15,
      "7": 16,
      "8": 17,
      "9": 18,
      ":": 19,
      "?": 20,
      "A": 21,
      "B": 22,
      "C": 23,
      "D": 24,
      "E": 25,
      "F": 26,
      "G": 27,
      "H": 28,
      "I": 29,
      "J": 30,
      "K": 31,
      "L": 32,
      "M": 33,
      "N": 34,
      "O": 35,
      "P": 36,
      "Q": 37,
      "R": 38,
      "S": 39,
      "T": 40,
      "U": 41,
      "V": 42,
      "W": 43,
      "X": 44,
      "Y": 45,
      "Z": 46,
      "a": 47,
      "b": 48,
      "c": 49,
      "d": 50,
      "e": 51,
      "f": 52,
      "g": 53,
      "h": 54,
      "i": 55,
      "j": 56,
      "k": 57,
      "l": 58,
      "m": 59,
      "n": 60,
      "o": 61,
      "p": 62,
      "q": 63,
      "r": 64,
      "s": 65,
      "t": 66,
      "u": 67,
      "v": 68,
      "w": 69,
      "x": 70,
      "y": 71,
      "z": 72,
      "##a": 73,
      "##n": 74,
      "##g": 75,
      "##c": 76,
      "##h": 77,
      "##u": 78,
      "##A": 79,
      "##R": 80,
      "##I": 81,
      "##L": 82,
      "##Y": 83,
      "##N": 84,
      "##v": 85,
      "##e": 86,
      "##t": 87,
      "##o": 88,
      "##r": 89,
      "##d": 90,
      "##s": 91,
      "##i": 92,
      "##p": 93,
      "##l": 94,
      "##y": 95,
      "##b": 96,
      "##w": 97,
      "##f": 98,
      "##q": 99,
      "##m": 100,
      "##z": 101,
      "##E": 102,
      "##S": 103,
      "##C": 104,
      "##U": 105,
      "##k": 106,
      "##K": 107,
      "##J": 108,
      "##T": 109,
      "##H": 110,
      "##M": 111,
      "##O": 112,
      "##\"": 113,
      "##!": 114,
      "##?": 115,
      "##j": 116,
      "##V": 117,
      "##3": 118,
      "##B": 119,
      "##x": 120,
      "##W": 121,
      "##1": 122,
      "##0": 123,
      "##D": 124,
      "##G": 125,
      "##X": 126,
      "##7": 127,
      "##9": 128,
      "##P": 129,
      "##)": 130,
      "##.": 131,
      "##F": 132,
      "##4": 133,
      "##-": 134,
      "##6": 135,
      "##8": 136,
      "##2": 137,
      "##Z": 138,
      "##,": 139,
      "##5": 140,
      "##Q": 141,
      "##(": 142,
      "##:": 143,
      "th": 144,
      "##er": 145,
      "the": 146,
      "##in": 147,
      "##nd": 148,
      "##es": 149,
      "##at": 150,
      "##or": 151,
      "##en": 152,
      "##ing": 153,
      "##ou": 154,
      "##is": 155,
      "##on": 156,
      "##ed": 157,
      "##ar": 158,
      "##ll": 159,
      "and": 160,
      "of": 161,
      "to": 162,
      "##an": 163,
      "##it": 164,
      "##as": 165,
      "in": 166,
      "##re": 167,
      "##om": 168,
      "is": 169,
      "##ic": 170,
      "##le": 171,
      "##ot": 172,
      "##ut": 173,
      "##al": 174,
      "##ct": 175,
      "it": 176,
      "##il": 177,
      "be": 178,
      "wh": 179,
      "##ie": 180,
      "Th": 181,
      "##ly": 182,
      "##ve": 183,
      "##st": 184,
      "on": 185,
      "that": 186,
      "##ow": 187,
      "mo": 188,
      "##ent": 189,
      "##ad": 190,
      "re": 191,
      "##ch": 192,
      "this": 193,
      "##ion": 194,
      "##et": 195,
      "##ay": 196,
      "st": 197,
      "##gh": 198,
      "##se": 199,
      "mov": 200,
      "was": 201,
      "##ith": 202,
      "##ver": 203,
      "##im": 204,
      "for": 205,
      "##id": 206,
      "##ilm": 207,
      "The": 208,
      "film": 209,
      "as": 210,
      "##all": 211,
      "##oo": 212,
      "##ce": 213,
      "with": 214,
      "an": 215,
      "##am": 216,
      "##ld": 217,
      "se": 218,
      "##ir": 219,
      "##ere": 220,
      "movie": 221,
      "sh": 222,
      "you": 223,
      "##ke": 224,
      "##ur": 225,
      "##ter": 226,
      "ha": 227,
      "##ers": 228,
      "li": 229,
      "but": 230,
      "##ill": 231,
      "he": 232,
      "##th": 233,
      "not": 234,
      "ch": 235,
      "##ally": 236,
      "##ck": 237,
      "##ro": 238,
      "##ess": 239,
      "##ri": 240,
      "##ra": 241,
      "are": 242,
      "##est": 243,
      "##ome": 244,
      "his": 245,
      "##nt": 246,
      "##pe": 247,
      "at": 248,
      "##ould": 249,
      "##em": 250,
      "##ul": 251,
      "have": 252,
      "su": 253,
      "##ght": 254,
      "##ust": 255,
      "fr": 256,
      "##ant": 257,
      "sc": 258,
      "act": 259,
      "##el": 260,
      "do": 261,
      "##ore": 262,
      "who": 263,
      "ex": 264,
      "##ain": 265,
      "##ble": 266,
      "one": 267,
      "##un": 268,
      "so": 269,
      "pl": 270,
      "com": 271,
      "##out": 272,
      "all": 273,
      "##ood": 274,
      "##act": 275,
      "ab": 276,
      "al": 277,
      "##ies": 278,
      "##ol": 279,
      "we": 280,
      "##pp": 281,
      "##ak": 282,
      "by": 283,
      "##us": 284,
      "##ag": 285,
      "##art": 286,
      "de": 287,
      "##ous": 288,
      "##op": 289,
      "like": 290,
      "wor": 291,
      "It": 292,
      "out": 293,
      "##ist": 294,
      "her": 295,
      "##her": 296,
      "they": 297,
      "from": 298,
      "ne": 299,
      "or": 300,
      "##ast": 301,
      "some": 302,
      "con": 303,
      "##one": 304,
      "##ation": 305,
      "its": 306,
      "##um": 307,
      "##ough": 308,
      "##au": 309,
      "##ven": 310,
      "##os": 311,
      "##ight": 312,
      "##ate": 313,
      "just": 314,
      "##ich": 315,
      "di": 316,
      "##ff": 317,
      "about": 318,
      "has": 319,
      "me": 320,
      "##atch": 321,
      "pro": 322,
      "##and": 323,
      "##..": 324,
      "##ery": 325,
      "##ard": 326,
      "##ind": 327,
      "##ory": 328,
      "##ack": 329,
      "char": 330,
      "##ive": 331,
      "tim": 332,
      "##ort": 333,
      "##pt": 334,
      "en": 335,
      "##ud": 336,
      "up": 337,
      "##ook": 338,
      "This": 339,
      "le": 340,
      "##ake": 341,
      "##reat": 342,
      "good": 343,
      "charact": 344,
      "man": 345,
      "lo": 346,
      "any": 347,
      "ever": 348,
      "tr": 349,
      "##ong": 350,
      "int": 351,
      "get": 352,
      "more": 353,
      "un": 354,
      "no": 355,
      "watch": 356,
      "see": 357,
      "##ig": 358,
      "fe": 359,
      "very": 360,
      "what": 361,
      "would": 362,
      "##ity": 363,
      "##ound": 364,
      "my": 365,
      "go": 366,
      "##ame": 367,
      "##fe": 368,
      "##ite": 369,
      "can": 370,
      "time": 371,
      "bec": 372,
      "##ont": 373,
      "story": 374,
      "##ge": 375,
      "##able": 376,
      "when": 377,
      "##od": 378,
      "##ell": 379,
      "if": 380,
      "which": 381,
      "scen": 382,
      "...": 383,
      "##hing": 384,
      "##ci": 385,
      "##oy": 386,
      "really": 387,
      "had": 388,
      "##ab": 389,
      "there": 390,
      "even": 391,
      "were": 392,
      "only": 393,
      "show": 394,
      "their": 395,
      "Wh": 396,
      "##ue": 397,
      "##ure": 398,
      "cl": 399,
      "him": 400,
      "per": 401,
      "##itt": 402,
      "oth": 403,
      "##ap": 404,
      "##ink": 405,
      "##ick": 406,
      "kn": 407,
      "##ays": 408,
      "##ious": 409,
      "them": 410,
      "ar": 411,
      "##our": 412,
      "than": 413,
      "did": 414,
      "##ful": 415,
      "##ars": 416,
      "##ond": 417,
      "##ine": 418,
      "she": 419,
      "##og": 420,
      "end": 421,
      "##ence": 422,
      "##ment": 423,
      "##uch": 424,
      "does": 425,
      "##man": 426,
      "##so": 427,
      "##ade": 428,
      "##ves": 429,
      "##rect": 430,
      "##pl": 431,
      "look": 432,
      "pe": 433,
      "##ause": 434,
      "great": 435,
      "bad": 436,
      "##ish": 437,
      "im": 438,
      "much": 439,
      "##ect": 440,
      "bet": 441,
      "pr": 442,
      "po": 443,
      "how": 444,
      "qu": 445,
      "over": 446,
      "well": 447,
      "other": 448,
      "been": 449,
      "could": 450,
      "will": 451,
      "##ice": 452,
      "##te": 453,
      "##irst": 454,
      "##ple": 455,
      "##ople": 456,
      "into": 457,
      "know": 458,
      "most": 459,
      "##ide": 460,
      "pre": 461,
      "##ors": 462,
      "##lf": 463,
      "thr": 464,
      "##int": 465,
      "##ry": 466,
      "##ass": 467,
      "think": 468,
      "tw": 469,
      "off": 470,
      "##per": 471,
      "fa": 472,
      "people": 473,
      "ad": 474,
      "too": 475,
      "because": 476,
      "##ose": 477,
      "dis": 478,
      "us": 479,
      "real": 480,
      "Ch": 481,
      "ag": 482,
      "##age": 483,
      "every": 484,
      "direct": 485,
      "##ings": 486,
      "##fter": 487,
      "am": 488,
      "part": 489,
      "make": 490,
      "##for": 491,
      "##oll": 492,
      "made": 493,
      "sa": 494,
      "##ans": 495,
      "In": 496,
      "first": 497,
      "wr": 498,
      "movies": 499,
      "##ull": 500,
      "And": 501,
      "##ber": 502,
      "fun": 503,
      "films": 504,
      "##other": 505,
      "##ile": 506,
      "way": 507,
      "##ny": 508,
      "##ving": 509,
      "also": 510,
      "##ces": 511,
      "mak": 512,
      "##ict": 513,
      "##ach": 514,
      "sp": 515,
      "characters": 516,
      "##qu": 517,
      "##are": 518,
      "dont": 519,
      "seem": 520,
      "##ty": 521,
      "gu": 522,
      "bl": 523,
      "But": 524,
      "##ary": 525,
      "##ep": 526,
      "work": 527,
      "##ated": 528,
      "##ens": 529,
      "##ne": 530,
      "##gin": 531,
      "##ost": 532,
      "br": 533,
      "##ical": 534,
      "inter": 535,
      "##iew": 536,
      "##own": 537,
      "play": 538,
      "te": 539,
      "##cc": 540,
      "character": 541,
      "fl": 542,
      "##pr": 543,
      "##ually": 544,
      "cr": 545,
      "ye": 546,
      "plot": 547,
      "##ph": 548,
      "Sh": 549,
      "##pect": 550,
      "Its": 551,
      "seen": 552,
      "ro": 553,
      "then": 554,
      "##ance": 555,
      "##self": 556,
      "##iz": 557,
      "ser": 558,
      "your": 559,
      "want": 560,
      "aw": 561,
      "##ng": 562,
      "##omet": 563,
      ").": 564,
      "##tain": 565,
      "##nder": 566,
      "love": 567,
      "after": 568,
      "##ath": 569,
      "##ip": 570,
      "being": 571,
      "many": 572,
      "say": 573,
      "two": 574,
      "##ved": 575,
      "##ang": 576,
      "acting": 577,
      "##ittle": 578,
      "never": 579,
      "St": 580,
      "life": 581,
      "where": 582,
      "##get": 583,
      "##wn": 584,
      "##urn": 585,
      "He": 586,
      "back": 587,
      "through": 588,
      "##ark": 589,
      "##mer": 590,
      "somet": 591,
      "##ian": 592,
      "##ents": 593,
      "hor": 594,
      "19": 595,
      "best": 596,
      "little": 597,
      "rem": 598,
      "##ac": 599,
      "##ons": 600,
      "##ace": 601,
      "des": 602,
      "##oth": 603,
      "rec": 604,
      "##ult": 605,
      "##ob": 606,
      "##ild": 607,
      "),": 608,
      "##ily": 609,
      "better": 610,
      "##ions": 611,
      "gr": 612,
      "##ise": 613,
      "##vel": 614,
      "If": 615,
      "##du": 616,
      "##augh": 617,
      "spe": 618,
      "##ual": 619,
      "scene": 620,
      "##ire": 621,
      "##ather": 622,
      "##ever": 623,
      "find": 624,
      "perfor": 625,
      "sl": 626,
      "should": 627,
      "##ought": 628,
      "##thing": 629,
      "Al": 630,
      "min": 631,
      "##igh": 632,
      "scenes": 633,
      "under": 634,
      "##we": 635,
      "feel": 636,
      "##iend": 637,
      "##ase": 638,
      "dr": 639,
      "again": 640,
      "att": 641,
      "res": 642,
      "There": 643,
      "##ater": 644,
      "##lie": 645,
      "Im": 646,
      "##ys": 647,
      "inc": 648,
      "still": 649,
      "##if": 650,
      "something": 651,
      "old": 652,
      "str": 653,
      "kill": 654,
      "##ree": 655,
      "such": 656,
      "eff": 657,
      "here": 658,
      "interest": 659,
      "may": 660,
      "##ably": 661,
      "##ense": 662,
      "##me": 663,
      "happ": 664,
      "hum": 665,
      "##ations": 666,
      "lot": 667,
      "these": 668,
      "##fore": 669,
      "##ia": 670,
      "##ning": 671,
      "--": 672,
      "sur": 673,
      "##arly": 674,
      "##alk": 675,
      "##less": 676,
      "##ating": 677,
      "cont": 678,
      "gi": 679,
      "cast": 680,
      "performan": 681,
      "##der": 682,
      "actors": 683,
      "point": 684,
      "##reen": 685,
      "thing": 686,
      "mus": 687,
      "Fr": 688,
      "##ror": 689,
      "doesnt": 690,
      "ap": 691,
      "##ock": 692,
      "those": 693,
      "fam": 694,
      "didnt": 695,
      "##be": 696,
      "watching": 697,
      "##ting": 698,
      "tra": 699,
      "years": 700,
      "dec": 701,
      "##ying": 702,
      "sim": 703,
      "gen": 704,
      "gir": 705,
      "##joy": 706,
      "##iv": 707,
      "wom": 708,
      "As": 709,
      "funny": 710,
      "cou": 711,
      "id": 712,
      "##av": 713,
      "down": 714,
      "set": 715,
      "view": 716,
      "##ial": 717,
      "enjoy": 718,
      "makes": 719,
      "fact": 720,
      "es": 721,
      "belie": 722,
      "start": 723,
      "comed": 724,
      "Jo": 725,
      "em": 726,
      "ob": 727,
      "Br": 728,
      "##les": 729,
      "##ute": 730,
      "tak": 731,
      "##iss": 732,
      "going": 733,
      "##aw": 734,
      "##az": 735,
      "actually": 736,
      "before": 737,
      "same": 738,
      "##ool": 739,
      "produ": 740,
      "ev": 741,
      "##oss": 742,
      "few": 743,
      "fin": 744,
      "stu": 745,
      "though": 746,
      "##0s": 747,
      "long": 748,
      "sub": 749,
      "##ash": 750,
      "##ead": 751,
      "##erson": 752,
      "comp": 753,
      "why": 754,
      "now": 755,
      "pret": 756,
      "exce": 757,
      "##ew": 758,
      "while": 759,
      "ori": 760,
      "ke": 761,
      "ter": 762,
      "big": 763,
      "young": 764,
      "##ub": 765,
      "got": 766,
      "thought": 767,
      "##cial": 768,
      "##ffer": 769,
      "##ason": 770,
      "own": 771,
      "rel": 772,
      "##ience": 773,
      "laugh": 774,
      "##ale": 775,
      "##ft": 776,
      "bit": 777,
      "turn": 778,
      "##arr": 779,
      "tri": 780,
      "You": 781,
      "nothing": 782,
      "supp": 783,
      "sm": 784,
      "##oc": 785,
      "origin": 786,
      "cant": 787,
      "##ave": 788,
      "another": 789,
      "##ript": 790,
      "new": 791,
      "friend": 792,
      "high": 793,
      "##ible": 794,
      "comple": 795,
      "##ug": 796,
      "screen": 797,
      "##onder": 798,
      "girl": 799,
      "che": 800,
      "##aut": 801,
      "##ction": 802,
      "effect": 803,
      "inv": 804,
      "director": 805,
      "around": 806,
      "quite": 807,
      "app": 808,
      "##ib": 809,
      "##iting": 810,
      "##old": 811,
      "How": 812,
      "things": 813,
      "seems": 814,
      "pretty": 815,
      "##ced": 816,
      "right": 817,
      "hard": 818,
      "need": 819,
      "enough": 820,
      "##ince": 821,
      "##meric": 822,
      "far": 823,
      "##eres": 824,
      "##ically": 825,
      "Americ": 826,
      "##ways": 827,
      "world": 828,
      "acc": 829,
      "##ention": 830,
      "ins": 831,
      "script": 832,
      "##ween": 833,
      "kid": 834,
      "original": 835,
      "10": 836,
      "take": 837,
      "wonder": 838,
      "What": 839,
      "An": 840,
      "##ness": 841,
      "##ately": 842,
      "kind": 843,
      "They": 844,
      "horror": 845,
      "between": 846,
      "must": 847,
      "##ank": 848,
      "op": 849,
      "appe": 850,
      "So": 851,
      "Ive": 852,
      "music": 853,
      "##ord": 854,
      "give": 855,
      "##inem": 856,
      "sec": 857,
      "series": 858,
      "person": 859,
      "##utes": 860,
      "action": 861,
      "##most": 862,
      "imp": 863,
      "class": 864,
      "enter": 865,
      "sex": 866,
      "role": 867,
      "bor": 868,
      "gets": 869,
      "tell": 870,
      "isnt": 871,
      "##ward": 872,
      "put": 873,
      "##vious": 874,
      "mom": 875,
      "both": 876,
      "main": 877,
      "times": 878,
      "saw": 879,
      "always": 880,
      "comedy": 881,
      "##app": 882,
      "hel": 883,
      "car": 884,
      "##its": 885,
      "interesting": 886,
      "whole": 887,
      "read": 888,
      "hand": 889,
      "done": 890,
      "least": 891,
      "##ased": 892,
      "child": 893,
      "##icul": 894,
      "cons": 895,
      "come": 896,
      "lead": 897,
      "beaut": 898,
      "sound": 899,
      "##ress": 900,
      "##!!": 901,
      "##oot": 902,
      "without": 903,
      "ep": 904,
      "almost": 905,
      "\",": 906,
      "shot": 907,
      "cam": 908,
      "##ets": 909,
      "\".": 910,
      "##ines": 911,
      "expect": 912,
      "ide": 913,
      "worth": 914,
      "differ": 915,
      "might": 916,
      "##ope": 917,
      "cinem": 918,
      "##ody": 919,
      "minutes": 920,
      "##raph": 921,
      ".\"": 922,
      "rev": 923,
      "##hn": 924,
      "##ully": 925,
      "expl": 926,
      "complete": 927,
      "ind": 928,
      "cra": 929,
      "##rible": 930,
      "##press": 931,
      "aud": 932,
      "##li": 933,
      "guy": 934,
      "##over": 935,
      "call": 936,
      "war": 937,
      "##bably": 938,
      "Se": 939,
      "##ail": 940,
      "##ently": 941,
      "making": 942,
      "##ner": 943,
      "thats": 944,
      "last": 945,
      "bu": 946,
      "Be": 947,
      "##uring": 948,
      "anything": 949,
      "##xt": 950,
      "book": 951,
      "##ouse": 952,
      "##wh": 953,
      "cle": 954,
      "TV": 955,
      "performance": 956,
      "ph": 957,
      "inst": 958,
      "family": 959,
      "begin": 960,
      "She": 961,
      "##red": 962,
      "help": 963,
      "cour": 964,
      "##stand": 965,
      "art": 966,
      "entertain": 967,
      "##ins": 968,
      "##cially": 969,
      "De": 970,
      "##als": 971,
      "care": 972,
      "el": 973,
      "##alog": 974,
      "##ism": 975,
      "found": 976,
      "Not": 977,
      "That": 978,
      "away": 979,
      "John": 980,
      "##ane": 981,
      "probably": 982,
      "ext": 983,
      "For": 984,
      "##ures": 985,
      "sequ": 986,
      "run": 987,
      "##mend": 988,
      "##illi": 989,
      "##istic": 990,
      "All": 991,
      "ent": 992,
      "##ative": 993,
      "##ign": 994,
      "dialog": 995,
      "##oney": 996,
      "sure": 997,
      "##aster": 998,
      "played": 999,
      "##ition": 1000,
      "since": 1001,
      "We": 1002,
      "reason": 1003,
      "##ER": 1004,
      "##ange": 1005,
      "##ife": 1006,
      "##VD": 1007,
      "##apt": 1008,
      "rather": 1009,
      "##ject": 1010,
      "add": 1011,
      "##though": 1012,
      "mind": 1013,
      "##pecially": 1014,
      "Re": 1015,
      "##isod": 1016,
      "DVD": 1017,
      "abs": 1018,
      "mean": 1019,
      "##ros": 1020,
      "worst": 1021,
      "poor": 1022,
      "##ks": 1023,
      "When": 1024,
      "##ling": 1025,
      "##led": 1026,
      "hes": 1027,
      "our": 1028,
      "##ten": 1029,
      "lik": 1030,
      "vers": 1031,
      "happen": 1032,
      "woman": 1033,
      "##ah": 1034,
      "##fect": 1035,
      "keep": 1036,
      "##osed": 1037,
      "looking": 1038,
      "My": 1039,
      "##wood": 1040,
      "##alf": 1041,
      "episod": 1042,
      "course": 1043,
      "believe": 1044,
      "shows": 1045,
      "##ime": 1046,
      "ty": 1047,
      "##atter": 1048,
      "trying": 1049,
      "##ember": 1050,
      "each": 1051,
      "##oint": 1052,
      "##ates": 1053,
      "del": 1054,
      "Bl": 1055,
      "boy": 1056,
      "##ollow": 1057,
      "cre": 1058,
      "##ither": 1059,
      "##ertain": 1060,
      "##iver": 1061,
      "##ingly": 1062,
      "surpr": 1063,
      "##ograph": 1064,
      "##olly": 1065,
      "job": 1066,
      "anyone": 1067,
      "less": 1068,
      "comes": 1069,
      "##ics": 1070,
      "sch": 1071,
      "bud": 1072,
      "day": 1073,
      "##ret": 1074,
      "ending": 1075,
      "Le": 1076,
      "place": 1077,
      "sense": 1078,
      "pol": 1079,
      "##ommend": 1080,
      "yet": 1081,
      "##blem": 1082,
      "##umb": 1083,
      "##00": 1084,
      "##uck": 1085,
      "different": 1086,
      "goes": 1087,
      "##ments": 1088,
      "par": 1089,
      "##ues": 1090,
      "TH": 1091,
      "rest": 1092,
      "##dd": 1093,
      "pres": 1094,
      "One": 1095,
      "def": 1096,
      "especially": 1097,
      "conf": 1098,
      "stand": 1099,
      "##hip": 1100,
      "short": 1101,
      "##ady": 1102,
      "Chr": 1103,
      "American": 1104,
      "##ok": 1105,
      "problem": 1106,
      "dram": 1107,
      "##empt": 1108,
      "creat": 1109,
      "ac": 1110,
      "##ster": 1111,
      "##iece": 1112,
      "gl": 1113,
      "super": 1114,
      "head": 1115,
      "wasnt": 1116,
      "effects": 1117,
      "##air": 1118,
      "##ower": 1119,
      "watched": 1120,
      "##iter": 1121,
      "looks": 1122,
      "##iful": 1123,
      "fan": 1124,
      "port": 1125,
      "half": 1126,
      "recommend": 1127,
      "##vent": 1128,
      "##ences": 1129,
      "##ilar": 1130,
      "##lud": 1131,
      "Un": 1132,
      "##ray": 1133,
      "##ann": 1134,
      "##aps": 1135,
      "money": 1136,
      "##ality": 1137,
      "##ider": 1138,
      "##ortun": 1139,
      "##ream": 1140,
      "miss": 1141,
      "follow": 1142,
      "plays": 1143,
      "sit": 1144,
      "##io": 1145,
      "toget": 1146,
      "together": 1147,
      "certain": 1148,
      "perfect": 1149,
      "exper": 1150,
      "##gr": 1151,
      "##arn": 1152,
      "fav": 1153,
      "talk": 1154,
      "actor": 1155,
      "##itch": 1156,
      "understand": 1157,
      "said": 1158,
      "having": 1159,
      "mon": 1160,
      "##ru": 1161,
      "second": 1162,
      "takes": 1163,
      "rele": 1164,
      "##ists": 1165,
      "At": 1166,
      "imag": 1167,
      "year": 1168,
      "ey": 1169,
      "##son": 1170,
      "friends": 1171,
      "poss": 1172,
      "special": 1173,
      "nice": 1174,
      "audience": 1175,
      "true": 1176,
      "review": 1177,
      "night": 1178,
      "three": 1179,
      "hour": 1180,
      "Sc": 1181,
      "##way": 1182,
      "##ney": 1183,
      "himself": 1184,
      "left": 1185,
      "##llent": 1186,
      "##ames": 1187,
      "Mar": 1188,
      "##cing": 1189,
      "vis": 1190,
      "##pid": 1191,
      "top": 1192,
      "##land": 1193,
      "##era": 1194,
      "fall": 1195,
      "else": 1196,
      "version": 1197,
      "comm": 1198,
      "disc": 1199,
      "someone": 1200,
      "##ollywood": 1201,
      "##ix": 1202,
      "obvious": 1203,
      "idea": 1204,
      "budget": 1205,
      "##ited": 1206,
      "##atic": 1207,
      "No": 1208,
      "ass": 1209,
      "##ature": 1210,
      "everything": 1211,
      "use": 1212,
      "sty": 1213,
      "Ar": 1214,
      "##ox": 1215,
      "came": 1216,
      "##ional": 1217,
      "##ply": 1218,
      "beautiful": 1219,
      "Sp": 1220,
      "invol": 1221,
      "Ste": 1222,
      "sk": 1223,
      "entire": 1224,
      "##ross": 1225,
      "det": 1226,
      "dist": 1227,
      "sing": 1228,
      "seeing": 1229,
      "mur": 1230,
      "ref": 1231,
      "##reak": 1232,
      "##sy": 1233,
      "On": 1234,
      "let": 1235,
      "##ides": 1236,
      "includ": 1237,
      "during": 1238,
      "tot": 1239,
      "theres": 1240,
      "Cl": 1241,
      "home": 1242,
      "##fully": 1243,
      "exc": 1244,
      "wife": 1245,
      "later": 1246,
      "tal": 1247,
      "ele": 1248,
      "used": 1249,
      "##bert": 1250,
      "excellent": 1251,
      "However": 1252,
      "mem": 1253,
      "##att": 1254,
      "##uth": 1255,
      "heart": 1256,
      "##ired": 1257,
      "once": 1258,
      "stupid": 1259,
      "lack": 1260,
      "##ier": 1261,
      "ed": 1262,
      "low": 1263,
      "fight": 1264,
      "men": 1265,
      "attempt": 1266,
      "Well": 1267,
      "##appoint": 1268,
      "##amp": 1269,
      "##ird": 1270,
      "completely": 1271,
      "unt": 1272,
      "##cept": 1273,
      "death": 1274,
      "hist": 1275,
      "serious": 1276,
      "open": 1277,
      "##omb": 1278,
      "human": 1279,
      "mar": 1280,
      "##ott": 1281,
      "disappoint": 1282,
      "beh": 1283,
      "##ised": 1284,
      "##olute": 1285,
      "co": 1286,
      "remember": 1287,
      "everyone": 1288,
      "simply": 1289,
      "anim": 1290,
      "cop": 1291,
      "##ared": 1292,
      "word": 1293,
      "vide": 1294,
      "Ro": 1295,
      "Hollywood": 1296,
      "##ov": 1297,
      "stud": 1298,
      "sus": 1299,
      "line": 1300,
      "##ese": 1301,
      "##iol": 1302,
      "sy": 1303,
      "##ount": 1304,
      "Christ": 1305,
      "##gg": 1306,
      "defin": 1307,
      "tit": 1308,
      "loc": 1309,
      "gener": 1310,
      "along": 1311,
      "##ract": 1312,
      "wrong": 1313,
      "kids": 1314,
      "##ented": 1315,
      "youre": 1316,
      "##cer": 1317,
      "song": 1318,
      "school": 1319,
      "##ied": 1320,
      "emot": 1321,
      "mess": 1322,
      "##aring": 1323,
      "dra": 1324,
      "gra": 1325,
      "##ography": 1326,
      "##10": 1327,
      "pict": 1328,
      "black": 1329,
      "supposed": 1330,
      "dep": 1331,
      "camera": 1332,
      "either": 1333,
      "boring": 1334,
      "Man": 1335,
      "##ted": 1336,
      "production": 1337,
      "try": 1338,
      "count": 1339,
      "performances": 1340,
      "ret": 1341,
      "hero": 1342,
      "absolute": 1343,
      "fail": 1344,
      "##uly": 1345,
      "##itten": 1346,
      "particul": 1347,
      "eas": 1348,
      "##ters": 1349,
      "##idd": 1350,
      "house": 1351,
      "small": 1352,
      "pass": 1353,
      "Car": 1354,
      "classic": 1355,
      "##ps": 1356,
      "Mr": 1357,
      "except": 1358,
      "##ren": 1359,
      "wa": 1360,
      "exam": 1361,
      "hope": 1362,
      "couple": 1363,
      "given": 1364,
      "bas": 1365,
      "sort": 1366,
      "##day": 1367,
      "rom": 1368,
      "##elt": 1369,
      "name": 1370,
      "until": 1371,
      "flick": 1372,
      "favor": 1373,
      "ple": 1374,
      "##oice": 1375,
      "father": 1376,
      "cor": 1377,
      "sad": 1378,
      "##ote": 1379,
      "becom": 1380,
      "humor": 1381,
      "##haps": 1382,
      "awful": 1383,
      "cred": 1384,
      "##vin": 1385,
      "##lish": 1386,
      "star": 1387,
      "full": 1388,
      "pain": 1389,
      "##my": 1390,
      "viol": 1391,
      "portray": 1392,
      "##ows": 1393,
      "##itely": 1394,
      "To": 1395,
      "Mich": 1396,
      "##ape": 1397,
      "truly": 1398,
      "deser": 1399,
      "moments": 1400,
      "hu": 1401,
      "##ities": 1402,
      "light": 1403,
      "Some": 1404,
      "##rib": 1405,
      "##oles": 1406,
      "getting": 1407,
      "After": 1408,
      "##ize": 1409,
      "itself": 1410,
      "##sel": 1411,
      "instead": 1412,
      "##ove": 1413,
      "##atur": 1414,
      "women": 1415,
      "##sc": 1416,
      "##enn": 1417,
      "##velop": 1418,
      "THE": 1419,
      "video": 1420,
      "##med": 1421,
      "##iness": 1422,
      "amaz": 1423,
      "murder": 1424,
      "unf": 1425,
      "Jack": 1426,
      "consider": 1427,
      "dri": 1428,
      "others": 1429,
      "face": 1430,
      "style": 1431,
      "##IN": 1432,
      "cut": 1433,
      "##oon": 1434,
      "##orm": 1435,
      "playing": 1436,
      "##ther": 1437,
      "next": 1438,
      "##ax": 1439,
      "##ility": 1440,
      "##aj": 1441,
      "##ric": 1442,
      "Even": 1443,
      "coll": 1444,
      "sever": 1445,
      "terrible": 1446,
      "doing": 1447,
      "however": 1448,
      "reg": 1449,
      "##cess": 1450,
      "##tern": 1451,
      "dead": 1452,
      "##que": 1453,
      "although": 1454,
      "guess": 1455,
      "maybe": 1456,
      "lines": 1457,
      "gives": 1458,
      "##ike": 1459,
      "episode": 1460,
      "power": 1461,
      "..": 1462,
      "often": 1463,
      "##unch": 1464,
      "##ison": 1465,
      "wonderful": 1466,
      "dialogue": 1467,
      "stars": 1468,
      "##ories": 1469,
      "piece": 1470,
      "couldnt": 1471,
      "##reme": 1472,
      "form": 1473,
      "Dav": 1474,
      "##ger": 1475,
      "slow": 1476,
      "##ork": 1477,
      "written": 1478,
      "went": 1479,
      "##cum": 1480,
      "##ident": 1481,
      ",\"": 1482,
      "develop": 1483,
      "##imes": 1484,
      "##cy": 1485,
      "##illy": 1486,
      "brilli": 1487,
      "early": 1488,
      "##ton": 1489,
      "become": 1490,
      "impress": 1491,
      "ann": 1492,
      "##ined": 1493,
      "guys": 1494,
      "Me": 1495,
      "liked": 1496,
      "##olog": 1497,
      "With": 1498,
      "live": 1499,
      "quest": 1500,
      "entertaining": 1501,
      "##yn": 1502,
      "##ized": 1503,
      "Is": 1504,
      "##ony": 1505,
      "case": 1506,
      "mention": 1507,
      "Id": 1508,
      "called": 1509,
      "matter": 1510,
      "##ibly": 1511,
      "felt": 1512,
      "##ush": 1513,
      "trans": 1514,
      "##orn": 1515,
      "dark": 1516,
      "##ouch": 1517,
      "His": 1518,
      "##ortunately": 1519,
      "##oid": 1520,
      "##ael": 1521,
      "Ever": 1522,
      "relations": 1523,
      "strong": 1524,
      "actress": 1525,
      "New": 1526,
      "mother": 1527,
      "##ains": 1528,
      "##ming": 1529,
      "absolutely": 1530,
      "rid": 1531,
      "##uss": 1532,
      "worse": 1533,
      "side": 1534,
      "title": 1535,
      "##iller": 1536,
      "red": 1537,
      "##ccess": 1538,
      "Char": 1539,
      "mis": 1540,
      "##vis": 1541,
      "certainly": 1542,
      "definitely": 1543,
      "fant": 1544,
      "##oub": 1545,
      "waste": 1546,
      "##ular": 1547,
      "##pite": 1548,
      "##eth": 1549,
      "extreme": 1550,
      "against": 1551,
      "prov": 1552,
      "##used": 1553,
      "##vers": 1554,
      "##right": 1555,
      "loved": 1556,
      "beginning": 1557,
      "sw": 1558,
      "##antly": 1559,
      "pop": 1560,
      "Then": 1561,
      "blood": 1562,
      "master": 1563,
      "close": 1564,
      "past": 1565,
      "Eng": 1566,
      "seemed": 1567,
      "cent": 1568,
      "##selves": 1569,
      "##ready": 1570,
      "##pped": 1571,
      "While": 1572,
      "##eng": 1573,
      "!!!": 1574,
      "drama": 1575,
      "wanted": 1576,
      "several": 1577,
      "Also": 1578,
      "pred": 1579,
      "somewh": 1580,
      "Now": 1581,
      "picture": 1582,
      "et": 1583,
      "##body": 1584,
      "already": 1585,
      "cinema": 1586,
      "becomes": 1587,
      "##sych": 1588,
      "relationship": 1589,
      "##ones": 1590,
      "dem": 1591,
      "##arb": 1592,
      "example": 1593,
      "success": 1594,
      "adm": 1595,
      "based": 1596,
      "pur": 1597,
      "##els": 1598,
      "totally": 1599,
      "wont": 1600,
      "able": 1601,
      "fans": 1602,
      "ear": 1603,
      "Michael": 1604,
      "##vable": 1605,
      "Why": 1606,
      "Of": 1607,
      "game": 1608,
      "##line": 1609,
      "quality": 1610,
      "##ards": 1611,
      "lives": 1612,
      "direction": 1613,
      "Mc": 1614,
      "town": 1615,
      "Just": 1616,
      "##ms": 1617,
      "deal": 1618,
      "sn": 1619,
      "##ages": 1620,
      "bra": 1621,
      "##ief": 1622,
      "##oil": 1623,
      "##ench": 1624,
      "##ts": 1625,
      "av": 1626,
      "list": 1627,
      "##ley": 1628,
      "self": 1629,
      "support": 1630,
      "##ided": 1631,
      "stuff": 1632,
      "walk": 1633,
      "##riend": 1634,
      "##rew": 1635,
      "capt": 1636,
      "mor": 1637,
      "inf": 1638,
      "##rif": 1639,
      "Robert": 1640,
      "Pr": 1641,
      "Gr": 1642,
      "##aughter": 1643,
      "fine": 1644,
      "##unk": 1645,
      "grou": 1646,
      "wants": 1647,
      "lost": 1648,
      "children": 1649,
      "##ene": 1650,
      "##ler": 1651,
      "cann": 1652,
      "works": 1653,
      "unc": 1654,
      "comment": 1655,
      "Her": 1656,
      "import": 1657,
      "vill": 1658,
      "200": 1659,
      "Ge": 1660,
      "cur": 1661,
      "writing": 1662,
      "val": 1663,
      "occ": 1664,
      "##oke": 1665,
      "##play": 1666,
      "Ed": 1667,
      "throughout": 1668,
      "stop": 1669,
      "annoy": 1670,
      "##ister": 1671,
      "##amed": 1672,
      "touch": 1673,
      "med": 1674,
      "susp": 1675,
      "Every": 1676,
      "mag": 1677,
      "docum": 1678,
      "history": 1679,
      "Dan": 1680,
      "##chn": 1681,
      "situ": 1682,
      "etc": 1683,
      "cult": 1684,
      "fem": 1685,
      "tries": 1686,
      "stra": 1687,
      "hon": 1688,
      "##ik": 1689,
      "##OT": 1690,
      "fair": 1691,
      "##ung": 1692,
      "May": 1693,
      "sat": 1694,
      "break": 1695,
      "teen": 1696,
      "enjoyed": 1697,
      "final": 1698,
      "gave": 1699,
      "col": 1700,
      "num": 1701,
      "Theres": 1702,
      "##ett": 1703,
      "deliver": 1704,
      "level": 1705,
      "##yp": 1706,
      "##orge": 1707,
      "##use": 1708,
      "##ats": 1709,
      "Ger": 1710,
      "Pl": 1711,
      "psych": 1712,
      "##ination": 1713,
      "crit": 1714,
      "foot": 1715,
      "##using": 1716,
      "learn": 1717,
      "days": 1718,
      "##etic": 1719,
      "appear": 1720,
      "shoot": 1721,
      "genre": 1722,
      "parts": 1723,
      "turns": 1724,
      "##ged": 1725,
      "....": 1726,
      "finally": 1727,
      "amazing": 1728,
      "mot": 1729,
      "prom": 1730,
      "ones": 1731,
      "type": 1732,
      "novel": 1733,
      ".)": 1734,
      "##eter": 1735,
      "girls": 1736,
      "##ude": 1737,
      "son": 1738,
      "rep": 1739,
      "hilar": 1740,
      "themselves": 1741,
      "favorite": 1742,
      "late": 1743,
      "##ient": 1744,
      "Do": 1745,
      "horrible": 1746,
      "##onn": 1747,
      "aff": 1748,
      "contin": 1749,
      "ir": 1750,
      "##ajor": 1751,
      "##akes": 1752,
      "fig": 1753,
      "typ": 1754,
      "##und": 1755,
      "##itive": 1756,
      "behind": 1757,
      "document": 1758,
      "##ien": 1759,
      "moment": 1760,
      "##ured": 1761,
      "exact": 1762,
      "##ution": 1763,
      "viewer": 1764,
      "Ke": 1765,
      "starts": 1766,
      "pick": 1767,
      "lea": 1768,
      "myself": 1769,
      "group": 1770,
      "##ific": 1771,
      "wish": 1772,
      "killed": 1773,
      "##iet": 1774,
      "youll": 1775,
      "##okes": 1776,
      "##up": 1777,
      "intell": 1778,
      "evil": 1779,
      "God": 1780,
      "thinking": 1781,
      "Pa": 1782,
      "perhaps": 1783,
      "ask": 1784,
      "brilliant": 1785,
      "says": 1786,
      "cost": 1787,
      "opp": 1788,
      "Any": 1789,
      "decent": 1790,
      "eyes": 1791,
      "prof": 1792,
      "!!": 1793,
      "effort": 1794,
      "##ried": 1795,
      "known": 1796,
      "##iculous": 1797,
      "incred": 1798,
      "took": 1799,
      "##astic": 1800,
      "voice": 1801,
      "Dont": 1802,
      "speak": 1803,
      "killer": 1804,
      "##usb": 1805,
      "white": 1806,
      "happens": 1807,
      "win": 1808,
      "hilarious": 1809,
      "heard": 1810,
      "directed": 1811,
      "const": 1812,
      "Ind": 1813,
      "Brit": 1814,
      "experience": 1815,
      "##ior": 1816,
      "##ump": 1817,
      "non": 1818,
      "ste": 1819,
      "feeling": 1820,
      "!)": 1821,
      "Per": 1822,
      "soon": 1823,
      "##ising": 1824,
      "rent": 1825,
      "##ians": 1826,
      "cinemat": 1827,
      "chang": 1828,
      "##gn": 1829,
      "##like": 1830,
      "Or": 1831,
      "shes": 1832,
      "##usband": 1833,
      "##unt": 1834,
      "tele": 1835,
      "David": 1836,
      "room": 1837,
      "##ives": 1838,
      "Am": 1839,
      "major": 1840,
      "theyre": 1841,
      "##ances": 1842,
      "involved": 1843,
      "Tr": 1844,
      "##ether": 1845,
      "clich": 1846,
      "sle": 1847,
      "##gu": 1848,
      "##eless": 1849,
      "Pe": 1850,
      "##tra": 1851,
      "##owing": 1852,
      "cool": 1853,
      "##AN": 1854,
      "ridiculous": 1855,
      "##AT": 1856,
      "##ex": 1857,
      "hit": 1858,
      "daughter": 1859,
      "told": 1860,
      "hold": 1861,
      "husband": 1862,
      "roles": 1863,
      "stories": 1864,
      "Oh": 1865,
      "shock": 1866,
      "sol": 1867,
      "bus": 1868,
      "dream": 1869,
      "opin": 1870,
      "cheap": 1871,
      "predict": 1872,
      "cannot": 1873,
      "coming": 1874,
      "##ST": 1875,
      "age": 1876,
      "##urt": 1877,
      "##cks": 1878,
      "esc": 1879,
      "War": 1880,
      "##antic": 1881,
      "looked": 1882,
      "extremely": 1883,
      "chance": 1884,
      "James": 1885,
      "including": 1886,
      "swe": 1887,
      "##ek": 1888,
      "score": 1889,
      "result": 1890,
      "##zy": 1891,
      "##ots": 1892,
      "##anger": 1893,
      "weak": 1894,
      "move": 1895,
      "order": 1896,
      "Har": 1897,
      "bo": 1898,
      "leave": 1899,
      "wouldnt": 1900,
      "Tom": 1901,
      "ant": 1902,
      "violence": 1903,
      "quick": 1904,
      "crap": 1905,
      "##ement": 1906,
      "appar": 1907,
      "ago": 1908,
      "English": 1909,
      "Ad": 1910,
      "##rodu": 1911,
      "shown": 1912,
      "##iddle": 1913,
      "##ffic": 1914,
      "bring": 1915,
      "particularly": 1916,
      "Ph": 1917,
      "Rich": 1918,
      "##mak": 1919,
      "happened": 1920,
      "event": 1921,
      "techn": 1922,
      "##ator": 1923,
      "polit": 1924,
      "##ique": 1925,
      "musical": 1926,
      "obviously": 1927,
      "simple": 1928,
      "talent": 1929,
      "desc": 1930,
      "##rop": 1931,
      "discover": 1932,
      "##LL": 1933,
      "dev": 1934,
      "\")": 1935,
      "##nded": 1936,
      "##arch": 1937,
      "taken": 1938,
      "pos": 1939,
      "country": 1940,
      "Je": 1941,
      "##irect": 1942,
      "##OR": 1943,
      "##urb": 1944,
      "##ral": 1945,
      "##ational": 1946,
      "subject": 1947,
      "jokes": 1948,
      "##wards": 1949,
      "##ugg": 1950,
      "Ne": 1951,
      "##ON": 1952,
      "##nds": 1953,
      "##outh": 1954,
      "##side": 1955,
      "return": 1956,
      "var": 1957,
      "Ill": 1958,
      "hell": 1959,
      "released": 1960,
      "##omp": 1961,
      "career": 1962,
      "197": 1963,
      "First": 1964,
      "across": 1965,
      "sym": 1966,
      "##iety": 1967,
      "cover": 1968,
      "four": 1969,
      "ill": 1970,
      "stay": 1971,
      "Although": 1972,
      "opening": 1973,
      "##AR": 1974,
      "reality": 1975,
      "highly": 1976,
      "!\"": 1977,
      "ang": 1978,
      "dest": 1979,
      "foc": 1980,
      "phot": 1981,
      "##itting": 1982,
      "##aid": 1983,
      "deep": 1984,
      "sometimes": 1985,
      "inde": 1986,
      "gun": 1987,
      "moder": 1988,
      "##vision": 1989,
      "198": 1990,
      "##esh": 1991,
      "##ield": 1992,
      "huge": 1993,
      "build": 1994,
      "##gan": 1995,
      "lar": 1996,
      "saying": 1997,
      "##ground": 1998,
      "fut": 1999,
      "hours": 2000,
      "exactly": 2001,
      "##mm": 2002,
      "suspense": 2003,
      "doub": 2004,
      "##ival": 2005,
      "##illiam": 2006,
      "annoying": 2007,
      "documentary": 2008,
      "##pping": 2009,
      "yourself": 2010,
      "whose": 2011,
      "body": 2012,
      "OK": 2013,
      "feat": 2014,
      "writer": 2015,
      "similar": 2016,
      "Dr": 2017,
      "##ls": 2018,
      "strange": 2019,
      "pay": 2020,
      "shots": 2021,
      "##co": 2022,
      "##ential": 2023,
      "##ury": 2024,
      "##form": 2025,
      "##ants": 2026,
      "hot": 2027,
      "save": 2028,
      "opinion": 2029,
      "started": 2030,
      "##by": 2031,
      "turned": 2032,
      "important": 2033,
      "pull": 2034,
      "possible": 2035,
      "prem": 2036,
      "##enty": 2037,
      "number": 2038,
      "cinematography": 2039,
      "treat": 2040,
      "air": 2041,
      "subt": 2042,
      "##ili": 2043,
      "Over": 2044,
      "gore": 2045,
      "brother": 2046,
      "ends": 2047,
      "20": 2048,
      "change": 2049,
      "##yond": 2050,
      "forget": 2051,
      "today": 2052,
      "honest": 2053,
      "Paul": 2054,
      "##iction": 2055,
      "German": 2056,
      "narr": 2057,
      "living": 2058,
      "prot": 2059,
      "alone": 2060,
      "William": 2061,
      "team": 2062,
      "filmmak": 2063,
      "pri": 2064,
      "##aur": 2065,
      "police": 2066,
      "usual": 2067,
      "running": 2068,
      "##aim": 2069,
      "despite": 2070,
      "##estern": 2071,
      "##otic": 2072,
      "somewhat": 2073,
      "taking": 2074,
      "female": 2075,
      "##mos": 2076,
      "disappointed": 2077,
      "exist": 2078,
      "##oud": 2079,
      "##ole": 2080,
      "##ball": 2081,
      "finds": 2082,
      "detail": 2083,
      "straight": 2084,
      "fill": 2085,
      "modern": 2086,
      "##ouble": 2087,
      "Lu": 2088,
      "vict": 2089,
      "local": 2090,
      "Rob": 2091,
      "##ina": 2092,
      "knows": 2093,
      "contro": 2094,
      "knew": 2095,
      "Thats": 2096,
      "silly": 2097,
      "single": 2098,
      "emb": 2099,
      "attention": 2100,
      "sent": 2101,
      "##aged": 2102,
      "##ING": 2103,
      "Wor": 2104,
      "##he": 2105,
      "##ec": 2106,
      "talking": 2107,
      "drug": 2108,
      "respect": 2109,
      "words": 2110,
      "El": 2111,
      "##ald": 2112,
      "land": 2113,
      "##--": 2114,
      "usually": 2115,
      "199": 2116,
      "problems": 2117,
      "sold": 2118,
      "##dy": 2119,
      "##reci": 2120,
      "among": 2121,
      "remind": 2122,
      "mostly": 2123,
      "conc": 2124,
      "inn": 2125,
      "##oof": 2126,
      "middle": 2127,
      "episodes": 2128,
      "##apan": 2129,
      "mist": 2130,
      "ten": 2131,
      "##lt": 2132,
      "##ires": 2133,
      "pot": 2134,
      "##ises": 2135,
      "hop": 2136,
      "equ": 2137,
      "##rit": 2138,
      "Osc": 2139,
      "plan": 2140,
      "meet": 2141,
      "ut": 2142,
      "spir": 2143,
      "##ubl": 2144,
      "sequence": 2145,
      "##ctor": 2146,
      "convin": 2147,
      "##gy": 2148,
      "Sam": 2149,
      "atmos": 2150,
      "dog": 2151,
      "adv": 2152,
      "cart": 2153,
      "compl": 2154,
      "eng": 2155,
      "British": 2156,
      "exp": 2157,
      "##ished": 2158,
      "ra": 2159,
      "##bel": 2160,
      "forg": 2161,
      "events": 2162,
      "##ron": 2163,
      "##orable": 2164,
      "near": 2165,
      "arent": 2166,
      "hands": 2167,
      "check": 2168,
      "##ered": 2169,
      "due": 2170,
      "directors": 2171,
      "sign": 2172,
      "intellig": 2173,
      "Japan": 2174,
      "gang": 2175,
      "##ital": 2176,
      "tells": 2177,
      "box": 2178,
      "appreci": 2179,
      "##ills": 2180,
      "##usion": 2181,
      "Unf": 2182,
      "##oun": 2183,
      "television": 2184,
      "happy": 2185,
      "##br": 2186,
      "##ino": 2187,
      "##read": 2188,
      "##ubb": 2189,
      "scary": 2190,
      "Yes": 2191,
      "explain": 2192,
      "mark": 2193,
      "odd": 2194,
      "From": 2195,
      "clear": 2196,
      "##ices": 2197,
      "##how": 2198,
      "##asons": 2199,
      "##ky": 2200,
      "mater": 2201,
      "soundtra": 2202,
      "romantic": 2203,
      "Maybe": 2204,
      "previous": 2205,
      "appears": 2206,
      "##ection": 2207,
      "pleas": 2208,
      "sets": 2209,
      "present": 2210,
      "none": 2211,
      "seriously": 2212,
      "question": 2213,
      "upon": 2214,
      "dull": 2215,
      "songs": 2216,
      "predictable": 2217,
      "Mor": 2218,
      "hate": 2219,
      "moving": 2220,
      "IM": 2221,
      "##iod": 2222,
      "enjoyable": 2223,
      "Su": 2224,
      "Dis": 2225,
      "camp": 2226,
      "Frank": 2227,
      "comic": 2228,
      "##arely": 2229,
      "apart": 2230,
      "##EN": 2231,
      "eye": 2232,
      "Richard": 2233,
      "material": 2234,
      "Ber": 2235,
      "##athetic": 2236,
      "beyond": 2237,
      "aspect": 2238,
      "spoil": 2239,
      "sexual": 2240,
      "George": 2241,
      "Unfortunately": 2242,
      "twist": 2243,
      "soundtrack": 2244,
      "bel": 2245,
      "##inc": 2246,
      "giving": 2247,
      "##attle": 2248,
      "release": 2249,
      "clearly": 2250,
      "message": 2251,
      "doubt": 2252,
      "free": 2253,
      "above": 2254,
      "viewers": 2255,
      "sequel": 2256,
      "##orry": 2257,
      "Gu": 2258,
      "ways": 2259,
      "##wise": 2260,
      "##any": 2261,
      "##ension": 2262,
      "##ned": 2263,
      "havent": 2264,
      "flaw": 2265,
      "visual": 2266,
      "future": 2267,
      "##reet": 2268,
      "feature": 2269,
      "##ength": 2270,
      "victim": 2271,
      "easily": 2272,
      "needs": 2273,
      "surprised": 2274,
      "##aced": 2275,
      "tried": 2276,
      "##res": 2277,
      "theat": 2278,
      "##ental": 2279,
      "thriller": 2280,
      "slight": 2281,
      "Sch": 2282,
      "creep": 2283,
      "Nor": 2284,
      "##ening": 2285,
      "fast": 2286,
      "zomb": 2287,
      "##asc": 2288,
      "##others": 2289,
      "adult": 2290,
      "French": 2291,
      "accept": 2292,
      "writ": 2293,
      "falls": 2294,
      "entertainment": 2295,
      "NOT": 2296,
      "showing": 2297,
      "insp": 2298,
      "80s": 2299,
      "Most": 2300,
      "Tw": 2301,
      "?)": 2302,
      "mil": 2303,
      "By": 2304,
      "bunch": 2305,
      "##oul": 2306,
      "bar": 2307,
      "period": 2308,
      "##cious": 2309,
      "named": 2310,
      "##icks": 2311,
      "Jul": 2312,
      "concer": 2313,
      "theme": 2314,
      "##ges": 2315,
      "post": 2316,
      "secret": 2317,
      "##off": 2318,
      "personal": 2319,
      "##aught": 2320,
      "working": 2321,
      "sugg": 2322,
      "suggest": 2323,
      "adapt": 2324,
      "Par": 2325,
      "storyline": 2326,
      "parents": 2327,
      "##kay": 2328,
      "##pend": 2329,
      "met": 2330,
      "##stery": 2331,
      "##ltim": 2332,
      "iss": 2333,
      "reve": 2334,
      "Like": 2335,
      "##ublic": 2336,
      "Ital": 2337,
      "actual": 2338,
      "large": 2339,
      "minute": 2340,
      "attack": 2341,
      "##bs": 2342,
      "filmed": 2343,
      "##light": 2344,
      "##oose": 2345,
      "supporting": 2346,
      "##asy": 2347,
      "yes": 2348,
      "Com": 2349,
      "surv": 2350,
      "easy": 2351,
      "norm": 2352,
      "within": 2353,
      "feels": 2354,
      "kept": 2355,
      "##EA": 2356,
      "means": 2357,
      "##irt": 2358,
      "realistic": 2359,
      "##fficult": 2360,
      "comments": 2361,
      "elements": 2362,
      "bro": 2363,
      "Ex": 2364,
      "points": 2365,
      "difficult": 2366,
      "clim": 2367,
      "Col": 2368,
      "comb": 2369,
      "fell": 2370,
      "Jim": 2371,
      "##back": 2372,
      "?\"": 2373,
      "Sim": 2374,
      "##bers": 2375,
      "Who": 2376,
      "viewing": 2377,
      "##row": 2378,
      "rating": 2379,
      "meaning": 2380,
      "typical": 2381,
      "decided": 2382,
      "superb": 2383,
      "##uses": 2384,
      "herself": 2385,
      "overall": 2386,
      "##view": 2387,
      "US": 2388,
      "famous": 2389,
      "##IL": 2390,
      "five": 2391,
      "Good": 2392,
      "##ceed": 2393,
      "Peter": 2394,
      "tre": 2395,
      "truth": 2396,
      "##ially": 2397,
      "##iff": 2398,
      "dan": 2399,
      "editing": 2400,
      "##ppy": 2401,
      "Oscar": 2402,
      "##iest": 2403,
      "##imin": 2404,
      "195": 2405,
      "obs": 2406,
      "believable": 2407,
      "nearly": 2408,
      "die": 2409,
      "introdu": 2410,
      "teach": 2411,
      "Watch": 2412,
      "using": 2413,
      "buy": 2414,
      "##verage": 2415,
      "brought": 2416,
      "Direct": 2417,
      "##atural": 2418,
      "hear": 2419,
      "leads": 2420,
      "##oor": 2421,
      "##ering": 2422,
      "##phere": 2423,
      "Qu": 2424,
      "Fl": 2425,
      "Mov": 2426,
      "sens": 2427,
      "city": 2428,
      "##gic": 2429,
      "##ara": 2430,
      "##iences": 2431,
      "whether": 2432,
      "match": 2433,
      "weird": 2434,
      "sil": 2435,
      "##sw": 2436,
      "contain": 2437,
      "reviews": 2438,
      "business": 2439,
      "##essed": 2440,
      "figure": 2441,
      "auth": 2442,
      "ru": 2443,
      "conv": 2444,
      "express": 2445,
      "mix": 2446,
      "tale": 2447,
      "##OU": 2448,
      "##esy": 2449,
      "##ES": 2450,
      "Ang": 2451,
      "bab": 2452,
      "sequences": 2453,
      "greatest": 2454,
      "front": 2455,
      "begins": 2456,
      "Des": 2457,
      "dumb": 2458,
      "##omin": 2459,
      "Ann": 2460,
      "basically": 2461,
      "background": 2462,
      "Gra": 2463,
      "##ored": 2464,
      "rock": 2465,
      "sister": 2466,
      "York": 2467,
      "##com": 2468,
      "##ee": 2469,
      "catch": 2470,
      "law": 2471,
      "soc": 2472,
      "expected": 2473,
      "##reed": 2474,
      "masterp": 2475,
      "##oe": 2476,
      "theater": 2477,
      "##lling": 2478,
      "premise": 2479,
      "atmosphere": 2480,
      "##atever": 2481,
      "wait": 2482,
      "crime": 2483,
      "particular": 2484,
      "Bra": 2485,
      "apparently": 2486,
      "##ining": 2487,
      "##aling": 2488,
      "refer": 2489,
      "##fer": 2490,
      "stri": 2491,
      "conn": 2492,
      "fantastic": 2493,
      "average": 2494,
      "pat": 2495,
      "surprise": 2496,
      "Aust": 2497,
      "##....": 2498,
      "lots": 2499,
      "utter": 2500,
      "Fin": 2501,
      "These": 2502,
      "animation": 2503,
      "situation": 2504,
      "##ively": 2505,
      "liter": 2506,
      "flash": 2507,
      "Overall": 2508,
      "Mart": 2509,
      "lim": 2510,
      "##key": 2511,
      "mill": 2512,
      "forward": 2513,
      "Night": 2514,
      "killing": 2515,
      "IMD": 2516,
      "##dden": 2517,
      "Ben": 2518,
      "##lfriend": 2519,
      "Tra": 2520,
      "wind": 2521,
      "Film": 2522,
      "fi": 2523,
      "##where": 2524,
      "wood": 2525,
      "nor": 2526,
      "clever": 2527,
      "Black": 2528,
      "##ously": 2529,
      "stere": 2530,
      "needed": 2531,
      "##lier": 2532,
      "Joe": 2533,
      "crew": 2534,
      "##ogn": 2535,
      "emotional": 2536,
      "tast": 2537,
      "stage": 2538,
      "exec": 2539,
      "poorly": 2540,
      "##real": 2541,
      "Sm": 2542,
      "leaves": 2543,
      "male": 2544,
      "avoid": 2545,
      "pure": 2546,
      "appro": 2547,
      "fire": 2548,
      "oper": 2549,
      "wit": 2550,
      "acted": 2551,
      "gone": 2552,
      "##let": 2553,
      "inte": 2554,
      "##ips": 2555,
      "bother": 2556,
      "resp": 2557,
      "sick": 2558,
      "became": 2559,
      "credits": 2560,
      "footage": 2561,
      "grand": 2562,
      "Ser": 2563,
      "lame": 2564,
      "##urther": 2565,
      "forced": 2566,
      "##cers": 2567,
      "##bo": 2568,
      "strugg": 2569,
      "AN": 2570,
      "##rated": 2571,
      "sudden": 2572,
      "##cle": 2573,
      "write": 2574,
      "girlfriend": 2575,
      "bored": 2576,
      "memorable": 2577,
      "lets": 2578,
      "monster": 2579,
      "space": 2580,
      "##sh": 2581,
      "##uted": 2582,
      "heav": 2583,
      "anyway": 2584,
      "writers": 2585,
      "enc": 2586,
      "##head": 2587,
      "allow": 2588,
      "##arre": 2589,
      "copy": 2590,
      "shame": 2591,
      "##rific": 2592,
      "society": 2593,
      "##ula": 2594,
      "Eur": 2595,
      "unique": 2596,
      "youve": 2597,
      "advent": 2598,
      "Con": 2599,
      "##ram": 2600,
      "project": 2601,
      "emotion": 2602,
      "interested": 2603,
      "mad": 2604,
      "##bb": 2605,
      "whos": 2606,
      "rich": 2607,
      "meets": 2608,
      "profess": 2609,
      "Will": 2610,
      "ultim": 2611,
      "somehow": 2612,
      "Can": 2613,
      "King": 2614,
      "dam": 2615,
      "er": 2616,
      "##ager": 2617,
      "unlike": 2618,
      "laughs": 2619,
      "##nding": 2620,
      "stereot": 2621,
      "features": 2622,
      "##aces": 2623,
      "##lin": 2624,
      "whom": 2625,
      "perfectly": 2626,
      "prison": 2627,
      "public": 2628,
      "##ries": 2629,
      "los": 2630,
      "??": 2631,
      "ca": 2632,
      "costum": 2633,
      "Wood": 2634,
      "12": 2635,
      "water": 2636,
      "cheesy": 2637,
      "season": 2638,
      "keeps": 2639,
      "Pro": 2640,
      "gay": 2641,
      "##por": 2642,
      "mystery": 2643,
      "reading": 2644,
      "boys": 2645,
      "concept": 2646,
      "##angu": 2647,
      "##ius": 2648,
      "third": 2649,
      "Scott": 2650,
      "meant": 2651,
      "America": 2652,
      "quickly": 2653,
      "##iliar": 2654,
      "Japanese": 2655,
      "##arth": 2656,
      "Inst": 2657,
      "Lee": 2658,
      "nature": 2659,
      "##ived": 2660,
      "##pper": 2661,
      "possibly": 2662,
      "masterpiece": 2663,
      "imagine": 2664,
      "roll": 2665,
      "196": 2666,
      "Great": 2667,
      "##agon": 2668,
      "cap": 2669,
      "##isf": 2670,
      "worked": 2671,
      "mod": 2672,
      "uns": 2673,
      "romance": 2674,
      "please": 2675,
      "##onic": 2676,
      "villain": 2677,
      "clos": 2678,
      "##rupt": 2679,
      "histor": 2680,
      "setting": 2681,
      "Act": 2682,
      "##aking": 2683,
      "popular": 2684,
      "badly": 2685,
      "realize": 2686,
      "disturb": 2687,
      "##iel": 2688,
      "repe": 2689,
      "##chie": 2690,
      "Af": 2691,
      "gh": 2692,
      "amount": 2693,
      "Gl": 2694,
      "##anks": 2695,
      "trad": 2696,
      "Star": 2697,
      "extra": 2698,
      "cry": 2699,
      "joke": 2700,
      "Pat": 2701,
      "dance": 2702,
      "band": 2703,
      "##uel": 2704,
      "##uff": 2705,
      "##oph": 2706,
      "purp": 2707,
      "earlier": 2708,
      "general": 2709,
      "starr": 2710,
      "Ale": 2711,
      "##olf": 2712,
      "193": 2713,
      "##acy": 2714,
      "older": 2715,
      "screenplay": 2716,
      "hom": 2717,
      "rate": 2718,
      "sorry": 2719,
      "Don": 2720,
      "fasc": 2721,
      "total": 2722,
      "powerful": 2723,
      "agree": 2724,
      "##rey": 2725,
      "whats": 2726,
      "dramatic": 2727,
      "innoc": 2728,
      "##hood": 2729,
      "##urd": 2730,
      "recogn": 2731,
      "##mas": 2732,
      "brings": 2733,
      "colle": 2734,
      "various": 2735,
      "70s": 2736,
      "##king": 2737,
      "Bar": 2738,
      "Em": 2739,
      "est": 2740,
      "towards": 2741,
      "##allow": 2742,
      "15": 2743,
      "battle": 2744,
      "admit": 2745,
      "##ze": 2746,
      "incredibly": 2747,
      "En": 2748,
      "##lect": 2749,
      "inside": 2750,
      "##aked": 2751,
      "##RE": 2752,
      "##ares": 2753,
      "answ": 2754,
      "scient": 2755,
      "##more": 2756,
      "hair": 2757,
      "cartoon": 2758,
      "trash": 2759,
      "portrayed": 2760,
      "##unning": 2761,
      "##cessary": 2762,
      "##iers": 2763,
      "reasons": 2764,
      "directing": 2765,
      "vamp": 2766,
      "##gest": 2767,
      "spent": 2768,
      "development": 2769,
      "creepy": 2770,
      "occas": 2771,
      "##ases": 2772,
      "note": 2773,
      "design": 2774,
      "sleep": 2775,
      "eventually": 2776,
      "Hes": 2777,
      "##uct": 2778,
      "attract": 2779,
      "jour": 2780,
      "invest": 2781,
      "cir": 2782,
      "fails": 2783,
      "imm": 2784,
      "Another": 2785,
      "IMDb": 2786,
      "langu": 2787,
      "fairly": 2788,
      "political": 2789,
      "sounds": 2790,
      "Cr": 2791,
      "deserves": 2792,
      "Bill": 2793,
      "##gs": 2794,
      "commun": 2795,
      "##itty": 2796,
      "flat": 2797,
      "und": 2798,
      "wasted": 2799,
      "spirit": 2800,
      "leading": 2801,
      "##acing": 2802,
      "beauty": 2803,
      "Russ": 2804,
      "cond": 2805,
      "##ai": 2806,
      "telling": 2807,
      "##itted": 2808,
      "ideas": 2809,
      "create": 2810,
      "##ask": 2811,
      "ign": 2812,
      "manages": 2813,
      "phys": 2814,
      "fighting": 2815,
      "Mad": 2816,
      "deb": 2817,
      "ended": 2818,
      "attempts": 2819,
      "##friend": 2820,
      "##OO": 2821,
      "plain": 2822,
      "record": 2823,
      "members": 2824,
      "porn": 2825,
      "expecting": 2826,
      "194": 2827,
      "revol": 2828,
      "filmmakers": 2829,
      "bed": 2830,
      "nud": 2831,
      "plenty": 2832,
      "ident": 2833,
      "Disney": 2834,
      "familiar": 2835,
      "depth": 2836,
      "##ana": 2837,
      "neg": 2838,
      "pers": 2839,
      "##ivid": 2840,
      "##sters": 2841,
      "indeed": 2842,
      "Other": 2843,
      "World": 2844,
      "##ades": 2845,
      "social": 2846,
      "##...": 2847,
      "offic": 2848,
      "missing": 2849,
      "era": 2850,
      "accident": 2851,
      "Van": 2852,
      "destro": 2853,
      "Tim": 2854,
      "caught": 2855,
      "jud": 2856,
      "outside": 2857,
      "ess": 2858,
      "talented": 2859,
      "symp": 2860,
      "##ios": 2861,
      "##inary": 2862,
      "brain": 2863,
      "##erm": 2864,
      "suffer": 2865,
      "30": 2866,
      "Hor": 2867,
      "ble": 2868,
      "##zz": 2869,
      "##ites": 2870,
      "suck": 2871,
      "travel": 2872,
      "react": 2873,
      "stat": 2874,
      "Mat": 2875,
      "common": 2876,
      "positive": 2877,
      "Mon": 2878,
      "##iously": 2879,
      "laughing": 2880,
      "Instead": 2881,
      "whatever": 2882,
      "cute": 2883,
      "relig": 2884,
      "(\"": 2885,
      "##oman": 2886,
      "##arrass": 2887,
      "##illing": 2888,
      "##ague": 2889,
      "##medi": 2890,
      "achie": 2891,
      "Italian": 2892,
      "hy": 2893,
      "##ele": 2894,
      "potential": 2895,
      "Ev": 2896,
      "repr": 2897,
      "remake": 2898,
      "created": 2899,
      "##ette": 2900,
      "crazy": 2901,
      "claim": 2902,
      "##izing": 2903,
      "produced": 2904,
      "western": 2905,
      "##ishing": 2906,
      "requ": 2907,
      "recently": 2908,
      "Ha": 2909,
      "pace": 2910,
      "escape": 2911,
      "impro": 2912,
      "##belie": 2913,
      "biz": 2914,
      "reach": 2915,
      "step": 2916,
      "embarrass": 2917,
      "##ey": 2918,
      "##par": 2919,
      "##andy": 2920,
      "mentioned": 2921,
      "pu": 2922,
      "##ding": 2923,
      "##erry": 2924,
      "##iny": 2925,
      "funn": 2926,
      "brief": 2927,
      "forgot": 2928,
      "cat": 2929,
      "##ective": 2930,
      "wrote": 2931,
      "following": 2932,
      "##istry": 2933,
      "unless": 2934,
      "missed": 2935,
      "SP": 2936,
      "fash": 2937,
      "##emy": 2938,
      "intri": 2939,
      "##ivers": 2940,
      "immedi": 2941,
      "medi": 2942,
      "##erv": 2943,
      "trail": 2944,
      "##ology": 2945,
      "stereotyp": 2946,
      "sees": 2947,
      "Big": 2948,
      "doll": 2949,
      "complex": 2950,
      "Dead": 2951,
      "##go": 2952,
      "##ieces": 2953,
      "former": 2954,
      "nudity": 2955,
      "mel": 2956,
      "ve": 2957,
      "amb": 2958,
      "Love": 2959,
      "hardly": 2960,
      "approach": 2961,
      "waiting": 2962,
      "subtle": 2963,
      "slightly": 2964,
      "Cra": 2965,
      "arri": 2966,
      "anti": 2967,
      "Movie": 2968,
      "##gress": 2969,
      "##IS": 2970,
      "Europe": 2971,
      "Sw": 2972,
      "mach": 2973,
      "##bor": 2974,
      "search": 2975,
      "##venge": 2976,
      "credit": 2977,
      "rece": 2978,
      "Kar": 2979,
      "further": 2980,
      "sweet": 2981,
      "Red": 2982,
      "fly": 2983,
      "##work": 2984,
      "##ashing": 2985,
      "earth": 2986,
      "filled": 2987,
      "##uter": 2988,
      "##aging": 2989,
      "casting": 2990,
      "decides": 2991,
      "draw": 2992,
      "Park": 2993,
      "stick": 2994,
      "convincing": 2995,
      "Here": 2996,
      "uses": 2997,
      "color": 2998,
      "House": 2999,
      "##to": 3000,
      "High": 3001,
      "store": 3002,
      "mid": 3003,
      "mass": 3004,
      "##af": 3005,
      "##lu": 3006,
      "Ir": 3007,
      "desper": 3008,
      "value": 3009,
      "Perhaps": 3010,
      "Rock": 3011,
      "##rage": 3012,
      "##gram": 3013,
      "chem": 3014,
      "##ibility": 3015,
      "rad": 3016,
      "wall": 3017,
      "##inger": 3018,
      "delight": 3019,
      "married": 3020,
      "fit": 3021,
      "##uine": 3022,
      "entirely": 3023,
      "##ma": 3024,
      "##aud": 3025,
      "##lict": 3026,
      "pointless": 3027,
      "tension": 3028,
      "track": 3029,
      "follows": 3030,
      "Boy": 3031,
      "##lusion": 3032,
      "Gold": 3033,
      "##ilt": 3034,
      "cross": 3035,
      "died": 3036,
      "portrayal": 3037,
      "##ened": 3038,
      "appreciate": 3039,
      "Ye": 3040,
      "##itation": 3041,
      "myster": 3042,
      "idi": 3043,
      "tort": 3044,
      "scream": 3045,
      "language": 3046,
      "ine": 3047,
      "luck": 3048,
      "unbelie": 3049,
      "fantasy": 3050,
      "cause": 3051,
      "##eem": 3052,
      "##iced": 3053,
      "##alth": 3054,
      "sum": 3055,
      "remark": 3056,
      "genuine": 3057,
      "bizarre": 3058,
      "##ossible": 3059,
      "Jane": 3060,
      "Che": 3061,
      "unfortunately": 3062,
      "choice": 3063,
      "Hitch": 3064,
      "Mac": 3065,
      "##vern": 3066,
      "intelligent": 3067,
      "Lou": 3068,
      "##esome": 3069,
      "##men": 3070,
      "solid": 3071,
      "moves": 3072,
      "##amb": 3073,
      "##ero": 3074,
      "younger": 3075,
      "lady": 3076,
      "##uce": 3077,
      "accent": 3078,
      "satisf": 3079,
      "Fred": 3080,
      "mere": 3081,
      "depict": 3082,
      "fashion": 3083,
      "##anch": 3084,
      "Ab": 3085,
      "##uit": 3086,
      "pack": 3087,
      "tough": 3088,
      "fol": 3089,
      "Still": 3090,
      "ground": 3091,
      "##ED": 3092,
      "manner": 3093,
      "images": 3094,
      "##aus": 3095,
      "biggest": 3096,
      "successful": 3097,
      "situations": 3098,
      "regard": 3099,
      "##yl": 3100,
      "party": 3101,
      "exciting": 3102,
      "Director": 3103,
      "danger": 3104,
      "Dra": 3105,
      "##VER": 3106,
      "garb": 3107,
      "##isingly": 3108,
      "##idden": 3109,
      "humour": 3110,
      "##annel": 3111,
      "jump": 3112,
      "week": 3113,
      "longer": 3114,
      "audiences": 3115,
      "Sec": 3116,
      "wild": 3117,
      "control": 3118,
      "beat": 3119,
      "amusing": 3120,
      "contr": 3121,
      "incredible": 3122,
      "rap": 3123,
      "Christmas": 3124,
      "##alt": 3125,
      "remain": 3126,
      "purpose": 3127,
      "##isc": 3128,
      "breat": 3129,
      "terror": 3130,
      "critic": 3131,
      "decide": 3132,
      "compet": 3133,
      "Mur": 3134,
      "##erent": 3135,
      "producers": 3136,
      "violent": 3137,
      "doctor": 3138,
      "focus": 3139,
      "##irty": 3140,
      "dim": 3141,
      "effective": 3142,
      "fake": 3143,
      "##ands": 3144,
      "II": 3145,
      "ball": 3146,
      "##OW": 3147,
      "##ateur": 3148,
      "brut": 3149,
      "mer": 3150,
      "##iment": 3151,
      "recent": 3152,
      "news": 3153,
      "culture": 3154,
      "Best": 3155,
      "otherwise": 3156,
      "spend": 3157,
      "train": 3158,
      "Sure": 3159,
      "##uster": 3160,
      "likes": 3161,
      "trouble": 3162,
      "office": 3163,
      "##ribly": 3164,
      "Mel": 3165,
      "kills": 3166,
      "mood": 3167,
      "changed": 3168,
      "inform": 3169,
      "sci": 3170,
      "glad": 3171,
      "##ization": 3172,
      "involving": 3173,
      "questions": 3174,
      "bomb": 3175,
      "werent": 3176,
      "product": 3177,
      "100": 3178,
      "##arily": 3179,
      "##unny": 3180,
      "proper": 3181,
      "ups": 3182,
      "dancing": 3183,
      "repres": 3184,
      "kick": 3185,
      "suspect": 3186,
      "college": 3187,
      "Ray": 3188,
      "##ns": 3189,
      "##here": 3190,
      "##ales": 3191,
      "program": 3192,
      "continu": 3193,
      "makers": 3194,
      "values": 3195,
      "Alex": 3196,
      "Very": 3197,
      "##wart": 3198,
      "mans": 3199,
      "impressive": 3200,
      "pathetic": 3201,
      "Anyway": 3202,
      "Bat": 3203,
      "Go": 3204,
      "##itary": 3205,
      "##standing": 3206,
      "##aff": 3207,
      "compe": 3208,
      "fascin": 3209,
      "Mary": 3210,
      "##OM": 3211,
      "prop": 3212,
      "normal": 3213,
      "##gend": 3214,
      "showed": 3215,
      "company": 3216,
      "##ches": 3217,
      "street": 3218,
      "##while": 3219,
      "barely": 3220,
      "ghost": 3221,
      "garbage": 3222,
      "compared": 3223,
      "books": 3224,
      "assum": 3225,
      "opportun": 3226,
      "##elly": 3227,
      "Where": 3228,
      "bull": 3229,
      "##come": 3230,
      "amateur": 3231,
      "singing": 3232,
      "taste": 3233,
      "test": 3234,
      "god": 3235,
      "##ensive": 3236,
      "OF": 3237,
      "ST": 3238,
      "loud": 3239,
      "Afric": 3240,
      "##andom": 3241,
      "fear": 3242,
      "disg": 3243,
      "runs": 3244,
      "failed": 3245,
      "interview": 3246,
      "##anc": 3247,
      "bott": 3248,
      "oh": 3249,
      "rob": 3250,
      "fat": 3251,
      "##asher": 3252,
      "##ille": 3253,
      "awesome": 3254,
      "suddenly": 3255,
      "Bob": 3256,
      "##iles": 3257,
      "Charles": 3258,
      "Indian": 3259,
      "cold": 3260,
      "##sequ": 3261,
      "road": 3262,
      "chemistry": 3263,
      "Te": 3264,
      "spect": 3265,
      "Two": 3266,
      "bought": 3267,
      "ability": 3268,
      "City": 3269,
      "##BC": 3270,
      "##ores": 3271,
      "Mo": 3272,
      "length": 3273,
      "considered": 3274,
      "Cor": 3275,
      "carry": 3276,
      "disturbing": 3277,
      "##str": 3278,
      "avail": 3279,
      "##anda": 3280,
      "accur": 3281,
      "##edy": 3282,
      "shooting": 3283,
      "gag": 3284,
      "##ders": 3285,
      "Str": 3286,
      "##iving": 3287,
      "suit": 3288,
      "explo": 3289,
      "##awn": 3290,
      "trip": 3291,
      "Only": 3292,
      "##iding": 3293,
      "door": 3294,
      "##ifully": 3295,
      "numb": 3296,
      "reveal": 3297,
      "##IT": 3298,
      "impossible": 3299,
      "Way": 3300,
      "##ena": 3301,
      "##ali": 3302,
      "repl": 3303,
      "leaving": 3304,
      "##appe": 3305,
      "##ified": 3306,
      "smart": 3307,
      "exception": 3308,
      "Bel": 3309,
      "state": 3310,
      "suc": 3311,
      "govern": 3312,
      "hang": 3313,
      "##LE": 3314,
      "Lond": 3315,
      "twists": 3316,
      "crimin": 3317,
      "lab": 3318,
      "thinks": 3319,
      "minor": 3320,
      "key": 3321,
      "Angel": 3322,
      "immediately": 3323,
      "##wr": 3324,
      "genius": 3325,
      "island": 3326,
      "Earth": 3327,
      "succeed": 3328,
      "Ham": 3329,
      "##aper": 3330,
      "haunt": 3331,
      "considering": 3332,
      "natural": 3333,
      "okay": 3334,
      "##cif": 3335,
      "boyfriend": 3336,
      "literally": 3337,
      "Ant": 3338,
      "##une": 3339,
      "See": 3340,
      "favour": 3341,
      "basic": 3342,
      "dro": 3343,
      "##pher": 3344,
      "##idence": 3345,
      "century": 3346,
      "heavy": 3347,
      "##fort": 3348,
      "impression": 3349,
      "issues": 3350,
      "##urs": 3351,
      "##room": 3352,
      "appeal": 3353,
      "Ag": 3354,
      "pract": 3355,
      "Despite": 3356,
      "sitting": 3357,
      "Stan": 3358,
      "Bec": 3359,
      "standard": 3360,
      "Though": 3361,
      "mouth": 3362,
      "##cast": 3363,
      "##berg": 3364,
      "redeem": 3365,
      "investig": 3366,
      "Dark": 3367,
      "##OIL": 3368,
      "##oop": 3369,
      "studio": 3370,
      "Sl": 3371,
      "notice": 3372,
      "Jeff": 3373,
      "##wor": 3374,
      "unex": 3375,
      "bur": 3376,
      "lif": 3377,
      "##izes": 3378,
      "random": 3379,
      "##owers": 3380,
      "finish": 3381,
      "Jones": 3382,
      "##xic": 3383,
      "soldiers": 3384,
      "##iring": 3385,
      "fresh": 3386,
      "likely": 3387,
      "Paris": 3388,
      "Miss": 3389,
      "fore": 3390,
      "SPOIL": 3391,
      "Bad": 3392,
      "##AS": 3393,
      "##mans": 3394,
      "insult": 3395,
      "added": 3396,
      "Because": 3397,
      "##gar": 3398,
      "stunning": 3399,
      "conclusion": 3400,
      "complain": 3401,
      "starring": 3402,
      "force": 3403,
      "Co": 3404,
      "##irth": 3405,
      "alive": 3406,
      "wee": 3407,
      "##ify": 3408,
      "sexy": 3409,
      "gem": 3410,
      "won": 3411,
      "slasher": 3412,
      "Bro": 3413,
      "Never": 3414,
      "af": 3415,
      "appearance": 3416,
      "SPOILER": 3417,
      "Yet": 3418,
      "rated": 3419,
      "##ging": 3420,
      "baby": 3421,
      "prep": 3422,
      "spot": 3423,
      "har": 3424,
      "revenge": 3425,
      "neither": 3426,
      "climax": 3427,
      "threat": 3428,
      "##rian": 3429,
      "faith": 3430,
      "indust": 3431,
      "##ki": 3432,
      "depress": 3433,
      "respons": 3434,
      "Kn": 3435,
      "##bl": 3436,
      "London": 3437,
      "Pol": 3438,
      "scenery": 3439,
      "computer": 3440,
      "somewhere": 3441,
      "##osp": 3442,
      "terms": 3443,
      "presence": 3444,
      "plus": 3445,
      "Smith": 3446,
      "Bur": 3447,
      "##gen": 3448,
      "##cock": 3449,
      "pieces": 3450,
      "cinematic": 3451,
      "##onna": 3452,
      "zombie": 3453,
      "##kn": 3454,
      "adventure": 3455,
      "##ological": 3456,
      "Austral": 3457,
      "flashback": 3458,
      "available": 3459,
      "Hol": 3460,
      "graph": 3461,
      "##rel": 3462,
      "nowhere": 3463,
      "destroy": 3464,
      "##lessly": 3465,
      "magic": 3466,
      "18": 3467,
      "Mark": 3468,
      "Ple": 3469,
      "jo": 3470,
      "mult": 3471,
      "##arsh": 3472,
      "##ID": 3473,
      "managed": 3474,
      "names": 3475,
      "##udd": 3476,
      "conflict": 3477,
      "animated": 3478,
      "passion": 3479,
      "##aven": 3480,
      "neigh": 3481,
      "##elle": 3482,
      "affair": 3483,
      "Hen": 3484,
      "Vict": 3485,
      "##ode": 3486,
      "motion": 3487,
      "witness": 3488,
      "wise": 3489,
      "remains": 3490,
      "month": 3491,
      "ultimately": 3492,
      "##icide": 3493,
      "comedies": 3494,
      "spl": 3495,
      "##riage": 3496,
      "##ford": 3497,
      "Christian": 3498,
      "describ": 3499,
      "Jean": 3500,
      "squ": 3501,
      "##itions": 3502,
      "photography": 3503,
      "din": 3504,
      "adaptation": 3505,
      "author": 3506,
      "13": 3507,
      "suppose": 3508,
      "People": 3509,
      "innocent": 3510,
      "rare": 3511,
      "thrown": 3512,
      "constantly": 3513,
      "##stem": 3514,
      "##opher": 3515,
      "Nothing": 3516,
      "Steve": 3517,
      "emotions": 3518,
      "million": 3519,
      "tradition": 3520,
      "intrigu": 3521,
      "Spe": 3522,
      "##ham": 3523,
      "charming": 3524,
      "beautifully": 3525,
      "changes": 3526,
      "##eg": 3527,
      "Chris": 3528,
      "Sci": 3529,
      "commer": 3530,
      "historical": 3531,
      "Sn": 3532,
      "ship": 3533,
      "narrative": 3534,
      "military": 3535,
      "Tar": 3536,
      "##ras": 3537,
      "##round": 3538,
      "##ropri": 3539,
      "details": 3540,
      "ast": 3541,
      "##vert": 3542,
      "science": 3543,
      "##ivil": 3544,
      "demon": 3545,
      "utterly": 3546,
      "gold": 3547,
      "##athy": 3548,
      "escap": 3549,
      "host": 3550,
      "##esides": 3551,
      "Harry": 3552,
      "Ry": 3553,
      "six": 3554,
      "tone": 3555,
      "drink": 3556,
      "protagon": 3557,
      "offer": 3558,
      "influ": 3559,
      "##oes": 3560,
      "##boy": 3561,
      "places": 3562,
      "##abb": 3563,
      "surprisingly": 3564,
      "intended": 3565,
      "Fe": 3566,
      "leg": 3567,
      "terrific": 3568,
      "individ": 3569,
      "##ste": 3570,
      "##orts": 3571,
      "##ka": 3572,
      "##itude": 3573,
      "chall": 3574,
      "##estival": 3575,
      "##urch": 3576,
      "laughable": 3577,
      "ur": 3578,
      "journey": 3579,
      "stands": 3580,
      "presented": 3581,
      "Many": 3582,
      "loose": 3583,
      "compar": 3584,
      "disappointing": 3585,
      "throw": 3586,
      "feelings": 3587,
      "recommended": 3588,
      "soul": 3589,
      "touching": 3590,
      "date": 3591,
      "soft": 3592,
      "fool": 3593,
      "##imp": 3594,
      "generally": 3595,
      "##oices": 3596,
      "##OV": 3597,
      "loves": 3598,
      "addition": 3599,
      "##oking": 3600,
      "CG": 3601,
      "boss": 3602,
      "charm": 3603,
      "puts": 3604,
      "##anna": 3605,
      "Kr": 3606,
      "##icated": 3607,
      "painful": 3608,
      "unbelievable": 3609,
      "Hitchcock": 3610,
      "building": 3611,
      "costumes": 3612,
      "ON": 3613,
      "burn": 3614,
      "Steph": 3615,
      "##erous": 3616,
      "filming": 3617,
      "surround": 3618,
      "dad": 3619,
      "##iven": 3620,
      "##ected": 3621,
      "lovely": 3622,
      "curr": 3623,
      "##ander": 3624,
      "themes": 3625,
      "absurd": 3626,
      "Adam": 3627,
      "##ooks": 3628,
      "object": 3629,
      "hoping": 3630,
      "medioc": 3631,
      "South": 3632,
      "##ples": 3633,
      "Once": 3634,
      "breath": 3635,
      "90": 3636,
      "##ability": 3637,
      "intense": 3638,
      "system": 3639,
      "Av": 3640,
      "WW": 3641,
      "##ring": 3642,
      "ener": 3643,
      "slowly": 3644,
      "aspects": 3645,
      "Victor": 3646,
      "##aine": 3647,
      "Gen": 3648,
      "Jon": 3649,
      "Somet": 3650,
      "fully": 3651,
      "lived": 3652,
      "excuse": 3653,
      "Gir": 3654,
      "##eal": 3655,
      "alien": 3656,
      "developed": 3657,
      "Barb": 3658,
      "Lo": 3659,
      "##ched": 3660,
      "acts": 3661,
      "government": 3662,
      "pun": 3663,
      "##inn": 3664,
      "##vey": 3665,
      "silent": 3666,
      "Hard": 3667,
      "disappointment": 3668,
      "##ospital": 3669,
      "individual": 3670,
      "lad": 3671,
      "##field": 3672,
      "students": 3673,
      "mistake": 3674,
      "commercial": 3675,
      "Part": 3676,
      "tired": 3677,
      "##ruct": 3678,
      "Super": 3679,
      "Harr": 3680,
      "ride": 3681,
      "discuss": 3682,
      "magn": 3683,
      "mysterious": 3684,
      "West": 3685,
      "##ision": 3686,
      "expectations": 3687,
      "drawn": 3688,
      "moral": 3689,
      "Thom": 3690,
      "fiction": 3691,
      "##AD": 3692,
      "defe": 3693,
      "worthy": 3694,
      "Stewart": 3695,
      "Sand": 3696,
      "init": 3697,
      "thank": 3698,
      "victims": 3699,
      "##board": 3700,
      "behav": 3701,
      "pictures": 3702,
      "equally": 3703,
      "##ploy": 3704,
      "Bruce": 3705,
      "##bol": 3706,
      "##ken": 3707,
      "##oughly": 3708,
      "drunk": 3709,
      "element": 3710,
      "correct": 3711,
      "Charlie": 3712,
      "clean": 3713,
      "encoun": 3714,
      "sight": 3715,
      "##oned": 3716,
      "legend": 3717,
      "##elling": 3718,
      "knowing": 3719,
      "opportunity": 3720,
      "##entially": 3721,
      "outstanding": 3722,
      "subst": 3723,
      "resem": 3724,
      "fascinating": 3725,
      "##ert": 3726,
      "critics": 3727,
      "Jew": 3728,
      "drive": 3729,
      "contains": 3730,
      "##ipp": 3731,
      "##IG": 3732,
      "impl": 3733,
      "flicks": 3734,
      "Dou": 3735,
      "Fox": 3736,
      "##anted": 3737,
      "qual": 3738,
      "Ram": 3739,
      "Bo": 3740,
      "##uts": 3741,
      "edge": 3742,
      "Bas": 3743,
      "Conn": 3744,
      "intern": 3745,
      "Tony": 3746,
      "##CH": 3747,
      "content": 3748,
      "laughed": 3749,
      "include": 3750,
      "##con": 3751,
      "##ribe": 3752,
      "serv": 3753,
      "melod": 3754,
      "##gl": 3755,
      "##min": 3756,
      "serial": 3757,
      "Christopher": 3758,
      "walking": 3759,
      "East": 3760,
      "mainly": 3761,
      "student": 3762,
      "race": 3763,
      "seg": 3764,
      "disaster": 3765,
      "Americans": 3766,
      "Martin": 3767,
      "pil": 3768,
      "##kes": 3769,
      "noir": 3770,
      "surf": 3771,
      "producer": 3772,
      "happening": 3773,
      "Both": 3774,
      "##ledge": 3775,
      "confusing": 3776,
      "image": 3777,
      "Shakes": 3778,
      "dies": 3779,
      "##asty": 3780,
      "location": 3781,
      "rip": 3782,
      "held": 3783,
      "disgust": 3784,
      "Did": 3785,
      "##gly": 3786,
      "##ront": 3787,
      "process": 3788,
      "cloth": 3789,
      "Phil": 3790,
      "pair": 3791,
      "##reg": 3792,
      "##ugs": 3793,
      "Ap": 3794,
      "##rest": 3795,
      "likable": 3796,
      "50": 3797,
      "round": 3798,
      "irrit": 3799,
      "virt": 3800,
      "More": 3801,
      "cell": 3802,
      "dread": 3803,
      "nons": 3804,
      "naked": 3805,
      "compelling": 3806,
      "ge": 3807,
      "Young": 3808,
      "difference": 3809,
      "Steven": 3810,
      "Bet": 3811,
      "Gar": 3812,
      "##ias": 3813,
      "relationships": 3814,
      "Walk": 3815,
      "Mont": 3816,
      "Tre": 3817,
      "Carl": 3818,
      "##iday": 3819,
      "sett": 3820,
      "confused": 3821,
      "marriage": 3822,
      "Er": 3823,
      "Laur": 3824,
      "##ops": 3825,
      "Everything": 3826,
      "drugs": 3827,
      "mir": 3828,
      "##ural": 3829,
      "oppos": 3830,
      "lacks": 3831,
      "impressed": 3832,
      "folks": 3833,
      "Bab": 3834,
      "dubb": 3835,
      "##inct": 3836,
      "faces": 3837,
      "Shakespe": 3838,
      "dress": 3839,
      "Naz": 3840,
      "##IE": 3841,
      "##!!!!": 3842,
      "brothers": 3843,
      "helps": 3844,
      "Du": 3845,
      "share": 3846,
      "Little": 3847,
      "Sad": 3848,
      "holes": 3849,
      "rac": 3850,
      "##ueen": 3851,
      "Show": 3852,
      "traged": 3853,
      "adds": 3854,
      "prim": 3855,
      "appeared": 3856,
      "AND": 3857,
      "information": 3858,
      "spectac": 3859,
      "Hell": 3860,
      "gorge": 3861,
      "##lyn": 3862,
      "##sey": 3863,
      "seemingly": 3864,
      "Story": 3865,
      "giant": 3866,
      "lighting": 3867,
      "symbol": 3868,
      "aut": 3869,
      "##uous": 3870,
      "##osh": 3871,
      "Lets": 3872,
      "##table": 3873,
      "forever": 3874,
      "Mexic": 3875,
      "independ": 3876,
      "forgotten": 3877,
      "Mag": 3878,
      "ment": 3879,
      "thor": 3880,
      "Day": 3881,
      "remote": 3882,
      "Billy": 3883,
      "paid": 3884,
      "##aries": 3885,
      "consist": 3886,
      "mart": 3887,
      "##ift": 3888,
      "creative": 3889,
      "negative": 3890,
      "delivers": 3891,
      "ri": 3892,
      "wide": 3893,
      "lover": 3894,
      "##mark": 3895,
      "##tend": 3896,
      "resc": 3897,
      "##azz": 3898,
      "dreams": 3899,
      "zombies": 3900,
      "Canad": 3901,
      "Dick": 3902,
      "Mus": 3903,
      "Rog": 3904,
      "chase": 3905,
      "fault": 3906,
      "Russian": 3907,
      "rout": 3908,
      "##rick": 3909,
      "flaws": 3910,
      "elect": 3911,
      "Please": 3912,
      "putting": 3913,
      "cops": 3914,
      "multi": 3915,
      "joy": 3916,
      "##vir": 3917,
      "aside": 3918,
      "wondering": 3919,
      "answer": 3920,
      "hospital": 3921,
      "##ooked": 3922,
      "finding": 3923,
      "board": 3924,
      "estab": 3925,
      "IS": 3926,
      "fright": 3927,
      "anymore": 3928,
      "offers": 3929,
      "vampire": 3930,
      "progress": 3931,
      "club": 3932,
      "crow": 3933,
      "eat": 3934,
      "##anced": 3935,
      "##oos": 3936,
      "loving": 3937,
      "trailer": 3938,
      "highlight": 3939,
      "market": 3940,
      "industry": 3941,
      "##known": 3942,
      "Sar": 3943,
      "div": 3944,
      "hasnt": 3945,
      "melodram": 3946,
      "##ession": 3947,
      "adults": 3948,
      "professional": 3949,
      "disappe": 3950,
      "explan": 3951,
      "Too": 3952,
      "freak": 3953,
      "##icip": 3954,
      "frust": 3955,
      "honestly": 3956,
      "allowed": 3957,
      "Bond": 3958,
      "cele": 3959,
      "nu": 3960,
      "falling": 3961,
      "provides": 3962,
      "funniest": 3963,
      "merely": 3964,
      "Lar": 3965,
      "ham": 3966,
      "convers": 3967,
      "attractive": 3968,
      "ahead": 3969,
      "##mon": 3970,
      "thin": 3971,
      "##ators": 3972,
      "willing": 3973,
      "contem": 3974,
      "fort": 3975,
      "prefer": 3976,
      "stuck": 3977,
      "imagination": 3978,
      "##ushed": 3979,
      "Ter": 3980,
      "double": 3981,
      "display": 3982,
      "Western": 3983,
      "##ilities": 3984,
      "gorgeous": 3985,
      "##een": 3986,
      "unus": 3987,
      "standards": 3988,
      "followed": 3989,
      "led": 3990,
      "##text": 3991,
      "reminded": 3992,
      "Ms": 3993,
      "##AL": 3994,
      "actions": 3995,
      "Cam": 3996,
      "Men": 3997,
      "rented": 3998,
      "sto": 3999,
      "suicide": 4000,
      "blind": 4001,
      "occasion": 4002,
      "mediocre": 4003,
      "den": 4004,
      "station": 4005,
      "##raid": 4006,
      "personality": 4007,
      "impact": 4008,
      "ready": 4009,
      "Death": 4010,
      "numbers": 4011,
      "onto": 4012,
      ".....": 4013,
      "animals": 4014,
      "becoming": 4015,
      ".,": 4016,
      "Wil": 4017,
      "gri": 4018,
      "prin": 4019,
      "twice": 4020,
      "path": 4021,
      "##gue": 4022,
      "##itz": 4023,
      "youd": 4024,
      "##soever": 4025,
      "phone": 4026,
      "detective": 4027,
      "shocking": 4028,
      "opera": 4029,
      "bottom": 4030,
      "collection": 4031,
      "aim": 4032,
      "##ern": 4033,
      "ord": 4034,
      "kidn": 4035,
      "Lyn": 4036,
      "wearing": 4037,
      "unreal": 4038,
      "whatsoever": 4039,
      "picked": 4040,
      "Having": 4041,
      "##rors": 4042,
      "##mes": 4043,
      "area": 4044,
      "nobody": 4045,
      "fellow": 4046,
      "60s": 4047,
      "?!": 4048,
      "unne": 4049,
      "base": 4050,
      "eight": 4051,
      "Their": 4052,
      "tragic": 4053,
      "supposedly": 4054,
      "Batman": 4055,
      "Green": 4056,
      "Jes": 4057,
      "latter": 4058,
      "##oved": 4059,
      "##lled": 4060,
      "youth": 4061,
      "thanks": 4062,
      "strength": 4063,
      "helped": 4064,
      "Es": 4065,
      "##AY": 4066,
      "##ini": 4067,
      "##asing": 4068,
      "plots": 4069,
      "underst": 4070,
      "inspired": 4071,
      "##yr": 4072,
      "##kin": 4073,
      "##eral": 4074,
      "##entional": 4075,
      "Ford": 4076,
      "Life": 4077,
      "##oted": 4078,
      "shouldnt": 4079,
      "Pet": 4080,
      "hide": 4081,
      "##IC": 4082,
      "##orter": 4083,
      "##pected": 4084,
      "McC": 4085,
      "Hel": 4086,
      "Les": 4087,
      "##illa": 4088,
      "##eper": 4089,
      "##anic": 4090,
      "grow": 4091,
      "Henry": 4092,
      "Wal": 4093,
      "pra": 4094,
      "##pret": 4095,
      "##aded": 4096,
      "moved": 4097,
      "##terest": 4098,
      "summ": 4099,
      "justice": 4100,
      "trust": 4101,
      "celebr": 4102,
      "achieve": 4103,
      "Since": 4104,
      "##itor": 4105,
      "weap": 4106,
      "proves": 4107,
      "childhood": 4108,
      "artist": 4109,
      "actresses": 4110,
      "##days": 4111,
      "##ita": 4112,
      "##illed": 4113,
      "##thur": 4114,
      "listen": 4115,
      "???": 4116,
      "member": 4117,
      "##ris": 4118,
      "spee": 4119,
      "artistic": 4120,
      "formula": 4121,
      "crowd": 4122,
      "Sy": 4123,
      "sour": 4124,
      "##ET": 4125,
      "quiet": 4126,
      "turning": 4127,
      "born": 4128,
      "craft": 4129,
      "tragedy": 4130,
      "Edd": 4131,
      "Jud": 4132,
      "##anish": 4133,
      "##agger": 4134,
      "slap": 4135,
      "Blood": 4136,
      "thoroughly": 4137,
      "Let": 4138,
      "bene": 4139,
      "Dev": 4140,
      "seconds": 4141,
      "friendship": 4142,
      "Kelly": 4143,
      "Sil": 4144,
      "Sus": 4145,
      "nasty": 4146,
      "##ica": 4147,
      "##oses": 4148,
      "##odies": 4149,
      "overl": 4150,
      "speaking": 4151,
      "Thomas": 4152,
      "11": 4153,
      "##asure": 4154,
      "##agers": 4155,
      "##ights": 4156,
      "drag": 4157,
      "Kevin": 4158,
      "plane": 4159,
      "knock": 4160,
      "bright": 4161,
      "##ha": 4162,
      "##isters": 4163,
      "##otes": 4164,
      "##azy": 4165,
      "tar": 4166,
      "##LY": 4167,
      "realized": 4168,
      "sadly": 4169,
      "Den": 4170,
      "murders": 4171,
      "Williams": 4172,
      "scientist": 4173,
      "Dam": 4174,
      "Law": 4175,
      "##rid": 4176,
      "everybody": 4177,
      "warm": 4178,
      "Ac": 4179,
      "Jr": 4180,
      "commentary": 4181,
      "wooden": 4182,
      "La": 4183,
      "began": 4184,
      "superior": 4185,
      "asked": 4186,
      "broad": 4187,
      "Jason": 4188,
      "punch": 4189,
      "lose": 4190,
      "surely": 4191,
      "continue": 4192,
      "Second": 4193,
      "chick": 4194,
      "##rog": 4195,
      "bits": 4196,
      "Space": 4197,
      "Danny": 4198,
      "Hu": 4199,
      "##inese": 4200,
      "deserved": 4201,
      "provide": 4202,
      "CGI": 4203,
      "##ules": 4204,
      "##hol": 4205,
      "central": 4206,
      "angry": 4207,
      "physical": 4208,
      "Okay": 4209,
      "epic": 4210,
      "Finally": 4211,
      "afraid": 4212,
      "000": 4213,
      "##ued": 4214,
      "thus": 4215,
      "describe": 4216,
      "teacher": 4217,
      "repeated": 4218,
      "Jenn": 4219,
      "##ium": 4220,
      "##mers": 4221,
      "sell": 4222,
      "channel": 4223,
      "crash": 4224,
      "lay": 4225,
      "Shes": 4226,
      "horse": 4227,
      "dying": 4228,
      "##under": 4229,
      "depart": 4230,
      "introduced": 4231,
      "energy": 4232,
      "clothes": 4233,
      "App": 4234,
      "IN": 4235,
      "ugly": 4236,
      "blond": 4237,
      "stunt": 4238,
      "winning": 4239,
      "##AC": 4240,
      "##kins": 4241,
      "coun": 4242,
      "apartment": 4243,
      "rape": 4244,
      "##ta": 4245,
      "##roc": 4246,
      "Jerry": 4247,
      "##oring": 4248,
      "wanting": 4249,
      "relative": 4250,
      "clichs": 4251,
      "struggle": 4252,
      "pleasure": 4253,
      "Sher": 4254,
      "Look": 4255,
      "##ano": 4256,
      "##arded": 4257,
      "employ": 4258,
      "vision": 4259,
      "memory": 4260,
      "unexpected": 4261,
      "rubb": 4262,
      "##well": 4263,
      "##olds": 4264,
      "creature": 4265,
      "religious": 4266,
      "VH": 4267,
      "compare": 4268,
      "occur": 4269,
      "damn": 4270,
      "games": 4271,
      "##icious": 4272,
      "arch": 4273,
      "redeeming": 4274,
      "scare": 4275,
      "necessary": 4276,
      "teenage": 4277,
      "favourite": 4278,
      "DO": 4279,
      "##cl": 4280,
      "##port": 4281,
      "##mi": 4282,
      "asks": 4283,
      "watchable": 4284,
      "accom": 4285,
      "syn": 4286,
      "der": 4287,
      "fre": 4288,
      "food": 4289,
      "##oons": 4290,
      "##esty": 4291,
      "lies": 4292,
      "agent": 4293,
      "comedic": 4294,
      "Johnny": 4295,
      "brutal": 4296,
      "explos": 4297,
      "mut": 4298,
      "tour": 4299,
      "##xual": 4300,
      "##asts": 4301,
      "unw": 4302,
      "Chinese": 4303,
      "intriguing": 4304,
      "ver": 4305,
      "##apped": 4306,
      "Ryan": 4307,
      "bal": 4308,
      "la": 4309,
      "##kward": 4310,
      "##rend": 4311,
      "relie": 4312,
      "##pective": 4313,
      "sou": 4314,
      "separ": 4315,
      "unin": 4316,
      "White": 4317,
      "interact": 4318,
      "##zen": 4319,
      "##ayl": 4320,
      "##ousy": 4321,
      "anywhere": 4322,
      "##ropriate": 4323,
      "bi": 4324,
      "nomin": 4325,
      "unknown": 4326,
      "accurate": 4327,
      "belong": 4328,
      "North": 4329,
      "Pal": 4330,
      "mount": 4331,
      "surreal": 4332,
      "deserve": 4333,
      "##----": 4334,
      "sin": 4335,
      "##erk": 4336,
      "Which": 4337,
      "holds": 4338,
      "intelligence": 4339,
      "40": 4340,
      "Lew": 4341,
      "##reck": 4342,
      "block": 4343,
      "tears": 4344,
      "account": 4345,
      "Mi": 4346,
      "Master": 4347,
      "Roy": 4348,
      "##val": 4349,
      "todays": 4350,
      "Those": 4351,
      "priv": 4352,
      "WH": 4353,
      "du": 4354,
      "Anne": 4355,
      "knowledge": 4356,
      "personally": 4357,
      "surprising": 4358,
      "##ilos": 4359,
      "heads": 4360,
      "deeply": 4361,
      "issue": 4362,
      "torture": 4363,
      "Last": 4364,
      "##UT": 4365,
      "stock": 4366,
      "skin": 4367,
      "Horror": 4368,
      "Carr": 4369,
      "##earch": 4370,
      "##entious": 4371,
      "awkward": 4372,
      "planet": 4373,
      "Lind": 4374,
      "tem": 4375,
      "##iac": 4376,
      "sucks": 4377,
      "grade": 4378,
      "research": 4379,
      "understanding": 4380,
      "martial": 4381,
      "loss": 4382,
      "tend": 4383,
      "wonderfully": 4384,
      "birth": 4385,
      "paced": 4386,
      "tur": 4387,
      "##ads": 4388,
      "apparent": 4389,
      "establish": 4390,
      "empt": 4391,
      "includes": 4392,
      "priest": 4393,
      "target": 4394,
      "thous": 4395,
      "##duc": 4396,
      "Dar": 4397,
      "sun": 4398,
      "explanation": 4399,
      "##icle": 4400,
      "lovers": 4401,
      "Pre": 4402,
      "Win": 4403,
      "Was": 4404,
      "hint": 4405,
      "hunt": 4406,
      "gags": 4407,
      "Stephen": 4408,
      "Dor": 4409,
      "Mike": 4410,
      "wed": 4411,
      "##ilst": 4412,
      "grad": 4413,
      "##time": 4414,
      "frame": 4415,
      "blame": 4416,
      "Before": 4417,
      "Out": 4418,
      "cow": 4419,
      "civil": 4420,
      "mild": 4421,
      "noticed": 4422,
      "magnific": 4423,
      "Li": 4424,
      "Were": 4425,
      "bank": 4426,
      "hyp": 4427,
      "##gent": 4428,
      "##athers": 4429,
      "Tex": 4430,
      "ris": 4431,
      "##ners": 4432,
      "##ency": 4433,
      "##aly": 4434,
      "Thank": 4435,
      "player": 4436,
      "arts": 4437,
      "ted": 4438,
      "##aire": 4439,
      "reminds": 4440,
      "limited": 4441,
      "Kid": 4442,
      "vir": 4443,
      "Joan": 4444,
      "unusual": 4445,
      "Dem": 4446,
      "mine": 4447,
      "Thr": 4448,
      "##olution": 4449,
      "confront": 4450,
      "assist": 4451,
      "hund": 4452,
      "remarkable": 4453,
      "independent": 4454,
      "Del": 4455,
      "Far": 4456,
      "Rus": 4457,
      "sac": 4458,
      "flying": 4459,
      "radio": 4460,
      "hundred": 4461,
      "Rom": 4462,
      "field": 4463,
      "##AM": 4464,
      "##enge": 4465,
      "recall": 4466,
      "buff": 4467,
      "motiv": 4468,
      "Brian": 4469,
      "Sin": 4470,
      "pacing": 4471,
      "##aph": 4472,
      "bland": 4473,
      "purs": 4474,
      "soldier": 4475,
      "Matth": 4476,
      "blue": 4477,
      "floor": 4478,
      "nicely": 4479,
      "##ifer": 4480,
      "locations": 4481,
      "##aturally": 4482,
      "captured": 4483,
      "signific": 4484,
      "boo": 4485,
      "hat": 4486,
      "mob": 4487,
      "stink": 4488,
      "scared": 4489,
      "enth": 4490,
      "Alan": 4491,
      "##ording": 4492,
      "leader": 4493,
      "villains": 4494,
      "returns": 4495,
      "dimens": 4496,
      "VHS": 4497,
      "Max": 4498,
      "##ja": 4499,
      "##ateg": 4500,
      "engaging": 4501,
      "twenty": 4502,
      "calls": 4503,
      "Everyone": 4504,
      "interpret": 4505,
      "##ails": 4506,
      "veh": 4507,
      "accompl": 4508,
      "rarely": 4509,
      "memories": 4510,
      "Jackson": 4511,
      "Pres": 4512,
      "hotel": 4513,
      "dangerous": 4514,
      "months": 4515,
      "opposite": 4516,
      "##father": 4517,
      "##leep": 4518,
      "##ademy": 4519,
      "soap": 4520,
      "##herent": 4521,
      "belief": 4522,
      "creating": 4523,
      "learned": 4524,
      "intellect": 4525,
      "Capt": 4526,
      "hurt": 4527,
      "##eness": 4528,
      "hated": 4529,
      "##ivity": 4530,
      "reflect": 4531,
      "Sant": 4532,
      "mental": 4533,
      "##atory": 4534,
      "##ading": 4535,
      "insane": 4536,
      "nightm": 4537,
      "Tayl": 4538,
      "army": 4539,
      "Brown": 4540,
      "responsible": 4541,
      "25": 4542,
      "Hall": 4543,
      "pen": 4544,
      "##adow": 4545,
      "ens": 4546,
      "machine": 4547,
      "unnecessary": 4548,
      "##SE": 4549,
      "##aton": 4550,
      "manage": 4551,
      "Chap": 4552,
      "visit": 4553,
      "##atured": 4554,
      "##writer": 4555,
      "Ell": 4556,
      "earn": 4557,
      "players": 4558,
      "finished": 4559,
      "community": 4560,
      "nonsense": 4561,
      "##nia": 4562,
      "##iens": 4563,
      "##bian": 4564,
      "proceed": 4565,
      "monsters": 4566,
      "references": 4567,
      "##arp": 4568,
      "realism": 4569,
      "contri": 4570,
      "treated": 4571,
      "explained": 4572,
      "bath": 4573,
      "educ": 4574,
      "##stal": 4575,
      "fights": 4576,
      "regret": 4577,
      "les": 4578,
      "opt": 4579,
      "##entle": 4580,
      "##soci": 4581,
      "##ipul": 4582,
      "Arthur": 4583,
      "heroes": 4584,
      "Mrs": 4585,
      "hidden": 4586,
      "minim": 4587,
      "incre": 4588,
      "desert": 4589,
      "filmmaker": 4590,
      "Jan": 4591,
      "humans": 4592,
      "Ey": 4593,
      "Cass": 4594,
      "Hit": 4595,
      "hits": 4596,
      "smile": 4597,
      "Whats": 4598,
      "crack": 4599,
      "##ruction": 4600,
      "technical": 4601,
      "subtit": 4602,
      "IT": 4603,
      "##anity": 4604,
      "yeah": 4605,
      "determ": 4606,
      "boat": 4607,
      "witch": 4608,
      "aband": 4609,
      "##plic": 4610,
      "contrast": 4611,
      "tight": 4612,
      "##ama": 4613,
      "humanity": 4614,
      "!).": 4615,
      "rat": 4616,
      "##upp": 4617,
      "##ancy": 4618,
      "grat": 4619,
      "specif": 4620,
      "contrib": 4621,
      "transl": 4622,
      "efforts": 4623,
      "Jose": 4624,
      "##rays": 4625,
      "##reets": 4626,
      "hadnt": 4627,
      "lacking": 4628,
      "driving": 4629,
      "represent": 4630,
      "comparison": 4631,
      "rubbish": 4632,
      "core": 4633,
      "card": 4634,
      "##osen": 4635,
      "unint": 4636,
      "Anth": 4637,
      "behavior": 4638,
      "##unn": 4639,
      "##abor": 4640,
      "ner": 4641,
      "##cise": 4642,
      "##yer": 4643,
      "stret": 4644,
      "arm": 4645,
      "murdered": 4646,
      "Eddie": 4647,
      "Ra": 4648,
      "##house": 4649,
      "Ho": 4650,
      "cars": 4651,
      "current": 4652,
      "Gary": 4653,
      "prove": 4654,
      "anybody": 4655,
      "##stein": 4656,
      "Mitch": 4657,
      "REA": 4658,
      "junk": 4659,
      "##nam": 4660,
      "##war": 4661,
      "aware": 4662,
      "gotten": 4663,
      "keeping": 4664,
      "dealing": 4665,
      "capture": 4666,
      "##eman": 4667,
      "##aker": 4668,
      "constant": 4669,
      "summer": 4670,
      "foreign": 4671,
      "##vant": 4672,
      "##lock": 4673,
      "bigger": 4674,
      "instance": 4675,
      "mission": 4676,
      "experien": 4677,
      "England": 4678,
      "Columb": 4679,
      "eating": 4680,
      "survive": 4681,
      "net": 4682,
      "vs": 4683,
      "##ville": 4684,
      "text": 4685,
      "desp": 4686,
      "struct": 4687,
      "Sean": 4688,
      "theatre": 4689,
      "Nick": 4690,
      "##osaur": 4691,
      "cuts": 4692,
      "bloody": 4693,
      "Louis": 4694,
      "Gh": 4695,
      "spoof": 4696,
      "award": 4697,
      "mixed": 4698,
      "circum": 4699,
      "Again": 4700,
      "##pless": 4701,
      "humorous": 4702,
      "reaction": 4703,
      "criminal": 4704,
      "neighbor": 4705,
      "##rous": 4706,
      "suff": 4707,
      "1010": 4708,
      "included": 4709,
      "ordinary": 4710,
      "Wr": 4711,
      "ban": 4712,
      "goof": 4713,
      "##eds": 4714,
      "context": 4715,
      "##icked": 4716,
      "partner": 4717,
      "Andrew": 4718,
      "Eric": 4719,
      "ring": 4720,
      "tape": 4721,
      "##orious": 4722,
      "deals": 4723,
      "press": 4724,
      "desperate": 4725,
      "Sur": 4726,
      "##unter": 4727,
      "therefore": 4728,
      "Howard": 4729,
      "Barry": 4730,
      "##atives": 4731,
      "##ogra": 4732,
      "flesh": 4733,
      "growing": 4734,
      "Davis": 4735,
      "numerous": 4736,
      "Robin": 4737,
      "below": 4738,
      "pilot": 4739,
      "Lewis": 4740,
      "Lord": 4741,
      "pet": 4742,
      "discovered": 4743,
      "hopes": 4744,
      "Avoid": 4745,
      "Shakespeare": 4746,
      "Wild": 4747,
      "fif": 4748,
      "print": 4749,
      "disp": 4750,
      "dism": 4751,
      "philos": 4752,
      "##sem": 4753,
      "finest": 4754,
      "speech": 4755,
      "witty": 4756,
      "##uc": 4757,
      "dig": 4758,
      "crappy": 4759,
      "European": 4760,
      "irritating": 4761,
      "Cent": 4762,
      "chore": 4763,
      "Spanish": 4764,
      "guns": 4765,
      "revealed": 4766,
      "categ": 4767,
      "##ulf": 4768,
      "envir": 4769,
      "##ques": 4770,
      "incomp": 4771,
      "edited": 4772,
      "uncon": 4773,
      "encounter": 4774,
      "Lynch": 4775,
      "##ication": 4776,
      "relate": 4777,
      "pulled": 4778,
      "1950s": 4779,
      "frequ": 4780,
      "Nic": 4781,
      "cable": 4782,
      "hey": 4783,
      "##ums": 4784,
      "safe": 4785,
      "results": 4786,
      "concerned": 4787,
      "Wow": 4788,
      "##urse": 4789,
      "steal": 4790,
      "advice": 4791,
      "##ushing": 4792,
      "##umps": 4793,
      "finale": 4794,
      "insight": 4795,
      "regular": 4796,
      "window": 4797,
      "sed": 4798,
      "##ration": 4799,
      "seat": 4800,
      "##thern": 4801,
      "debut": 4802,
      "Jennifer": 4803,
      "Cle": 4804,
      "green": 4805,
      "##down": 4806,
      "##icate": 4807,
      "church": 4808,
      "troub": 4809,
      "talents": 4810,
      "teenagers": 4811,
      "Ron": 4812,
      "##lers": 4813,
      "Moore": 4814,
      "dimensional": 4815,
      "Add": 4816,
      "pretentious": 4817,
      "skills": 4818,
      "animal": 4819,
      "woods": 4820,
      "stereotypes": 4821,
      "Texas": 4822,
      "Hay": 4823,
      "Haw": 4824,
      "kiss": 4825,
      "terribly": 4826,
      "##OL": 4827,
      "shop": 4828,
      "##oples": 4829,
      "trib": 4830,
      "remembered": 4831,
      "Taylor": 4832,
      "circumst": 4833,
      "NO": 4834,
      "fate": 4835,
      "assass": 4836,
      "model": 4837,
      "90s": 4838,
      "Tit": 4839,
      "##rical": 4840,
      "##omed": 4841,
      "##imental": 4842,
      "##ounds": 4843,
      "received": 4844,
      "##fortable": 4845,
      "environ": 4846,
      "Val": 4847,
      "##stick": 4848,
      "sheer": 4849,
      "manipul": 4850,
      "starting": 4851,
      "heroine": 4852,
      "psychological": 4853,
      "African": 4854,
      "na": 4855,
      "##cent": 4856,
      "forces": 4857,
      "##ante": 4858,
      "mini": 4859,
      "owner": 4860,
      "reviewers": 4861,
      "study": 4862,
      "photograph": 4863,
      "##porary": 4864,
      "Cast": 4865,
      "Get": 4866,
      "##irm": 4867,
      "##irk": 4868,
      "attitude": 4869,
      "circ": 4870,
      "paper": 4871,
      "toward": 4872,
      "##ument": 4873,
      "cruel": 4874,
      "hall": 4875,
      "##de": 4876,
      "##urity": 4877,
      "##aint": 4878,
      "##rifying": 4879,
      "levels": 4880,
      "Guy": 4881,
      "Jess": 4882,
      "une": 4883,
      "kinda": 4884,
      "officer": 4885,
      "genuinely": 4886,
      "challeng": 4887,
      "fra": 4888,
      "##vy": 4889,
      "##tes": 4890,
      "Franc": 4891,
      "##anned": 4892,
      "media": 4893,
      "Comm": 4894,
      "princi": 4895,
      "Anthony": 4896,
      "Viet": 4897,
      "fund": 4898,
      "site": 4899,
      "parody": 4900,
      "corrupt": 4901,
      "##ennis": 4902,
      "Luc": 4903,
      "empty": 4904,
      "Kenn": 4905,
      "Matt": 4906,
      "lin": 4907,
      "park": 4908,
      "##vit": 4909,
      "##sell": 4910,
      "associ": 4911,
      "##uls": 4912,
      "##cient": 4913,
      "fle": 4914,
      "##natural": 4915,
      "##cra": 4916,
      "organ": 4917,
      "continues": 4918,
      "EVER": 4919,
      "dated": 4920,
      "charism": 4921,
      "intent": 4922,
      "saved": 4923,
      "grown": 4924,
      "Allen": 4925,
      "failure": 4926,
      "unfunny": 4927,
      "gory": 4928,
      "France": 4929,
      "existence": 4930,
      "spectacular": 4931,
      "##II": 4932,
      "##ario": 4933,
      "cru": 4934,
      "breaks": 4935,
      "occasionally": 4936,
      "Ol": 4937,
      "cash": 4938,
      "ju": 4939,
      "wra": 4940,
      "##ym": 4941,
      "##stit": 4942,
      "Def": 4943,
      "Mean": 4944,
      "##reedom": 4945,
      "Dougl": 4946,
      "relief": 4947,
      "##bur": 4948,
      "##ooper": 4949,
      "screw": 4950,
      "wealth": 4951,
      "dressed": 4952,
      "opens": 4953,
      "Island": 4954,
      "miser": 4955,
      "Zomb": 4956,
      "cal": 4957,
      "range": 4958,
      "##ILL": 4959,
      "##ban": 4960,
      "altern": 4961,
      "truck": 4962,
      "##abeth": 4963,
      "imagin": 4964,
      "satire": 4965,
      "visuals": 4966,
      "Are": 4967,
      "Time": 4968,
      "##omen": 4969,
      "##ained": 4970,
      "feet": 4971,
      "thrill": 4972,
      "originally": 4973,
      "featuring": 4974,
      "described": 4975,
      "protagonist": 4976,
      "##ilies": 4977,
      "bear": 4978,
      "frank": 4979,
      "sucked": 4980,
      "Australian": 4981,
      "Camp": 4982,
      "##aming": 4983,
      "desire": 4984,
      "evidence": 4985,
      "compan": 4986,
      "generation": 4987,
      "grace": 4988,
      "paint": 4989,
      "!!!!": 4990,
      "Mer": 4991,
      "fab": 4992,
      "veter": 4993,
      "##ogy": 4994,
      "THIS": 4995,
      "connect": 4996,
      "connection": 4997,
      "Lady": 4998,
      "inh": 4999,
      "Leon": 5000,
      "cameo": 5001,
      "distract": 5002,
      "perspective": 5003,
      "unrealistic": 5004,
      "14": 5005,
      "Hart": 5006,
      "##idge": 5007,
      "overly": 5008,
      "Albert": 5009,
      "SPOILERS": 5010,
      "magnificent": 5011,
      "Dian": 5012,
      "Rose": 5013,
      "Up": 5014,
      "tack": 5015,
      "vote": 5016,
      "##ss": 5017,
      "unable": 5018,
      "Really": 5019,
      "singer": 5020,
      "philosoph": 5021,
      "lat": 5022,
      "##uk": 5023,
      "##zan": 5024,
      "##ulous": 5025,
      "deg": 5026,
      "minds": 5027,
      "discovers": 5028,
      "Mal": 5029,
      "Under": 5030,
      "reb": 5031,
      "marry": 5032,
      "Watching": 5033,
      "##alloween": 5034,
      "conce": 5035,
      "##teresting": 5036,
      "Bor": 5037,
      "Fi": 5038,
      "Lor": 5039,
      "Much": 5040,
      "Old": 5041,
      "Asian": 5042,
      "switch": 5043,
      "morning": 5044,
      "Jimmy": 5045,
      "dreadful": 5046,
      "##ographer": 5047,
      "Rem": 5048,
      "Rod": 5049,
      "nin": 5050,
      "types": 5051,
      "contrived": 5052,
      "Douglas": 5053,
      "Ver": 5054,
      "fu": 5055,
      "sole": 5056,
      "decision": 5057,
      "##appy": 5058,
      "Being": 5059,
      "lesson": 5060,
      "provided": 5061,
      "delivered": 5062,
      "flashbacks": 5063,
      "grew": 5064,
      "whilst": 5065,
      "peace": 5066,
      "colour": 5067,
      "Moon": 5068,
      "ran": 5069,
      "##ients": 5070,
      "##iser": 5071,
      "built": 5072,
      "driven": 5073,
      "traditional": 5074,
      "LA": 5075,
      "fal": 5076,
      "tor": 5077,
      "##pent": 5078,
      "shallow": 5079,
      "obl": 5080,
      "higher": 5081,
      "extraord": 5082,
      "BBC": 5083,
      "Gord": 5084,
      "YOU": 5085,
      "##wolf": 5086,
      "somebody": 5087,
      "Andy": 5088,
      "obsc": 5089,
      "creates": 5090,
      "involves": 5091,
      "football": 5092,
      "1970s": 5093,
      "Dog": 5094,
      "Gene": 5095,
      "##ault": 5096,
      "Julie": 5097,
      "Barbara": 5098,
      "##arl": 5099,
      "##alling": 5100,
      "lock": 5101,
      "##teen": 5102,
      "speed": 5103,
      "snow": 5104,
      "sake": 5105,
      "##cies": 5106,
      "intention": 5107,
      "##angers": 5108,
      "creatures": 5109,
      "corny": 5110,
      "theaters": 5111,
      "combination": 5112,
      "executed": 5113,
      "Yeah": 5114,
      "gas": 5115,
      "gross": 5116,
      "##win": 5117,
      "##ils": 5118,
      "logic": 5119,
      "decade": 5120,
      "marvel": 5121,
      "Eliz": 5122,
      "Morgan": 5123,
      "broken": 5124,
      "Actually": 5125,
      "50s": 5126,
      "Kim": 5127,
      "brilliantly": 5128,
      "sword": 5129,
      "Anyone": 5130,
      "revolution": 5131,
      "gonna": 5132,
      "vul": 5133,
      "vac": 5134,
      "suffering": 5135,
      "Broad": 5136,
      "dry": 5137,
      "fet": 5138,
      "##iling": 5139,
      "sea": 5140,
      "Brad": 5141,
      "Seag": 5142,
      "sympathetic": 5143,
      "delightful": 5144,
      "16": 5145,
      "Cinem": 5146,
      "Wat": 5147,
      "cyn": 5148,
      "##ube": 5149,
      "##mar": 5150,
      "choose": 5151,
      "##athan": 5152,
      "cares": 5153,
      "hearted": 5154,
      "peoples": 5155,
      "laughter": 5156,
      "bag": 5157,
      "sal": 5158,
      "##acc": 5159,
      "##pir": 5160,
      "##aken": 5161,
      "advert": 5162,
      "essentially": 5163,
      "Halloween": 5164,
      "##RA": 5165,
      "send": 5166,
      "killers": 5167,
      "glass": 5168,
      "asking": 5169,
      "loses": 5170,
      "capable": 5171,
      "graphic": 5172,
      "emer": 5173,
      "fict": 5174,
      "##sons": 5175,
      "inex": 5176,
      "##anged": 5177,
      "meeting": 5178,
      "proved": 5179,
      "families": 5180,
      "talks": 5181,
      "uncom": 5182,
      "curious": 5183,
      "Does": 5184,
      "assume": 5185,
      "Coll": 5186,
      "##aa": 5187,
      "##han": 5188,
      "##).": 5189,
      "##theless": 5190,
      "underrated": 5191,
      "believes": 5192,
      "Charl": 5193,
      "teenager": 5194,
      "amateurish": 5195,
      "Jesus": 5196,
      "##isa": 5197,
      "##ilty": 5198,
      "necess": 5199,
      "emotionally": 5200,
      "propag": 5201,
      "powers": 5202,
      "tick": 5203,
      "aged": 5204,
      "court": 5205,
      "skill": 5206,
      "Plus": 5207,
      "authent": 5208,
      "judge": 5209,
      "dubbed": 5210,
      "seven": 5211,
      "allows": 5212,
      "##osexual": 5213,
      "spin": 5214,
      "Larry": 5215,
      "Di": 5216,
      "Sund": 5217,
      "Wars": 5218,
      "wel": 5219,
      "gangster": 5220,
      "inspir": 5221,
      "Academy": 5222,
      "environment": 5223,
      "Fre": 5224,
      "Take": 5225,
      "##rix": 5226,
      "##ests": 5227,
      "myth": 5228,
      "standing": 5229,
      "counter": 5230,
      "Back": 5231,
      "##oom": 5232,
      "##fit": 5233,
      "Three": 5234,
      "##che": 5235,
      "rescue": 5236,
      "Full": 5237,
      "Mir": 5238,
      "SH": 5239,
      "affect": 5240,
      "majority": 5241,
      "handsome": 5242,
      "##IGH": 5243,
      "##iber": 5244,
      "##GE": 5245,
      "##initely": 5246,
      "##itter": 5247,
      "consequ": 5248,
      "subpl": 5249,
      "ultimate": 5250,
      "lucky": 5251,
      "naive": 5252,
      "Roman": 5253,
      "hur": 5254,
      "harsh": 5255,
      "##owell": 5256,
      "village": 5257,
      "treatment": 5258,
      "expression": 5259,
      "freedom": 5260,
      "##nal": 5261,
      "##UN": 5262,
      "Chan": 5263,
      "portrays": 5264,
      "sitcom": 5265,
      "Sadly": 5266,
      "Long": 5267,
      "Nich": 5268,
      "##iable": 5269,
      "##cher": 5270,
      "##alifor": 5271,
      "gratuit": 5272,
      "vol": 5273,
      "##cul": 5274,
      "##lla": 5275,
      "##the": 5276,
      "thoughts": 5277,
      "caused": 5278,
      "inept": 5279,
      "810": 5280,
      "bre": 5281,
      "bound": 5282,
      "table": 5283,
      "inj": 5284,
      "##roph": 5285,
      "##usive": 5286,
      "endless": 5287,
      "saving": 5288,
      "##aughters": 5289,
      "steals": 5290,
      "tedious": 5291,
      "##lying": 5292,
      "sharp": 5293,
      "##othy": 5294,
      "Without": 5295,
      "##LLY": 5296,
      "screaming": 5297,
      "weeks": 5298,
      "BE": 5299,
      "bodies": 5300,
      "teens": 5301,
      "##ashed": 5302,
      "accomp": 5303,
      "shocked": 5304,
      "embarrassing": 5305,
      "Air": 5306,
      "Vinc": 5307,
      "lower": 5308,
      "##uns": 5309,
      "refres": 5310,
      "purch": 5311,
      "promise": 5312,
      "ladies": 5313,
      "soph": 5314,
      "viewed": 5315,
      "invent": 5316,
      "excited": 5317,
      "circumstances": 5318,
      "Count": 5319,
      "Hum": 5320,
      "##icit": 5321,
      "sequels": 5322,
      "involve": 5323,
      "Plan": 5324,
      "rental": 5325,
      "Evil": 5326,
      "Cat": 5327,
      "Kill": 5328,
      "Sat": 5329,
      "Tod": 5330,
      "king": 5331,
      "pal": 5332,
      "ages": 5333,
      "bringing": 5334,
      "spoilers": 5335,
      "Wayne": 5336,
      "disgusting": 5337,
      "zero": 5338,
      "streets": 5339,
      "Gri": 5340,
      "fame": 5341,
      "##TH": 5342,
      "forth": 5343,
      "##ams": 5344,
      "##oyd": 5345,
      "proud": 5346,
      "classics": 5347,
      "walked": 5348,
      "authentic": 5349,
      "da": 5350,
      "##iro": 5351,
      "cho": 5352,
      "facts": 5353,
      "entertained": 5354,
      "passed": 5355,
      "normally": 5356,
      "Ted": 5357,
      "lone": 5358,
      "lousy": 5359,
      "voices": 5360,
      "hack": 5361,
      "Child": 5362,
      "protect": 5363,
      "identity": 5364,
      "nominated": 5365,
      "Captain": 5366,
      "Hope": 5367,
      "Rad": 5368,
      "##uther": 5369,
      "admir": 5370,
      "Girl": 5371,
      "routine": 5372,
      "Joseph": 5373,
      "refreshing": 5374,
      "Cas": 5375,
      "Mil": 5376,
      "chosen": 5377,
      "scale": 5378,
      "Chuck": 5379,
      "compos": 5380,
      "contemporary": 5381,
      "Comp": 5382,
      "push": 5383,
      "##IR": 5384,
      "Alice": 5385,
      "pupp": 5386,
      "Harris": 5387,
      "Pict": 5388,
      "Us": 5389,
      "besides": 5390,
      "fathers": 5391,
      "shel": 5392,
      "Stre": 5393,
      "Street": 5394,
      "##aturday": 5395,
      "erotic": 5396,
      "Kong": 5397,
      "Lam": 5398,
      "bond": 5399,
      "sisters": 5400,
      "horribly": 5401,
      "produce": 5402,
      "popul": 5403,
      "vehicle": 5404,
      "Ob": 5405,
      "fare": 5406,
      "rough": 5407,
      "##ule": 5408,
      "##stream": 5409,
      "convey": 5410,
      "blow": 5411,
      "##urns": 5412,
      "costs": 5413,
      "obsessed": 5414,
      "experienced": 5415,
      "Sk": 5416,
      "##itiz": 5417,
      "quir": 5418,
      "Univers": 5419,
      "center": 5420,
      "technology": 5421,
      "gratuitous": 5422,
      "Gi": 5423,
      "Kate": 5424,
      "Washing": 5425,
      "ende": 5426,
      "##formed": 5427,
      "expert": 5428,
      "strongly": 5429,
      "\").": 5430,
      "pleasant": 5431,
      "stopped": 5432,
      "Appar": 5433,
      "Through": 5434,
      "Bud": 5435,
      "offe": 5436,
      "##imate": 5437,
      "plans": 5438,
      "cutting": 5439,
      "walks": 5440,
      "Anna": 5441,
      "Meanwhile": 5442,
      "Min": 5443,
      "fits": 5444,
      "pity": 5445,
      "---": 5446,
      "emph": 5447,
      "learns": 5448,
      "##ausible": 5449,
      "Trek": 5450,
      "lesbian": 5451,
      "##alifornia": 5452,
      "Po": 5453,
      "##rens": 5454,
      "ancient": 5455,
      ".......": 5456,
      "warning": 5457,
      "versions": 5458,
      "##iverse": 5459,
      "reviewer": 5460,
      "painfully": 5461,
      "Germany": 5462,
      "theatrical": 5463,
      "hyster": 5464,
      "subtitles": 5465,
      "Elizabeth": 5466,
      "##night": 5467,
      "##RI": 5468,
      "portraying": 5469,
      "matters": 5470,
      "##ethod": 5471,
      "Play": 5472,
      "largely": 5473,
      "criticism": 5474,
      "depressing": 5475,
      "source": 5476,
      "intellectual": 5477,
      "hol": 5478,
      "##hy": 5479,
      "Brothers": 5480,
      "handed": 5481,
      "qualities": 5482,
      "Apparently": 5483,
      "During": 5484,
      "Dennis": 5485,
      "pan": 5486,
      "maintain": 5487,
      "excit": 5488,
      "dollars": 5489,
      "exploitation": 5490,
      "Festival": 5491,
      "Our": 5492,
      "Sal": 5493,
      "UK": 5494,
      "VER": 5495,
      "theyve": 5496,
      "whenever": 5497,
      "##tended": 5498,
      "faced": 5499,
      "##ached": 5500,
      "appl": 5501,
      "descript": 5502,
      "cartoons": 5503,
      "religion": 5504,
      "satisfying": 5505,
      "depicted": 5506,
      "##ae": 5507,
      "##arian": 5508,
      "##ungle": 5509,
      "breaking": 5510,
      "ruined": 5511,
      "Patrick": 5512,
      "Enter": 5513,
      "slapstick": 5514,
      "Nichol": 5515,
      "710": 5516,
      "Ret": 5517,
      "Rain": 5518,
      "##bles": 5519,
      "Blue": 5520,
      "Irish": 5521,
      "harm": 5522,
      "substance": 5523,
      "enthus": 5524,
      "asleep": 5525,
      "##lder": 5526,
      "factor": 5527,
      "ideal": 5528,
      "##gged": 5529,
      "Jackie": 5530,
      "Edward": 5531,
      "prior": 5532,
      "twisted": 5533,
      "losing": 5534,
      "Canadian": 5535,
      "Francis": 5536,
      "##na": 5537,
      "ash": 5538,
      "##orted": 5539,
      "192": 5540,
      "Youll": 5541,
      "Art": 5542,
      "propaganda": 5543,
      "Saturday": 5544,
      "fish": 5545,
      "sports": 5546,
      "spends": 5547,
      "##whel": 5548,
      "17": 5549,
      "Fam": 5550,
      "Mic": 5551,
      "Rick": 5552,
      "clue": 5553,
      "appropriate": 5554,
      "handled": 5555,
      "Scar": 5556,
      "##ENT": 5557,
      "segment": 5558,
      "latest": 5559,
      "Gordon": 5560,
      "Sid": 5561,
      "Vamp": 5562,
      "drop": 5563,
      "gig": 5564,
      "link": 5565,
      "rise": 5566,
      "sides": 5567,
      "liber": 5568,
      "unfortun": 5569,
      "##ynam": 5570,
      "Brand": 5571,
      "inevit": 5572,
      "Anton": 5573,
      "relatively": 5574,
      "\"?": 5575,
      "Jac": 5576,
      "Mill": 5577,
      "##ij": 5578,
      "##mond": 5579,
      "shut": 5580,
      "hearing": 5581,
      "##reek": 5582,
      "):": 5583,
      "Bog": 5584,
      "Later": 5585,
      "Tri": 5586,
      "mask": 5587,
      "##ummy": 5588,
      "prostit": 5589,
      "believed": 5590,
      "angles": 5591,
      "rain": 5592,
      "van": 5593,
      "##dom": 5594,
      "##enced": 5595,
      "unfor": 5596,
      "##cohol": 5597,
      "Murph": 5598,
      "excitement": 5599,
      "TO": 5600,
      "batt": 5601,
      "##break": 5602,
      "##atra": 5603,
      "incident": 5604,
      "distrib": 5605,
      "CH": 5606,
      "None": 5607,
      "Your": 5608,
      "lie": 5609,
      "##umber": 5610,
      "Beaut": 5611,
      "uncle": 5612,
      "holding": 5613,
      "1980s": 5614,
      "recognize": 5615,
      "Cal": 5616,
      "##aves": 5617,
      "inner": 5618,
      "revel": 5619,
      "notch": 5620,
      "##insp": 5621,
      "United": 5622,
      "experiences": 5623,
      "visually": 5624,
      "\"),": 5625,
      "convince": 5626,
      "rules": 5627,
      "...\"": 5628,
      "pregn": 5629,
      "performed": 5630,
      "Sometimes": 5631,
      "NE": 5632,
      "Ros": 5633,
      "dirty": 5634,
      "##lly": 5635,
      "reject": 5636,
      "##ume": 5637,
      "##udes": 5638,
      "##apes": 5639,
      "makeup": 5640,
      "Inc": 5641,
      "cring": 5642,
      "camer": 5643,
      "committed": 5644,
      "promising": 5645,
      "speaks": 5646,
      "expos": 5647,
      "Donald": 5648,
      "Russell": 5649,
      "Bull": 5650,
      "Kore": 5651,
      "##za": 5652,
      "semi": 5653,
      "##arden": 5654,
      "price": 5655,
      "Keaton": 5656,
      "Vietnam": 5657,
      "false": 5658,
      "##vol": 5659,
      "##etime": 5660,
      "##thy": 5661,
      "scr": 5662,
      "wear": 5663,
      "##ummer": 5664,
      "appealing": 5665,
      "THAT": 5666,
      "idiot": 5667,
      "virtually": 5668,
      "Die": 5669,
      "Wall": 5670,
      "vague": 5671,
      "beach": 5672,
      "flo": 5673,
      "Friday": 5674,
      "##away": 5675,
      "worthwhile": 5676,
      "Rec": 5677,
      "captures": 5678,
      "movement": 5679,
      "surface": 5680,
      "suffers": 5681,
      "Had": 5682,
      "##kend": 5683,
      "weve": 5684,
      "##udic": 5685,
      "featured": 5686,
      "States": 5687,
      "Hey": 5688,
      "Ash": 5689,
      "##oken": 5690,
      "Roberts": 5691,
      "Jewish": 5692,
      "##ixt": 5693,
      "##verse": 5694,
      "outs": 5695,
      "wrest": 5696,
      "guilty": 5697,
      "##atherine": 5698,
      "contact": 5699,
      "##apping": 5700,
      "reput": 5701,
      "structure": 5702,
      "emphas": 5703,
      "##direct": 5704,
      "##UR": 5705,
      "trick": 5706,
      "Arn": 5707,
      "multiple": 5708,
      "blonde": 5709,
      "Tur": 5710,
      "##oting": 5711,
      "section": 5712,
      "abuse": 5713,
      "enemy": 5714,
      "related": 5715,
      "Especially": 5716,
      "liners": 5717,
      "unfortunate": 5718,
      "gentle": 5719,
      "##BI": 5720,
      "outrage": 5721,
      "worlds": 5722,
      "covered": 5723,
      "accidentally": 5724,
      "practically": 5725,
      "influence": 5726,
      "praise": 5727,
      "Washington": 5728,
      "Lost": 5729,
      "##anny": 5730,
      "##orting": 5731,
      "accents": 5732,
      "clichd": 5733,
      "Broadway": 5734,
      "rival": 5735,
      "##ching": 5736,
      "##ament": 5737,
      "exagger": 5738,
      "alcohol": 5739,
      "uni": 5740,
      "offensive": 5741,
      "acqu": 5742,
      "favorites": 5743,
      "landsc": 5744,
      "Roger": 5745,
      "frankly": 5746,
      "degree": 5747,
      "cab": 5748,
      "##inal": 5749,
      "##ilogy": 5750,
      "Unlike": 5751,
      "position": 5752,
      "previously": 5753,
      "Holmes": 5754,
      "Fer": 5755,
      "eth": 5756,
      "jail": 5757,
      "till": 5758,
      "##aver": 5759,
      "##CT": 5760,
      "##ker": 5761,
      "tom": 5762,
      "chose": 5763,
      "##ella": 5764,
      "training": 5765,
      "variety": 5766,
      "suspenseful": 5767,
      "About": 5768,
      "Pri": 5769,
      "San": 5770,
      "Tor": 5771,
      "##arc": 5772,
      "spark": 5773,
      "commit": 5774,
      "Simon": 5775,
      "bothered": 5776,
      "claims": 5777,
      "initial": 5778,
      "fest": 5779,
      "##buster": 5780,
      "##VE": 5781,
      "##BO": 5782,
      "stalk": 5783,
      "evening": 5784,
      "mainstream": 5785,
      "statement": 5786,
      ".-": 5787,
      "Besides": 5788,
      "Each": 5789,
      "Hon": 5790,
      "##raction": 5791,
      "neat": 5792,
      "##umm": 5793,
      "##achel": 5794,
      "addict": 5795,
      "touches": 5796,
      "Hitler": 5797,
      "Come": 5798,
      "Nat": 5799,
      "Such": 5800,
      "Wonder": 5801,
      "boot": 5802,
      "##ba": 5803,
      "##roll": 5804,
      "##rocious": 5805,
      "##outs": 5806,
      "remin": 5807,
      "Beat": 5808,
      "surprises": 5809,
      "sympathy": 5810,
      "daughters": 5811,
      "stol": 5812,
      "anger": 5813,
      "heck": 5814,
      "##ems": 5815,
      "##ighter": 5816,
      "supernatural": 5817,
      "2001": 5818,
      "conversation": 5819,
      "Walter": 5820,
      "wedding": 5821,
      "unconvin": 5822,
      "ALL": 5823,
      "MST": 5824,
      "Port": 5825,
      "Sir": 5826,
      "method": 5827,
      "rot": 5828,
      "wound": 5829,
      "##onel": 5830,
      "toler": 5831,
      "directly": 5832,
      "##umbling": 5833,
      "sensitive": 5834,
      "410": 5835,
      "festival": 5836,
      "##lins": 5837,
      "##enny": 5838,
      "##oooo": 5839,
      "health": 5840,
      "scar": 5841,
      "arrest": 5842,
      "poign": 5843,
      "preach": 5844,
      "Carol": 5845,
      "figured": 5846,
      "continuity": 5847,
      "Tarzan": 5848,
      "Eastwood": 5849,
      "category": 5850,
      "Hoff": 5851,
      "fix": 5852,
      "ho": 5853,
      "##point": 5854,
      "stereotypical": 5855,
      "prepared": 5856,
      "service": 5857,
      "melodrama": 5858,
      "extraordinary": 5859,
      "Seagal": 5860,
      "pit": 5861,
      "##erie": 5862,
      "loy": 5863,
      "realizes": 5864,
      "serves": 5865,
      "Fran": 5866,
      "simpl": 5867,
      "emp": 5868,
      "profound": 5869,
      "Basically": 5870,
      "California": 5871,
      "##ait": 5872,
      "##rie": 5873,
      "##lection": 5874,
      "overd": 5875,
      "trapped": 5876,
      "collect": 5877,
      "forgettable": 5878,
      "appreciated": 5879,
      "unlikely": 5880,
      "destroyed": 5881,
      "private": 5882,
      "Jam": 5883,
      "Ty": 5884,
      "cas": 5885,
      "ded": 5886,
      "##ingers": 5887,
      "andor": 5888,
      "##itious": 5889,
      "##ety": 5890,
      "##ura": 5891,
      "disag": 5892,
      "everywhere": 5893,
      "##ache": 5894,
      "term": 5895,
      "extras": 5896,
      "schem": 5897,
      "deaths": 5898,
      "sorts": 5899,
      "Flor": 5900,
      "Africa": 5901,
      "##ION": 5902,
      "##EE": 5903,
      "spite": 5904,
      "##neys": 5905,
      "polic": 5906,
      "swim": 5907,
      "Grand": 5908,
      "execution": 5909,
      "costume": 5910,
      "crying": 5911,
      "required": 5912,
      "demonstr": 5913,
      "Cons": 5914,
      "ludic": 5915,
      "##ez": 5916,
      "##ked": 5917,
      "seasons": 5918,
      "bitter": 5919,
      "effectively": 5920,
      "presents": 5921,
      "##airs": 5922,
      "skip": 5923,
      "focused": 5924,
      "fictional": 5925,
      "Cost": 5926,
      "ice": 5927,
      "jeal": 5928,
      "##enz": 5929,
      "##reh": 5930,
      "##tha": 5931,
      "atrocious": 5932,
      "##olic": 5933,
      "flow": 5934,
      "excess": 5935,
      "vampires": 5936,
      "Queen": 5937,
      "Rh": 5938,
      "placed": 5939,
      "arg": 5940,
      "blown": 5941,
      "Claud": 5942,
      "pulls": 5943,
      "Movies": 5944,
      "hanging": 5945,
      "hed": 5946,
      "mock": 5947,
      "storyt": 5948,
      "Brooks": 5949,
      "##aze": 5950,
      "Clark": 5951,
      "changing": 5952,
      "dogs": 5953,
      "abandoned": 5954,
      "VERY": 5955,
      "Dun": 5956,
      "##lo": 5957,
      "##add": 5958,
      "##mma": 5959,
      "massive": 5960,
      "Betty": 5961,
      "Lau": 5962,
      "cust": 5963,
      "domin": 5964,
      "sne": 5965,
      "tong": 5966,
      "##ipped": 5967,
      "##ipping": 5968,
      "##isp": 5969,
      "stom": 5970,
      "Anderson": 5971,
      "Dean": 5972,
      "Otherwise": 5973,
      "improve": 5974,
      "Mid": 5975,
      "cook": 5976,
      "sink": 5977,
      "##iled": 5978,
      "##ells": 5979,
      "gritty": 5980,
      "calling": 5981,
      "politics": 5982,
      "USA": 5983,
      "Wilson": 5984,
      "Burt": 5985,
      "Ful": 5986,
      "hook": 5987,
      "mas": 5988,
      "##aust": 5989,
      "##??": 5990,
      "##ogether": 5991,
      "Stu": 5992,
      "Arm": 5993,
      "provoking": 5994,
      "Daniel": 5995,
      "Sorry": 5996,
      "pile": 5997,
      "task": 5998,
      "wid": 5999,
      "##aws": 6000,
      "cheese": 6001,
      "repet": 6002,
      "renting": 6003,
      "reputation": 6004,
      "Det": 6005,
      "MOV": 6006,
      "tiny": 6007,
      "##ulp": 6008,
      "courage": 6009,
      "Theyre": 6010,
      "remotely": 6011,
      "Sarah": 6012,
      "veteran": 6013,
      "Cann": 6014,
      "End": 6015,
      "Vir": 6016,
      "naturally": 6017,
      "##uty": 6018,
      "##ston": 6019,
      "worry": 6020,
      "Stone": 6021,
      "Alien": 6022,
      "imagery": 6023,
      "Inde": 6024,
      "narration": 6025,
      "designed": 6026,
      "status": 6027,
      "Parker": 6028,
      "frightening": 6029,
      "accompan": 6030,
      "wins": 6031,
      "##dies": 6032,
      "##elve": 6033,
      "guard": 6034,
      "##ibal": 6035,
      "according": 6036,
      "distinct": 6037,
      "Carpent": 6038,
      "reporter": 6039,
      "upset": 6040,
      "Something": 6041,
      "Son": 6042,
      "ske": 6043,
      "##ooth": 6044,
      "##ds": 6045,
      "##iat": 6046,
      "childrens": 6047,
      "command": 6048,
      "device": 6049,
      "Julia": 6050,
      "homosexual": 6051,
      "Mexican": 6052,
      "hired": 6053,
      "##atically": 6054,
      "##idents": 6055,
      "nostal": 6056,
      "robb": 6057,
      "mistakes": 6058,
      "Mod": 6059,
      "Person": 6060,
      "aint": 6061,
      "##laim": 6062,
      "Things": 6063,
      "decades": 6064,
      "##ission": 6065,
      "critical": 6066,
      "Krist": 6067,
      "quirky": 6068,
      "stolen": 6069,
      "cous": 6070,
      "particip": 6071,
      "Johnson": 6072,
      "Doctor": 6073,
      "figures": 6074,
      "winner": 6075,
      "spoiler": 6076,
      "encou": 6077,
      "arrives": 6078,
      "weapons": 6079,
      "Gab": 6080,
      "Hong": 6081,
      "Jay": 6082,
      "bird": 6083,
      "##rating": 6084,
      "lift": 6085,
      "wouldve": 6086,
      "##fection": 6087,
      "greater": 6088,
      "##uesome": 6089,
      "Next": 6090,
      "convinced": 6091,
      "tremend": 6092,
      "closer": 6093,
      "interviews": 6094,
      "Helen": 6095,
      "##ga": 6096,
      "##ago": 6097,
      "univers": 6098,
      "##assion": 6099,
      "##ocal": 6100,
      "superf": 6101,
      "Seriously": 6102,
      "Drac": 6103,
      "legendary": 6104,
      "Ara": 6105,
      "Have": 6106,
      "deeper": 6107,
      "concent": 6108,
      "raised": 6109,
      "Chaplin": 6110,
      "Definitely": 6111,
      "Cont": 6112,
      "Dep": 6113,
      "##GM": 6114,
      "##chan": 6115,
      "universe": 6116,
      "Bern": 6117,
      "ruin": 6118,
      "WWII": 6119,
      "bat": 6120,
      "via": 6121,
      "lear": 6122,
      "Channel": 6123,
      "Along": 6124,
      "depiction": 6125,
      "demand": 6126,
      "India": 6127,
      "focuses": 6128,
      "mildly": 6129,
      "##IGHT": 6130,
      "Produ": 6131,
      "##zil": 6132,
      "reun": 6133,
      "chief": 6134,
      "unre": 6135,
      "sav": 6136,
      "sounded": 6137,
      "explains": 6138,
      "##etheless": 6139,
      "captiv": 6140,
      "stayed": 6141,
      "heavily": 6142,
      "occasional": 6143,
      "funnier": 6144,
      "department": 6145,
      "SO": 6146,
      "bore": 6147,
      "vast": 6148,
      "##eel": 6149,
      "##och": 6150,
      "##orb": 6151,
      "##oms": 6152,
      "isol": 6153,
      "choices": 6154,
      "preview": 6155,
      "screening": 6156,
      "address": 6157,
      "starred": 6158,
      "puzz": 6159,
      "stomach": 6160,
      "AL": 6161,
      "Home": 6162,
      "##nox": 6163,
      "##ani": 6164,
      "timing": 6165,
      "offered": 6166,
      "teeth": 6167,
      "paying": 6168,
      "##clear": 6169,
      "dinosaur": 6170,
      "Baby": 6171,
      "Run": 6172,
      "dom": 6173,
      "dozen": 6174,
      "scenario": 6175,
      "gruesome": 6176,
      "amazed": 6177,
      "colors": 6178,
      "Music": 6179,
      "loyal": 6180,
      "Dracula": 6181,
      ".(": 6182,
      "dynam": 6183,
      "page": 6184,
      "##rant": 6185,
      "downright": 6186,
      "indul": 6187,
      "buying": 6188,
      "Army": 6189,
      "Berg": 6190,
      "closing": 6191,
      "necessarily": 6192,
      "Murphy": 6193,
      "Kurt": 6194,
      "##uced": 6195,
      "##rence": 6196,
      "intens": 6197,
      "##viously": 6198,
      "minded": 6199,
      "lights": 6200,
      "driver": 6201,
      "Luke": 6202,
      "reveals": 6203,
      "Camer": 6204,
      "Ll": 6205,
      "##IA": 6206,
      "thro": 6207,
      "##arts": 6208,
      "overact": 6209,
      "throws": 6210,
      "obnox": 6211,
      "experiment": 6212,
      "campy": 6213,
      "haunting": 6214,
      "Laura": 6215,
      "##wy": 6216,
      "##ouses": 6217,
      "overwhel": 6218,
      "diss": 6219,
      "##acre": 6220,
      "novels": 6221,
      "understood": 6222,
      ":)": 6223,
      "log": 6224,
      "arms": 6225,
      "##ogue": 6226,
      "coff": 6227,
      "coinc": 6228,
      "complicated": 6229,
      "haunted": 6230,
      "faithful": 6231,
      "Cru": 6232,
      "pitch": 6233,
      "##ola": 6234,
      "trilogy": 6235,
      "##ourne": 6236,
      "throwing": 6237,
      "##liver": 6238,
      "passing": 6239,
      "listening": 6240,
      "capital": 6241,
      "Bu": 6242,
      "Da": 6243,
      "##rees": 6244,
      "spell": 6245,
      "kinds": 6246,
      "titles": 6247,
      "unconvincing": 6248,
      "Int": 6249,
      "##oster": 6250,
      "jobs": 6251,
      "buddy": 6252,
      "murderer": 6253,
      "magical": 6254,
      "ANY": 6255,
      "Vincent": 6256,
      "##iques": 6257,
      "scares": 6258,
      "aliens": 6259,
      "seek": 6260,
      "crude": 6261,
      "originality": 6262,
      "summary": 6263,
      "FBI": 6264,
      "nude": 6265,
      "##core": 6266,
      "exer": 6267,
      "serve": 6268,
      "views": 6269,
      "artists": 6270,
      "headed": 6271,
      "Phill": 6272,
      "integr": 6273,
      "uninteresting": 6274,
      "Lane": 6275,
      "native": 6276,
      "##ello": 6277,
      "betray": 6278,
      "##beat": 6279,
      "##avy": 6280,
      "!),": 6281,
      "combined": 6282,
      "Brazil": 6283,
      "succeeds": 6284,
      "inhab": 6285,
      "pregnant": 6286,
      "##enstein": 6287,
      "##asant": 6288,
      "chuck": 6289,
      "##rol": 6290,
      "depend": 6291,
      "##plays": 6292,
      "##iano": 6293,
      "Sov": 6294,
      "security": 6295,
      "handle": 6296,
      "conscious": 6297,
      "warn": 6298,
      "Welles": 6299,
      "Amaz": 6300,
      "significant": 6301,
      "sophistic": 6302,
      "Lloyd": 6303,
      "45": 6304,
      "80": 6305,
      "MGM": 6306,
      "anime": 6307,
      "couldve": 6308,
      "##ugos": 6309,
      "construct": 6310,
      "condition": 6311,
      "productions": 6312,
      "minimal": 6313,
      "goofy": 6314,
      "ludicrous": 6315,
      "910": 6316,
      "Goth": 6317,
      "sons": 6318,
      "wand": 6319,
      "##eston": 6320,
      "##umble": 6321,
      "Ins": 6322,
      "##obb": 6323,
      "perform": 6324,
      "contest": 6325,
      "shorts": 6326,
      "format": 6327,
      "brave": 6328,
      "irre": 6329,
      "struggling": 6330,
      "causes": 6331,
      "Acting": 6332,
      "Swed": 6333,
      "crafted": 6334,
      "Mickey": 6335,
      "310": 6336,
      "Cur": 6337,
      "charge": 6338,
      "prime": 6339,
      "ade": 6340,
      "letter": 6341,
      "grave": 6342,
      "divor": 6343,
      "President": 6344,
      "110": 6345,
      "Fu": 6346,
      "Los": 6347,
      "Pitt": 6348,
      "bill": 6349,
      "##aving": 6350,
      "butt": 6351,
      "heaven": 6352,
      "blah": 6353,
      "tear": 6354,
      "rights": 6355,
      "McG": 6356,
      "regarding": 6357,
      "Hugh": 6358,
      "HA": 6359,
      "Land": 6360,
      "NY": 6361,
      "Pac": 6362,
      "fil": 6363,
      "river": 6364,
      "prevent": 6365,
      "facial": 6366,
      "China": 6367,
      "Sunday": 6368,
      "hole": 6369,
      "##rist": 6370,
      "reward": 6371,
      "comical": 6372,
      "strict": 6373,
      "warned": 6374,
      "##ception": 6375,
      "retarded": 6376,
      "##incere": 6377,
      "metaph": 6378,
      "lawyer": 6379,
      "Golden": 6380,
      "##iscent": 6381,
      "racist": 6382,
      "Cind": 6383,
      "subsequ": 6384,
      "examples": 6385,
      "Someone": 6386,
      "cultural": 6387,
      "Susan": 6388,
      "description": 6389,
      "rub": 6390,
      "##noon": 6391,
      "stays": 6392,
      "attempting": 6393,
      "delivery": 6394,
      "True": 6395,
      "##belief": 6396,
      "answers": 6397,
      "drinking": 6398,
      "inspiration": 6399,
      "##gon": 6400,
      "##taking": 6401,
      "amazingly": 6402,
      "controvers": 6403,
      "nuclear": 6404,
      "Cap": 6405,
      "PL": 6406,
      "##hi": 6407,
      "uninsp": 6408,
      "friendly": 6409,
      "carried": 6410,
      "advant": 6411,
      "ignor": 6412,
      "helping": 6413,
      "?).": 6414,
      "expressions": 6415,
      "Philip": 6416,
      "Oz": 6417,
      "Poor": 6418,
      "Wind": 6419,
      "bik": 6420,
      "fond": 6421,
      "hip": 6422,
      "tun": 6423,
      "blat": 6424,
      "##acle": 6425,
      "##arren": 6426,
      "scripts": 6427,
      "##gging": 6428,
      "severe": 6429,
      "reference": 6430,
      "execut": 6431,
      "Ow": 6432,
      "aka": 6433,
      "rank": 6434,
      "wreck": 6435,
      "##gie": 6436,
      "##ught": 6437,
      "##olved": 6438,
      "flight": 6439,
      "extent": 6440,
      "halfway": 6441,
      "Spoil": 6442,
      "obser": 6443,
      "##OOD": 6444,
      "properly": 6445,
      "protagonists": 6446,
      "Family": 6447,
      "obnoxious": 6448,
      "Cry": 6449,
      "Kane": 6450,
      "Lisa": 6451,
      "elder": 6452,
      "nut": 6453,
      "theory": 6454,
      "Anim": 6455,
      "Class": 6456,
      "Charact": 6457,
      "introduction": 6458,
      "rule": 6459,
      "rolling": 6460,
      "Obviously": 6461,
      "Four": 6462,
      "LOV": 6463,
      "Mass": 6464,
      "Off": 6465,
      "Water": 6466,
      "cy": 6467,
      "##gia": 6468,
      "##pet": 6469,
      "showc": 6470,
      "adop": 6471,
      "everyday": 6472,
      "Soon": 6473,
      "carries": 6474,
      "indie": 6475,
      "desperately": 6476,
      "join": 6477,
      "Dream": 6478,
      "Oliver": 6479,
      "##ato": 6480,
      "shadow": 6481,
      "weight": 6482,
      "disbelief": 6483,
      "guar": 6484,
      "incor": 6485,
      "enjoying": 6486,
      "concert": 6487,
      "Karl": 6488,
      "weekend": 6489,
      "racism": 6490,
      "disagree": 6491,
      "storytelling": 6492,
      "fulf": 6493,
      "##nes": 6494,
      "##hh": 6495,
      "##rad": 6496,
      "Stud": 6497,
      "cheer": 6498,
      "drives": 6499,
      "touched": 6500,
      "packed": 6501,
      "dinner": 6502,
      "##alls": 6503,
      "##actic": 6504,
      "##abe": 6505,
      "argu": 6506,
      "##orses": 6507,
      "basis": 6508,
      "Highly": 6509,
      "Check": 6510,
      "baseball": 6511,
      "jungle": 6512,
      "##adays": 6513,
      "franch": 6514,
      "served": 6515,
      "Heaven": 6516,
      "Argent": 6517,
      "credible": 6518,
      "psycho": 6519,
      "Nazi": 6520,
      "mentally": 6521,
      "interpretation": 6522,
      "BL": 6523,
      "Would": 6524,
      "bow": 6525,
      "dude": 6526,
      "ped": 6527,
      "##mother": 6528,
      "##omer": 6529,
      "Thanks": 6530,
      "##sec": 6531,
      "##plend": 6532,
      "entry": 6533,
      "Atl": 6534,
      "1960s": 6535,
      "Superman": 6536,
      "reminiscent": 6537,
      "MOVIE": 6538,
      "cock": 6539,
      "gar": 6540,
      "##rate": 6541,
      "Alt": 6542,
      "Michelle": 6543,
      "transform": 6544,
      "Grant": 6545,
      "ignore": 6546,
      "criminals": 6547,
      "Police": 6548,
      "MST3": 6549,
      "controversial": 6550,
      "Ast": 6551,
      "Dave": 6552,
      "cand": 6553,
      "jack": 6554,
      "tag": 6555,
      "##fire": 6556,
      "##zed": 6557,
      "##OP": 6558,
      "poet": 6559,
      "prete": 6560,
      "##ifies": 6561,
      "##beit": 6562,
      "parall": 6563,
      "Marie": 6564,
      "stupidity": 6565,
      "flawed": 6566,
      "purely": 6567,
      "Probably": 6568,
      "1930s": 6569,
      "00": 6570,
      "Sou": 6571,
      "Sav": 6572,
      "Turn": 6573,
      "mature": 6574,
      "sher": 6575,
      "##ulk": 6576,
      "fac": 6577,
      "attacks": 6578,
      "turkey": 6579,
      "determined": 6580,
      "Sun": 6581,
      "Wes": 6582,
      "bon": 6583,
      "tree": 6584,
      "shark": 6585,
      "shape": 6586,
      "plastic": 6587,
      "Chic": 6588,
      "border": 6589,
      "caring": 6590,
      "credibility": 6591,
      "medical": 6592,
      "picks": 6593,
      "Tommy": 6594,
      "beloved": 6595,
      "Ern": 6596,
      "assistant": 6597,
      "##utherland": 6598,
      "Hoffman": 6599,
      "##lim": 6600,
      "##ida": 6601,
      "alright": 6602,
      "unbe": 6603,
      "elev": 6604,
      "Grade": 6605,
      "accepted": 6606,
      "ratings": 6607,
      "Hal": 6608,
      "national": 6609,
      "tense": 6610,
      "##CK": 6611,
      "outd": 6612,
      "##aunt": 6613,
      "...)": 6614,
      "maker": 6615,
      "miscast": 6616,
      "carrying": 6617,
      "settings": 6618,
      "Cole": 6619,
      "Catherine": 6620,
      "Witch": 6621,
      "##ses": 6622,
      "wears": 6623,
      "grim": 6624,
      "underground": 6625,
      "deliber": 6626,
      "deadly": 6627,
      "announ": 6628,
      "femin": 6629,
      "patient": 6630,
      "welcome": 6631,
      "Greg": 6632,
      "Sutherland": 6633,
      "##amond": 6634,
      "##olph": 6635,
      "Clint": 6636,
      "angle": 6637,
      "amongst": 6638,
      "international": 6639,
      "balance": 6640,
      "##craft": 6641,
      "lonely": 6642,
      "Give": 6643,
      "LI": 6644,
      "Nol": 6645,
      "Ven": 6646,
      "ul": 6647,
      "exists": 6648,
      "Andre": 6649,
      "awards": 6650,
      "resist": 6651,
      "farm": 6652,
      "##ettes": 6653,
      "technique": 6654,
      "journal": 6655,
      "revolves": 6656,
      "Santa": 6657,
      "Mom": 6658,
      "Top": 6659,
      "jerk": 6660,
      "##iffer": 6661,
      "##fits": 6662,
      "##ilton": 6663,
      "alter": 6664,
      "albeit": 6665,
      "disgu": 6666,
      "possess": 6667,
      "topic": 6668,
      "stylish": 6669,
      "escapes": 6670,
      "Columbo": 6671,
      "tongue": 6672,
      "torn": 6673,
      "##bit": 6674,
      "##chy": 6675,
      "cha": 6676,
      "chair": 6677,
      "nose": 6678,
      "##ibilities": 6679,
      "Reg": 6680,
      "Italy": 6681,
      "attacked": 6682,
      "treasure": 6683,
      "scientists": 6684,
      "replaced": 6685,
      "sinister": 6686,
      "##director": 6687,
      "\"...": 6688,
      "gain": 6689,
      "tune": 6690,
      "##nda": 6691,
      "##usty": 6692,
      "neck": 6693,
      "##umph": 6694,
      "Intern": 6695,
      "comedian": 6696,
      "install": 6697,
      "confusion": 6698,
      "assign": 6699,
      "2005": 6700,
      "stealing": 6701,
      "Warner": 6702,
      "anticip": 6703,
      "struggles": 6704,
      "immense": 6705,
      "separate": 6706,
      "Sinatra": 6707,
      "ashamed": 6708,
      "Pret": 6709,
      "Wolf": 6710,
      "##ya": 6711,
      "##ada": 6712,
      "libr": 6713,
      "##aped": 6714,
      "spoken": 6715,
      "backd": 6716,
      "screenwriter": 6717,
      "Blair": 6718,
      "countries": 6719,
      "Prince": 6720,
      "sleazy": 6721,
      "atmospher": 6722,
      "learning": 6723,
      "intensity": 6724,
      "!.": 6725,
      "Lat": 6726,
      "Miller": 6727,
      "ton": 6728,
      "##race": 6729,
      "perfection": 6730,
      "mindless": 6731,
      "Reyn": 6732,
      "letting": 6733,
      "opened": 6734,
      "existent": 6735,
      "Stanwy": 6736,
      "mirror": 6737,
      "gripping": 6738,
      "risk": 6739,
      "sheriff": 6740,
      "Hill": 6741,
      "lazy": 6742,
      "##inging": 6743,
      "sho": 6744,
      "graphics": 6745,
      "thousands": 6746,
      "Fair": 6747,
      "PG": 6748,
      "candy": 6749,
      "laid": 6750,
      "sincere": 6751,
      "##BS": 6752,
      "wash": 6753,
      "##istent": 6754,
      "greatly": 6755,
      "horrific": 6756,
      "castle": 6757,
      "adding": 6758,
      "guessing": 6759,
      "stops": 6760,
      "School": 6761,
      "aston": 6762,
      "Mexico": 6763,
      "poignant": 6764,
      "advantage": 6765,
      "MU": 6766,
      "gather": 6767,
      "greed": 6768,
      "raw": 6769,
      "##orc": 6770,
      "afternoon": 6771,
      "exceptional": 6772,
      "Prin": 6773,
      "##ification": 6774,
      "adventures": 6775,
      "embarrassed": 6776,
      "Techn": 6777,
      "established": 6778,
      "National": 6779,
      "cave": 6780,
      "kung": 6781,
      "##udge": 6782,
      "fairy": 6783,
      "innov": 6784,
      "miles": 6785,
      "official": 6786,
      "network": 6787,
      "wealthy": 6788,
      "cynical": 6789,
      "Alf": 6790,
      "Bollywood": 6791,
      "Dri": 6792,
      "Ren": 6793,
      "Rating": 6794,
      "Sol": 6795,
      "pool": 6796,
      "##ux": 6797,
      "##vest": 6798,
      "##walk": 6799,
      "##ingu": 6800,
      "##adows": 6801,
      "render": 6802,
      "seeking": 6803,
      "cance": 6804,
      "arrog": 6805,
      "dislike": 6806,
      "portra": 6807,
      "##gypt": 6808,
      "Woody": 6809,
      "idiotic": 6810,
      "neighb": 6811,
      "Tarant": 6812,
      "urban": 6813,
      "mountain": 6814,
      "##imm": 6815,
      "forest": 6816,
      "chilling": 6817,
      "##opath": 6818,
      "lovable": 6819,
      "phen": 6820,
      "creation": 6821,
      "equal": 6822,
      "innocence": 6823,
      "##iveness": 6824,
      "Award": 6825,
      "Cooper": 6826,
      "Ral": 6827,
      "wond": 6828,
      "##ari": 6829,
      "Think": 6830,
      "##forms": 6831,
      "##quis": 6832,
      "magaz": 6833,
      "challenge": 6834,
      "assassin": 6835,
      "princip": 6836,
      "Soviet": 6837,
      "Bell": 6838,
      "Killer": 6839,
      "Rep": 6840,
      "jumps": 6841,
      "wanna": 6842,
      "##oration": 6843,
      "##inson": 6844,
      "coach": 6845,
      "McD": 6846,
      "occup": 6847,
      "sleeping": 6848,
      "steps": 6849,
      "Oliv": 6850,
      "imaginative": 6851,
      "Virgin": 6852,
      "Flyn": 6853,
      "Powell": 6854,
      "Sab": 6855,
      "cases": 6856,
      "finger": 6857,
      "##TER": 6858,
      "enh": 6859,
      "clips": 6860,
      "##ishment": 6861,
      "slo": 6862,
      "finan": 6863,
      "##ointed": 6864,
      "Maria": 6865,
      "illust": 6866,
      "presentation": 6867,
      "sacrif": 6868,
      "specific": 6869,
      "frequently": 6870,
      "24": 6871,
      "Egypt": 6872,
      "Hud": 6873,
      "Sally": 6874,
      "aired": 6875,
      "hipp": 6876,
      "##iger": 6877,
      "arr": 6878,
      "contract": 6879,
      "suggests": 6880,
      "convict": 6881,
      "searching": 6882,
      "General": 6883,
      "Jamie": 6884,
      "Personally": 6885,
      "Reynolds": 6886,
      "Met": 6887,
      "Pred": 6888,
      "mothers": 6889,
      "vivid": 6890,
      "##jud": 6891,
      "##ito": 6892,
      "exh": 6893,
      "##olves": 6894,
      "proof": 6895,
      "##ocr": 6896,
      "consists": 6897,
      "robot": 6898,
      "Griff": 6899,
      "Cage": 6900,
      "Greek": 6901,
      "ive": 6902,
      "shr": 6903,
      "##gettable": 6904,
      "presum": 6905,
      "ironic": 6906,
      "franchise": 6907,
      "MAN": 6908,
      "hiding": 6909,
      "##face": 6910,
      "alt": 6911,
      "dece": 6912,
      "useless": 6913,
      "Karen": 6914,
      "Connery": 6915,
      "Nazis": 6916,
      "Cath": 6917,
      "noted": 6918,
      "notable": 6919,
      "conven": 6920,
      "decl": 6921,
      "Brid": 6922,
      "sket": 6923,
      "unfold": 6924,
      "techniques": 6925,
      "ripped": 6926,
      "Leslie": 6927,
      "Andrews": 6928,
      "##semble": 6929,
      "Aw": 6930,
      "Luck": 6931,
      "pub": 6932,
      "##isher": 6933,
      "##utter": 6934,
      "states": 6935,
      "Wend": 6936,
      "dramas": 6937,
      "fallen": 6938,
      "videos": 6939,
      "##ONT": 6940,
      "breathtaking": 6941,
      "stunts": 6942,
      "Ghost": 6943,
      "Fire": 6944,
      "Lion": 6945,
      "Res": 6946,
      "##IM": 6947,
      "##pass": 6948,
      "Thing": 6949,
      "wasting": 6950,
      "##alley": 6951,
      "##estly": 6952,
      "manager": 6953,
      "##arring": 6954,
      "ourselves": 6955,
      "Marl": 6956,
      "corpor": 6957,
      "raise": 6958,
      "spiritual": 6959,
      "MST3K": 6960,
      "Bon": 6961,
      "Hot": 6962,
      "Lem": 6963,
      "selling": 6964,
      "access": 6965,
      "suffered": 6966,
      "initially": 6967,
      "nightmare": 6968,
      "firm": 6969,
      "hung": 6970,
      "##ounding": 6971,
      "happiness": 6972,
      "attempted": 6973,
      "appearances": 6974,
      "sexuality": 6975,
      "dollar": 6976,
      "weapon": 6977,
      "Pretty": 6978,
      "Fle": 6979,
      "Hy": 6980,
      "hill": 6981,
      "splend": 6982,
      "##erior": 6983,
      "toile": 6984,
      "exch": 6985,
      "recover": 6986,
      "Imag": 6987,
      "triumph": 6988,
      "##ibl": 6989,
      "appearing": 6990,
      "restaur": 6991,
      "transfer": 6992,
      "successfully": 6993,
      "Geor": 6994,
      "destruction": 6995,
      "meaningful": 6996,
      "boredom": 6997,
      "repeat": 6998,
      "physically": 6999,
      "Australia": 7000,
      "Zombie": 7001,
      "fabulous": 7002,
      "Scarlet": 7003,
      "BAD": 7004,
      "Ice": 7005,
      "Ken": 7006,
      "Net": 7007,
      "hooked": 7008,
      "lying": 7009,
      "sings": 7010,
      "##den": 7011,
      "##TV": 7012,
      "##aron": 7013,
      "##icles": 7014,
      "##utch": 7015,
      "sevent": 7016,
      "enorm": 7017,
      "werewolf": 7018,
      "performers": 7019,
      "##entionally": 7020,
      "hopefully": 7021,
      "psychiat": 7022,
      "tribute": 7023,
      "oblig": 7024,
      "Ralph": 7025,
      "300": 7026,
      "Heres": 7027,
      "lyr": 7028,
      "nom": 7029,
      "vent": 7030,
      "##mp": 7031,
      "##UL": 7032,
      "thumb": 7033,
      "##asp": 7034,
      "traum": 7035,
      "relax": 7036,
      "instantly": 7037,
      "!!!!!": 7038,
      "sentimental": 7039,
      "metal": 7040,
      "essential": 7041,
      "competent": 7042,
      "REALLY": 7043,
      "Sky": 7044,
      "gal": 7045,
      "tempt": 7046,
      "tied": 7047,
      "##esis": 7048,
      "rend": 7049,
      "##seud": 7050,
      "cheek": 7051,
      "borrow": 7052,
      "styl": 7053,
      "studios": 7054,
      "corner": 7055,
      "2006": 7056,
      "irony": 7057,
      "##ANT": 7058,
      "profession": 7059,
      "marvelous": 7060,
      "consequences": 7061,
      "EN": 7062,
      "upper": 7063,
      "thick": 7064,
      "##ctors": 7065,
      "##amor": 7066,
      "legs": 7067,
      "trial": 7068,
      "refuses": 7069,
      "shoots": 7070,
      "Comedy": 7071,
      "achieved": 7072,
      "Knight": 7073,
      "autom": 7074,
      "belongs": 7075,
      "Cameron": 7076,
      "Iron": 7077,
      "Ju": 7078,
      "Veg": 7079,
      "yell": 7080,
      "##mates": 7081,
      "##isis": 7082,
      "##ona": 7083,
      "##rig": 7084,
      "dign": 7085,
      "##ooky": 7086,
      "horrors": 7087,
      "caric": 7088,
      "homage": 7089,
      "Secret": 7090,
      "##worth": 7091,
      "Walker": 7092,
      "troubled": 7093,
      "scratch": 7094,
      "HBO": 7095,
      "eager": 7096,
      "nurse": 7097,
      "pa": 7098,
      "size": 7099,
      "##ELL": 7100,
      "##oops": 7101,
      "poster": 7102,
      "overcome": 7103,
      "struck": 7104,
      "conspir": 7105,
      "surviv": 7106,
      "##EAD": 7107,
      "surrounding": 7108,
      "thousand": 7109,
      "99": 7110,
      "Pier": 7111,
      "Penn": 7112,
      "Ric": 7113,
      "pseud": 7114,
      "##agh": 7115,
      "##OD": 7116,
      "##order": 7117,
      "storm": 7118,
      "##iments": 7119,
      "meat": 7120,
      "##onda": 7121,
      "spy": 7122,
      "absorb": 7123,
      "eyed": 7124,
      "##rified": 7125,
      "musicals": 7126,
      "Germans": 7127,
      "connected": 7128,
      "DE": 7129,
      "##ship": 7130,
      "##iders": 7131,
      "alike": 7132,
      "lesser": 7133,
      "closely": 7134,
      "obsession": 7135,
      "Final": 7136,
      "Bobby": 7137,
      "neighborhood": 7138,
      "Jessica": 7139,
      "exercise": 7140,
      "ultra": 7141,
      "Nancy": 7142,
      "##vably": 7143,
      "beer": 7144,
      "sends": 7145,
      "shines": 7146,
      "chases": 7147,
      "chasing": 7148,
      "##aks": 7149,
      "Whatever": 7150,
      "tender": 7151,
      "elabor": 7152,
      "weakness": 7153,
      "Acc": 7154,
      "Drew": 7155,
      "Father": 7156,
      "Marsh": 7157,
      "Spr": 7158,
      "Ur": 7159,
      "mont": 7160,
      "##hem": 7161,
      "##LD": 7162,
      "##itar": 7163,
      "stiff": 7164,
      "shed": 7165,
      "##ogical": 7166,
      "horrend": 7167,
      "lacked": 7168,
      "20th": 7169,
      "millions": 7170,
      "essence": 7171,
      "ambig": 7172,
      "broadcast": 7173,
      "Kennedy": 7174,
      "vacation": 7175,
      "cousin": 7176,
      "Further": 7177,
      "Mach": 7178,
      "Power": 7179,
      "nation": 7180,
      "##BLE": 7181,
      "thirty": 7182,
      "##isons": 7183,
      "tow": 7184,
      "alb": 7185,
      "......": 7186,
      "thrilling": 7187,
      "saves": 7188,
      "nowadays": 7189,
      "infam": 7190,
      "broke": 7191,
      "Grace": 7192,
      "virgin": 7193,
      "hundreds": 7194,
      "outrageous": 7195,
      "Caine": 7196,
      "Hunter": 7197,
      "Right": 7198,
      "dump": 7199,
      "##iance": 7200,
      "##entric": 7201,
      "pros": 7202,
      "spots": 7203,
      "incons": 7204,
      "Friend": 7205,
      "explicit": 7206,
      "solve": 7207,
      "Emily": 7208,
      "##world": 7209,
      "individuals": 7210,
      "30s": 7211,
      "Kath": 7212,
      "Rachel": 7213,
      "Sub": 7214,
      "##rum": 7215,
      "##asion": 7216,
      "stumb": 7217,
      "choos": 7218,
      "##eline": 7219,
      "##aky": 7220,
      "Almost": 7221,
      "enjoyment": 7222,
      "territ": 7223,
      "carefully": 7224,
      "personalities": 7225,
      "madness": 7226,
      "##blance": 7227,
      "atmospheric": 7228,
      "Down": 7229,
      "Eve": 7230,
      "Fro": 7231,
      "Oth": 7232,
      "Saw": 7233,
      "dare": 7234,
      "tab": 7235,
      "##AA": 7236,
      "##ease": 7237,
      "##asingly": 7238,
      "beings": 7239,
      "suits": 7240,
      "##aki": 7241,
      "quote": 7242,
      "string": 7243,
      "glimp": 7244,
      "darkness": 7245,
      "annoyed": 7246,
      "concerns": 7247,
      "ghosts": 7248,
      "Jonathan": 7249,
      "battles": 7250,
      "glimpse": 7251,
      "Dad": 7252,
      "Kub": 7253,
      "Living": 7254,
      "MA": 7255,
      "Nob": 7256,
      "ecc": 7257,
      "jew": 7258,
      "tax": 7259,
      "##ype": 7260,
      "##orrow": 7261,
      "ing": 7262,
      "##iels": 7263,
      "##roy": 7264,
      "inco": 7265,
      "stranger": 7266,
      "smooth": 7267,
      "develops": 7268,
      "riding": 7269,
      "dealt": 7270,
      "wishes": 7271,
      "colorful": 7272,
      "kidnapped": 7273,
      "Matthew": 7274,
      "uncomfortable": 7275,
      "unforgettable": 7276,
      "adequ": 7277,
      "Curt": 7278,
      "Fat": 7279,
      "Josh": 7280,
      "Ori": 7281,
      "Tru": 7282,
      "sand": 7283,
      "##iation": 7284,
      "select": 7285,
      "unh": 7286,
      "##ours": 7287,
      "guilt": 7288,
      "bucks": 7289,
      "Unless": 7290,
      "acceptable": 7291,
      "##coming": 7292,
      "sympath": 7293,
      "##iosity": 7294,
      "Matrix": 7295,
      "briefly": 7296,
      "Special": 7297,
      "thrillers": 7298,
      "Bott": 7299,
      "Could": 7300,
      "Rome": 7301,
      "WOR": 7302,
      "##ran": 7303,
      "thread": 7304,
      "##asm": 7305,
      "inher": 7306,
      "chap": 7307,
      "pray": 7308,
      "##pector": 7309,
      "Stra": 7310,
      "lessons": 7311,
      "Spiel": 7312,
      "sky": 7313,
      "importance": 7314,
      "opposed": 7315,
      "##ONE": 7316,
      "60": 7317,
      "Cub": 7318,
      "Lugos": 7319,
      "Ma": 7320,
      "Tob": 7321,
      "Vide": 7322,
      "kicks": 7323,
      "##ids": 7324,
      "plant": 7325,
      "compr": 7326,
      "tricks": 7327,
      "Aside": 7328,
      "buck": 7329,
      "importantly": 7330,
      "2000": 7331,
      "larger": 7332,
      "identify": 7333,
      "persons": 7334,
      "miserably": 7335,
      "Universal": 7336,
      "40s": 7337,
      "Has": 7338,
      "Norm": 7339,
      "Tem": 7340,
      "bare": 7341,
      "hitting": 7342,
      "##OS": 7343,
      "##keys": 7344,
      "ensemble": 7345,
      "##ifting": 7346,
      "confess": 7347,
      "Exce": 7348,
      "patri": 7349,
      "Woods": 7350,
      "locked": 7351,
      "##accur": 7352,
      "Ele": 7353,
      "Ten": 7354,
      "rushed": 7355,
      "wann": 7356,
      "chron": 7357,
      "activ": 7358,
      "##istically": 7359,
      "workers": 7360,
      "spending": 7361,
      "pointed": 7362,
      "##emption": 7363,
      "Freddy": 7364,
      "Hardy": 7365,
      "Indeed": 7366,
      "uninspired": 7367,
      "AT": 7368,
      "Abs": 7369,
      "Pot": 7370,
      "SU": 7371,
      "Set": 7372,
      "queen": 7373,
      "##va": 7374,
      "##iently": 7375,
      "##yle": 7376,
      "##onse": 7377,
      "inaccur": 7378,
      "moon": 7379,
      "shirt": 7380,
      "heist": 7381,
      "##ellar": 7382,
      "knife": 7383,
      "grows": 7384,
      "Brun": 7385,
      "dialogs": 7386,
      "drags": 7387,
      "afford": 7388,
      "Indians": 7389,
      "striking": 7390,
      "ignored": 7391,
      "folk": 7392,
      "Freeman": 7393,
      "Stanwyck": 7394,
      "21": 7395,
      "attend": 7396,
      "Isra": 7397,
      "strangely": 7398,
      "engine": 7399,
      "fashioned": 7400,
      "Korean": 7401,
      "Franco": 7402,
      "sophisticated": 7403,
      "Pacino": 7404,
      "Gre": 7405,
      "Holly": 7406,
      "Jere": 7407,
      "Say": 7408,
      "Tot": 7409,
      "citiz": 7410,
      "##rase": 7411,
      "##mate": 7412,
      "##icial": 7413,
      "##weet": 7414,
      "glob": 7415,
      "towns": 7416,
      "westerns": 7417,
      "ambitious": 7418,
      "repeatedly": 7419,
      "increasingly": 7420,
      "incompet": 7421,
      "Consider": 7422,
      "unbear": 7423,
      "Kings": 7424,
      "Talk": 7425,
      "fed": 7426,
      "hood": 7427,
      "##dys": 7428,
      "spread": 7429,
      "Real": 7430,
      "talked": 7431,
      "cameos": 7432,
      "devil": 7433,
      "fourth": 7434,
      "Norman": 7435,
      "newsp": 7436,
      "1st": 7437,
      "Certain": 7438,
      "Event": 7439,
      "Hunt": 7440,
      "unple": 7441,
      "Sex": 7442,
      "creators": 7443,
      "relevant": 7444,
      "##pses": 7445,
      "honor": 7446,
      "Oscars": 7447,
      "revealing": 7448,
      "dropped": 7449,
      "Rogers": 7450,
      "melodramatic": 7451,
      "disappear": 7452,
      "35": 7453,
      "Az": 7454,
      "Bros": 7455,
      "guts": 7456,
      "pin": 7457,
      "rhy": 7458,
      "##ado": 7459,
      "##chest": 7460,
      "shall": 7461,
      "abrupt": 7462,
      "Need": 7463,
      "hoped": 7464,
      "expensive": 7465,
      "adapted": 7466,
      "competition": 7467,
      "Apart": 7468,
      "daily": 7469,
      "Call": 7470,
      "##fess": 7471,
      "infect": 7472,
      "comfort": 7473,
      "##angle": 7474,
      "womans": 7475,
      "consum": 7476,
      "##ographic": 7477,
      "dragged": 7478,
      "basement": 7479,
      "admire": 7480,
      "##riters": 7481,
      "limit": 7482,
      "hype": 7483,
      "dubbing": 7484,
      "endearing": 7485,
      "Sidney": 7486,
      "repetitive": 7487,
      "Mupp": 7488,
      "lust": 7489,
      "toss": 7490,
      "##erella": 7491,
      "##udos": 7492,
      "##cia": 7493,
      "attraction": 7494,
      "sexually": 7495,
      "Scream": 7496,
      "eleg": 7497,
      "demons": 7498,
      "selfish": 7499,
      "Nevertheless": 7500,
      "Victoria": 7501,
      "##conom": 7502,
      "subplot": 7503,
      "inevitable": 7504,
      "##breaking": 7505,
      "portrait": 7506,
      "Israel": 7507,
      "Kl": 7508,
      "Page": 7509,
      "##die": 7510,
      "##mitted": 7511,
      "##icing": 7512,
      "shy": 7513,
      "unor": 7514,
      "myst": 7515,
      "Att": 7516,
      "easier": 7517,
      "illeg": 7518,
      "stretch": 7519,
      "enthusi": 7520,
      "Cus": 7521,
      "Ton": 7522,
      "horses": 7523,
      "nail": 7524,
      "##cean": 7525,
      "feed": 7526,
      "guest": 7527,
      "##ifying": 7528,
      "brand": 7529,
      "inspiring": 7530,
      "judg": 7531,
      "electric": 7532,
      "vulner": 7533,
      "Arnold": 7534,
      "##rehens": 7535,
      "Aud": 7536,
      "Dirty": 7537,
      "Row": 7538,
      "ruth": 7539,
      "##ees": 7540,
      "##ean": 7541,
      "shout": 7542,
      "##eps": 7543,
      "Heart": 7544,
      "Youre": 7545,
      "handful": 7546,
      "##lands": 7547,
      "hearts": 7548,
      "curiosity": 7549,
      "remaining": 7550,
      "Diane": 7551,
      "cringe": 7552,
      "Cant": 7553,
      "Emma": 7554,
      "GRE": 7555,
      "Low": 7556,
      "Nice": 7557,
      "eerie": 7558,
      "##nic": 7559,
      "##cr": 7560,
      "unim": 7561,
      "flu": 7562,
      "editor": 7563,
      "sidek": 7564,
      "Britain": 7565,
      "nonetheless": 7566,
      "busy": 7567,
      "Lucy": 7568,
      "##chester": 7569,
      "split": 7570,
      "cowboy": 7571,
      "charisma": 7572,
      "Satan": 7573,
      "Fulci": 7574,
      "toilet": 7575,
      "eccentric": 7576,
      "Jer": 7577,
      "Ka": 7578,
      "Lots": 7579,
      "##oven": 7580,
      "##pse": 7581,
      "##kind": 7582,
      "##arter": 7583,
      "prol": 7584,
      "trite": 7585,
      "Church": 7586,
      "happily": 7587,
      "terrifying": 7588,
      "smoking": 7589,
      "appalling": 7590,
      "conclud": 7591,
      "strip": 7592,
      "attracted": 7593,
      "Boys": 7594,
      "Years": 7595,
      "raped": 7596,
      "Sandra": 7597,
      "Mitchell": 7598,
      "Return": 7599,
      "phenomen": 7600,
      "infamous": 7601,
      "Ah": 7602,
      "##hold": 7603,
      "##bod": 7604,
      "##mo": 7605,
      "##11": 7606,
      "threw": 7607,
      "##oria": 7608,
      "##oma": 7609,
      "##icop": 7610,
      "##ila": 7611,
      "clown": 7612,
      "##ishes": 7613,
      "crimes": 7614,
      "suburb": 7615,
      "triv": 7616,
      "##arby": 7617,
      "returning": 7618,
      "Juliet": 7619,
      "requires": 7620,
      "Planet": 7621,
      "Picture": 7622,
      "210": 7623,
      "Days": 7624,
      "Mother": 7625,
      "bust": 7626,
      "wow": 7627,
      "##!)": 7628,
      "##ader": 7629,
      "stated": 7630,
      "##cend": 7631,
      "outl": 7632,
      "theyd": 7633,
      "fears": 7634,
      "goal": 7635,
      "blows": 7636,
      "##ERS": 7637,
      "Ree": 7638,
      "husbands": 7639,
      "mistaken": 7640,
      "Films": 7641,
      "response": 7642,
      "Burton": 7643,
      "intentions": 7644,
      "breasts": 7645,
      "Cre": 7646,
      "fitting": 7647,
      "sque": 7648,
      "##ctions": 7649,
      "staff": 7650,
      "abys": 7651,
      "##isted": 7652,
      "heres": 7653,
      "##aste": 7654,
      "watches": 7655,
      "argue": 7656,
      "imit": 7657,
      "Beck": 7658,
      "reasonable": 7659,
      "president": 7660,
      "dancer": 7661,
      "Linda": 7662,
      "Leonard": 7663,
      "backdrop": 7664,
      "Rand": 7665,
      "cig": 7666,
      "lur": 7667,
      "wicked": 7668,
      "##just": 7669,
      "##otion": 7670,
      "chest": 7671,
      "##elson": 7672,
      "##umin": 7673,
      "devast": 7674,
      "engaged": 7675,
      "reactions": 7676,
      "launch": 7677,
      "cardboard": 7678,
      "Hanks": 7679,
      "Roll": 7680,
      "dub": 7681,
      "etern": 7682,
      "##CE": 7683,
      "toy": 7684,
      "beating": 7685,
      "##idly": 7686,
      "##ements": 7687,
      "##ipes": 7688,
      "DVDs": 7689,
      "elsewhere": 7690,
      "forgive": 7691,
      "checking": 7692,
      "Glenn": 7693,
      "lifesty": 7694,
      "commercials": 7695,
      "revelation": 7696,
      "hence": 7697,
      "oil": 7698,
      "##yc": 7699,
      "##KE": 7700,
      "button": 7701,
      "##ptic": 7702,
      "precious": 7703,
      "explod": 7704,
      "restra": 7705,
      "possessed": 7706,
      "demands": 7707,
      "occurs": 7708,
      "?),": 7709,
      "beaten": 7710,
      "Angeles": 7711,
      "investigation": 7712,
      "Science": 7713,
      "explosions": 7714,
      "inexplic": 7715,
      "Imagine": 7716,
      "territory": 7717,
      "unpleasant": 7718,
      "Ball": 7719,
      "Ultim": 7720,
      "lit": 7721,
      "##ooges": 7722,
      "##istan": 7723,
      "shower": 7724,
      "Uncle": 7725,
      "iron": 7726,
      "pulling": 7727,
      "observ": 7728,
      "##anagh": 7729,
      "replace": 7730,
      "burst": 7731,
      "fortun": 7732,
      "unintentionally": 7733,
      "tremendous": 7734,
      "Cow": 7735,
      "FR": 7736,
      "nine": 7737,
      "row": 7738,
      "##isation": 7739,
      "##othing": 7740,
      "##stone": 7741,
      "stood": 7742,
      "areas": 7743,
      "slick": 7744,
      "killings": 7745,
      "accused": 7746,
      "Mystery": 7747,
      "motivation": 7748,
      "Remember": 7749,
      "Laurel": 7750,
      "Chicago": 7751,
      "wonders": 7752,
      "Bac": 7753,
      "Ru": 7754,
      "econom": 7755,
      "fur": 7756,
      "piano": 7757,
      "ren": 7758,
      "##gers": 7759,
      "##iar": 7760,
      "##irs": 7761,
      "##arted": 7762,
      "precise": 7763,
      "realise": 7764,
      "performing": 7765,
      "brilliance": 7766,
      "spoiled": 7767,
      "bleak": 7768,
      "Alexander": 7769,
      "interaction": 7770,
      "widow": 7771,
      "library": 7772,
      "horrendous": 7773,
      "Excellent": 7774,
      "Ring": 7775,
      "bog": 7776,
      "eg": 7777,
      "wack": 7778,
      "##lee": 7779,
      "##uloid": 7780,
      "##usions": 7781,
      "##agan": 7782,
      "mechan": 7783,
      "evident": 7784,
      "invis": 7785,
      "groups": 7786,
      "medium": 7787,
      "symbolism": 7788,
      "unwatch": 7789,
      "fifteen": 7790,
      "EX": 7791,
      "Fant": 7792,
      "Gun": 7793,
      "Hind": 7794,
      "Kell": 7795,
      "Psych": 7796,
      "##van": 7797,
      "##HING": 7798,
      "load": 7799,
      "clues": 7800,
      "thrills": 7801,
      "horrid": 7802,
      "genres": 7803,
      "messages": 7804,
      "providing": 7805,
      "##unky": 7806,
      "documentaries": 7807,
      "loser": 7808,
      "jumping": 7809,
      "III": 7810,
      "Stanley": 7811,
      "encounters": 7812,
      "internet": 7813,
      "Matthau": 7814,
      "restaurant": 7815,
      "Bry": 7816,
      "Nin": 7817,
      "Rather": 7818,
      "boil": 7819,
      "##uing": 7820,
      "##bell": 7821,
      "wheel": 7822,
      "##allo": 7823,
      "perpet": 7824,
      "characterization": 7825,
      "resolution": 7826,
      "gotta": 7827,
      "parent": 7828,
      "pleased": 7829,
      "detailed": 7830,
      "professor": 7831,
      "Miy": 7832,
      "Flynn": 7833,
      "duty": 7834,
      "##ef": 7835,
      "##iors": 7836,
      "##inent": 7837,
      "##omit": 7838,
      "##etically": 7839,
      "allowing": 7840,
      "##inda": 7841,
      "countless": 7842,
      "##ologist": 7843,
      "labor": 7844,
      "virus": 7845,
      "photographed": 7846,
      "associated": 7847,
      "hysterical": 7848,
      "jealous": 7849,
      "Hudson": 7850,
      "incoherent": 7851,
      "Eri": 7852,
      "Ire": 7853,
      "Read": 7854,
      "mes": 7855,
      "pig": 7856,
      "west": 7857,
      "wake": 7858,
      "##mal": 7859,
      "##idel": 7860,
      "##kel": 7861,
      "chain": 7862,
      "chew": 7863,
      "timeless": 7864,
      "displays": 7865,
      "guide": 7866,
      "helicop": 7867,
      "Plot": 7868,
      "subjects": 7869,
      "angel": 7870,
      "advance": 7871,
      "tortured": 7872,
      "##ambling": 7873,
      "merit": 7874,
      "surrounded": 7875,
      "segments": 7876,
      "elderly": 7877,
      "Jake": 7878,
      "Med": 7879,
      "cried": 7880,
      "hire": 7881,
      "ranks": 7882,
      "##inos": 7883,
      "champ": 7884,
      "dear": 7885,
      "##ogan": 7886,
      "##ulliv": 7887,
      "decis": 7888,
      "enters": 7889,
      "reasonably": 7890,
      "corn": 7891,
      "2004": 7892,
      "motor": 7893,
      "##onnie": 7894,
      "discovery": 7895,
      "returned": 7896,
      "sentence": 7897,
      "Craig": 7898,
      "arrive": 7899,
      "walls": 7900,
      "Cinema": 7901,
      "holiday": 7902,
      "Honestly": 7903,
      "Bergman": 7904,
      "Lugosi": 7905,
      "Kirk": 7906,
      "cul": 7907,
      "ow": 7908,
      "##anting": 7909,
      "outcome": 7910,
      "drown": 7911,
      "reluct": 7912,
      "farce": 7913,
      "##attan": 7914,
      "generous": 7915,
      "Manh": 7916,
      "heroic": 7917,
      "captain": 7918,
      "immig": 7919,
      "idiots": 7920,
      "Strange": 7921,
      "insulting": 7922,
      "golden": 7923,
      "escaped": 7924,
      "##--------": 7925,
      "accomplished": 7926,
      "charismatic": 7927,
      "Based": 7928,
      "Civil": 7929,
      "CIA": 7930,
      "daring": 7931,
      "##mit": 7932,
      "##atures": 7933,
      "##edict": 7934,
      "##leton": 7935,
      "extended": 7936,
      "abilities": 7937,
      "##ortion": 7938,
      "Whether": 7939,
      "##plane": 7940,
      "fancy": 7941,
      "titled": 7942,
      "affection": 7943,
      "Amanda": 7944,
      "antics": 7945,
      "Russia": 7946,
      "officers": 7947,
      "represents": 7948,
      "highlights": 7949,
      "Lawrence": 7950,
      "dismiss": 7951,
      "uniform": 7952,
      "subsequent": 7953,
      "Tarantino": 7954,
      "Jeremy": 7955,
      "Bak": 7956,
      "Gal": 7957,
      "Ross": 7958,
      "Woman": 7959,
      "##yll": 7960,
      "##ieu": 7961,
      "whoever": 7962,
      "webs": 7963,
      "##acks": 7964,
      "directorial": 7965,
      "scripted": 7966,
      "wondered": 7967,
      "liking": 7968,
      "distance": 7969,
      "politic": 7970,
      "pleasantly": 7971,
      "flawless": 7972,
      "combat": 7973,
      "causing": 7974,
      "scientific": 7975,
      "Monster": 7976,
      "receive": 7977,
      "Dragon": 7978,
      "fortune": 7979,
      "Devil": 7980,
      "landscape": 7981,
      "Cinderella": 7982,
      "Fel": 7983,
      "Pick": 7984,
      "gif": 7985,
      "pushed": 7986,
      "tall": 7987,
      "wave": 7988,
      "##arm": 7989,
      "beast": 7990,
      "nearby": 7991,
      "smoke": 7992,
      "cared": 7993,
      "audio": 7994,
      "##attered": 7995,
      "##itchen": 7996,
      "Margar": 7997,
      "detract": 7998,
      "distant": 7999,
      "Claire": 8000,
      "sadistic": 8001,
      "picking": 8002,
      "projects": 8003,
      "threatening": 8004,
      "resembles": 8005,
      "aimed": 8006,
      "Vampire": 8007,
      "argument": 8008,
      "Eventually": 8009,
      "Buck": 8010,
      "Brend": 8011,
      "Cour": 8012,
      "Hood": 8013,
      "Made": 8014,
      "mic": 8015,
      "tons": 8016,
      "##ata": 8017,
      "##ilted": 8018,
      "staged": 8019,
      "##rial": 8020,
      "offs": 8021,
      "crisis": 8022,
      "believing": 8023,
      "conserv": 8024,
      "Willis": 8025,
      "suspects": 8026,
      "complaint": 8027,
      "loosely": 8028,
      "Nelson": 8029,
      "Rub": 8030,
      "##bal": 8031,
      "##jointed": 8032,
      "##iner": 8033,
      "##atisf": 8034,
      "stead": 8035,
      "doctors": 8036,
      "blowing": 8037,
      "attached": 8038,
      "##avor": 8039,
      "worthless": 8040,
      "##isms": 8041,
      "Marc": 8042,
      "menacing": 8043,
      "definite": 8044,
      "stronger": 8045,
      "admitted": 8046,
      "swear": 8047,
      "meaningless": 8048,
      "buried": 8049,
      "burned": 8050,
      "Dorothy": 8051,
      "Wallace": 8052,
      "Gothic": 8053,
      "Khan": 8054,
      "OH": 8055,
      "Viv": 8056,
      "bang": 8057,
      "bold": 8058,
      "rive": 8059,
      "##ucing": 8060,
      "##don": 8061,
      "##ih": 8062,
      "##ye": 8063,
      "sup": 8064,
      "maniac": 8065,
      "blast": 8066,
      "Shep": 8067,
      "painting": 8068,
      "drivel": 8069,
      "redemption": 8070,
      "survival": 8071,
      "travels": 8072,
      "celluloid": 8073,
      "juven": 8074,
      "calm": 8075,
      "Catholic": 8076,
      "AW": 8077,
      "Case": 8078,
      "Liz": 8079,
      "afor": 8080,
      "cens": 8081,
      "sam": 8082,
      "sticks": 8083,
      "worried": 8084,
      "unp": 8085,
      "##iginal": 8086,
      "##place": 8087,
      "sport": 8088,
      "spooky": 8089,
      "##prise": 8090,
      "resour": 8091,
      "childish": 8092,
      "careers": 8093,
      "possibility": 8094,
      "listed": 8095,
      "affected": 8096,
      "##AND": 8097,
      "technically": 8098,
      "superbly": 8099,
      "prisoners": 8100,
      "frustrated": 8101,
      "hunting": 8102,
      "bathroom": 8103,
      "Cassave": 8104,
      "exaggerated": 8105,
      "superficial": 8106,
      "Hurt": 8107,
      "Linc": 8108,
      "Oper": 8109,
      "River": 8110,
      "dict": 8111,
      "fired": 8112,
      "gut": 8113,
      "ramp": 8114,
      "##vo": 8115,
      "##of": 8116,
      "##rict": 8117,
      "plague": 8118,
      "##uman": 8119,
      "couples": 8120,
      "imperson": 8121,
      "typically": 8122,
      "Luci": 8123,
      "planning": 8124,
      "concerning": 8125,
      "recorded": 8126,
      "continued": 8127,
      "discussion": 8128,
      "thankfully": 8129,
      "souls": 8130,
      "conceived": 8131,
      "logical": 8132,
      "Care": 8133,
      "DA": 8134,
      "Dal": 8135,
      "FOR": 8136,
      "Field": 8137,
      "Ian": 8138,
      "Sing": 8139,
      "Summer": 8140,
      "gift": 8141,
      "##esth": 8142,
      "##unction": 8143,
      "comfortable": 8144,
      "someones": 8145,
      "goodness": 8146,
      "whereas": 8147,
      "compassion": 8148,
      "glory": 8149,
      "##etti": 8150,
      "covers": 8151,
      "1999": 8152,
      "Nightm": 8153,
      "mansion": 8154,
      "##abbit": 8155,
      "achievement": 8156,
      "gradu": 8157,
      "obscure": 8158,
      "metaphor": 8159,
      "Video": 8160,
      "Bart": 8161,
      "Bach": 8162,
      "Dere": 8163,
      "Fa": 8164,
      "Garb": 8165,
      "SC": 8166,
      "Try": 8167,
      "ego": 8168,
      "punk": 8169,
      "rush": 8170,
      "ward": 8171,
      "##cingly": 8172,
      "##corn": 8173,
      "##hill": 8174,
      "##rich": 8175,
      "##leys": 8176,
      "##mann": 8177,
      "Shir": 8178,
      "##ords": 8179,
      "warri": 8180,
      "tales": 8181,
      "##onym": 8182,
      "brains": 8183,
      "delivering": 8184,
      "Robb": 8185,
      "##heim": 8186,
      "respond": 8187,
      "grandfather": 8188,
      "Seeing": 8189,
      "Silver": 8190,
      "birthday": 8191,
      "involvement": 8192,
      "offended": 8193,
      "pseudo": 8194,
      "ingred": 8195,
      "Given": 8196,
      "Kat": 8197,
      "Op": 8198,
      "cats": 8199,
      "rural": 8200,
      "sen": 8201,
      "venge": 8202,
      "##AIN": 8203,
      "shoes": 8204,
      "agents": 8205,
      "##weight": 8206,
      "##gger": 8207,
      "builds": 8208,
      "sentiment": 8209,
      "##ESS": 8210,
      "draws": 8211,
      "NEVER": 8212,
      "Mun": 8213,
      "fro": 8214,
      "##iper": 8215,
      "##pire": 8216,
      "##idal": 8217,
      "##ameless": 8218,
      "web": 8219,
      "orchest": 8220,
      "noise": 8221,
      "disjointed": 8222,
      "stress": 8223,
      "ridiculously": 8224,
      "ONE": 8225,
      "cameras": 8226,
      "astonishing": 8227,
      "BUT": 8228,
      "Code": 8229,
      "Ep": 8230,
      "Five": 8231,
      "cere": 8232,
      "##ped": 8233,
      "##writers": 8234,
      "##?)": 8235,
      "##itudes": 8236,
      "beats": 8237,
      "ligh": 8238,
      "poison": 8239,
      "blank": 8240,
      "worker": 8241,
      "devoid": 8242,
      "Except": 8243,
      "investigate": 8244,
      "lifetime": 8245,
      "defend": 8246,
      "wannabe": 8247,
      "Ireland": 8248,
      "Cold": 8249,
      "Ira": 8250,
      "Lang": 8251,
      "dre": 8252,
      "##uity": 8253,
      "##aser": 8254,
      "ingen": 8255,
      "bew": 8256,
      "shell": 8257,
      "##emention": 8258,
      "##ols": 8259,
      "offering": 8260,
      "tracks": 8261,
      "persona": 8262,
      "explore": 8263,
      "Force": 8264,
      "Carter": 8265,
      "corpse": 8266,
      "##oubted": 8267,
      "morality": 8268,
      "blend": 8269,
      "traveling": 8270,
      "Murder": 8271,
      "Angela": 8272,
      "Hamlet": 8273,
      "currently": 8274,
      "Girls": 8275,
      "Syd": 8276,
      "Arab": 8277,
      "magazine": 8278,
      "Certainly": 8279,
      "unwatchable": 8280,
      "Bush": 8281,
      "FX": 8282,
      "Pur": 8283,
      "##cil": 8284,
      "height": 8285,
      "notably": 8286,
      "Season": 8287,
      "Beyond": 8288,
      "assault": 8289,
      "Davies": 8290,
      "Godfather": 8291,
      "racial": 8292,
      "terrorist": 8293,
      "Adams": 8294,
      "drunken": 8295,
      "implausible": 8296,
      "##opsis": 8297,
      "ticket": 8298,
      "Absolute": 8299,
      "cigar": 8300,
      "aforemention": 8301,
      "Ca": 8302,
      "PR": 8303,
      "Raj": 8304,
      "WAR": 8305,
      "nerv": 8306,
      "patter": 8307,
      "wing": 8308,
      "##gun": 8309,
      "##bid": 8310,
      "##ira": 8311,
      "doz": 8312,
      "##isten": 8313,
      "pretend": 8314,
      "kidding": 8315,
      "differences": 8316,
      "##ERE": 8317,
      "Union": 8318,
      "sadness": 8319,
      "##useum": 8320,
      "marks": 8321,
      "slightest": 8322,
      "1940s": 8323,
      "improved": 8324,
      "reached": 8325,
      "influenced": 8326,
      "Canada": 8327,
      "conversations": 8328,
      "Carpenter": 8329,
      "installment": 8330,
      "ruthless": 8331,
      "Lincol": 8332,
      "aforementioned": 8333,
      "\"-": 8334,
      "Book": 8335,
      "Boll": 8336,
      "Point": 8337,
      "##now": 8338,
      "##erved": 8339,
      "##ortal": 8340,
      "removed": 8341,
      "##aval": 8342,
      "popcorn": 8343,
      "writerdirector": 8344,
      "Quite": 8345,
      "errors": 8346,
      "label": 8347,
      "overlooked": 8348,
      "##ACK": 8349,
      "stinker": 8350,
      "Recommend": 8351,
      "isolated": 8352,
      "strictly": 8353,
      "Princess": 8354,
      "Griffith": 8355,
      "lyrics": 8356,
      "Bates": 8357,
      "Ruth": 8358,
      "Sound": 8359,
      "Terry": 8360,
      "don": 8361,
      "pir": 8362,
      "##hand": 8363,
      "##kish": 8364,
      "##OST": 8365,
      "stole": 8366,
      "##aines": 8367,
      "##agin": 8368,
      "dire": 8369,
      "measure": 8370,
      "prejud": 8371,
      "grasp": 8372,
      "Branagh": 8373,
      "##ATCH": 8374,
      "movements": 8375,
      "Neil": 8376,
      "models": 8377,
      "Craw": 8378,
      "benefit": 8379,
      "proceedings": 8380,
      "torment": 8381,
      "Throughout": 8382,
      "Buddy": 8383,
      "prostitute": 8384,
      "Swedish": 8385,
      "Alfred": 8386,
      "juvenile": 8387,
      "Fiction": 8388,
      "croc": 8389,
      "gimm": 8390,
      "hunter": 8391,
      "vo": 8392,
      "reh": 8393,
      "notes": 8394,
      "scra": 8395,
      "disease": 8396,
      "##eping": 8397,
      "bridge": 8398,
      "humili": 8399,
      "Spir": 8400,
      "transport": 8401,
      "politically": 8402,
      "Worst": 8403,
      "signs": 8404,
      "trend": 8405,
      "conventional": 8406,
      "require": 8407,
      "primarily": 8408,
      "throat": 8409,
      "LOVE": 8410,
      "sacrifice": 8411,
      "Bottom": 8412,
      "##rehensible": 8413,
      "70": 8414,
      "Mars": 8415,
      "ic": 8416,
      "sarc": 8417,
      "##hr": 8418,
      "##ecess": 8419,
      "##verty": 8420,
      "##uristic": 8421,
      "planned": 8422,
      "enem": 8423,
      "closed": 8424,
      "disli": 8425,
      "Ass": 8426,
      "dialogues": 8427,
      "##astern": 8428,
      "Rex": 8429,
      "Reed": 8430,
      "grab": 8431,
      "unfair": 8432,
      "curse": 8433,
      "devoted": 8434,
      "Worth": 8435,
      "disturbed": 8436,
      "Lucas": 8437,
      "##ixture": 8438,
      "dedicated": 8439,
      "Fortunately": 8440,
      "Gil": 8441,
      "Gand": 8442,
      "Hust": 8443,
      "Hist": 8444,
      "Mann": 8445,
      "Navy": 8446,
      "Pan": 8447,
      "RE": 8448,
      "Sever": 8449,
      "pants": 8450,
      "tie": 8451,
      "vicious": 8452,
      "befriend": 8453,
      "reel": 8454,
      "##ami": 8455,
      "##hero": 8456,
      "noble": 8457,
      "cliff": 8458,
      "poverty": 8459,
      "spare": 8460,
      "root": 8461,
      "##ashes": 8462,
      "Seven": 8463,
      "Blake": 8464,
      "Club": 8465,
      "collabor": 8466,
      "predecess": 8467,
      "Frankenstein": 8468,
      "Tracy": 8469,
      "recognition": 8470,
      "bullet": 8471,
      "occurred": 8472,
      "hatred": 8473,
      "digital": 8474,
      "Titanic": 8475,
      "constructed": 8476,
      "Bruno": 8477,
      "sidekick": 8478,
      "2nd": 8479,
      "ABC": 8480,
      "Cong": 8481,
      "cure": 8482,
      "mal": 8483,
      "mixture": 8484,
      "##ications": 8485,
      "##illian": 8486,
      "upd": 8487,
      "##itect": 8488,
      "##plete": 8489,
      "sail": 8490,
      "##ocks": 8491,
      "harder": 8492,
      "hardcore": 8493,
      "Deep": 8494,
      "##ovich": 8495,
      "intrigue": 8496,
      "fetched": 8497,
      "Jacob": 8498,
      "dignity": 8499,
      "elaborate": 8500,
      "decisions": 8501,
      "Boo": 8502,
      "Burns": 8503,
      "Dawn": 8504,
      "Sen": 8505,
      "mat": 8506,
      "##bling": 8507,
      "##aled": 8508,
      "##ilarly": 8509,
      "doors": 8510,
      "comics": 8511,
      "theyll": 8512,
      "orders": 8513,
      "##umsy": 8514,
      "##obic": 8515,
      "imagined": 8516,
      "Clar": 8517,
      "generic": 8518,
      "Granted": 8519,
      "2003": 8520,
      "psychotic": 8521,
      "opinions": 8522,
      "Murray": 8523,
      "gradually": 8524,
      "earned": 8525,
      "Radio": 8526,
      "inhabit": 8527,
      "Owen": 8528,
      "altogether": 8529,
      "Scarlett": 8530,
      "conspiracy": 8531,
      "Bald": 8532,
      "Candy": 8533,
      "Ext": 8534,
      "Jord": 8535,
      "Make": 8536,
      "Squ": 8537,
      "TR": 8538,
      "Tal": 8539,
      "bin": 8540,
      "cards": 8541,
      "ech": 8542,
      "kitchen": 8543,
      "ought": 8544,
      "##crow": 8545,
      "##tle": 8546,
      "##water": 8547,
      "##eder": 8548,
      "inject": 8549,
      "##alo": 8550,
      "stro": 8551,
      "suited": 8552,
      "everyones": 8553,
      "acclaim": 8554,
      "oddly": 8555,
      "winds": 8556,
      "hypn": 8557,
      "Nicole": 8558,
      "Campbell": 8559,
      "overdone": 8560,
      "Atlant": 8561,
      "unbearable": 8562,
      "Amy": 8563,
      "Bugs": 8564,
      "Dom": 8565,
      "Save": 8566,
      "ax": 8567,
      "sales": 8568,
      "##ipe": 8569,
      "inapp": 8570,
      "Third": 8571,
      "anal": 8572,
      "notorious": 8573,
      "afterwards": 8574,
      "producing": 8575,
      "##ocative": 8576,
      "murderous": 8577,
      "fantas": 8578,
      "commented": 8579,
      "satir": 8580,
      "steam": 8581,
      "staying": 8582,
      "##balls": 8583,
      "explaining": 8584,
      "odds": 8585,
      "climb": 8586,
      "convol": 8587,
      "stereotype": 8588,
      "recognized": 8589,
      "##afia": 8590,
      "philosophy": 8591,
      "sloppy": 8592,
      "mesmer": 8593,
      "Baker": 8594,
      "Ker": 8595,
      "Lake": 8596,
      "Ned": 8597,
      "##US": 8598,
      "##oric": 8599,
      "##oning": 8600,
      "unm": 8601,
      "clothing": 8602,
      "aging": 8603,
      "Short": 8604,
      "rocks": 8605,
      "incest": 8606,
      "relies": 8607,
      "trio": 8608,
      "artific": 8609,
      "Note": 8610,
      "2007": 8611,
      "2002": 8612,
      "motives": 8613,
      "spirited": 8614,
      "exposed": 8615,
      "secrets": 8616,
      "screams": 8617,
      "intrigued": 8618,
      "explosion": 8619,
      "population": 8620,
      "encoura": 8621,
      "coffee": 8622,
      "Massacre": 8623,
      "arrogant": 8624,
      "lifestyle": 8625,
      "Bow": 8626,
      "Din": 8627,
      "Hung": 8628,
      "Lum": 8629,
      "Mans": 8630,
      "cup": 8631,
      "##omers": 8632,
      "ships": 8633,
      "doomed": 8634,
      "slim": 8635,
      "slaughter": 8636,
      "apolog": 8637,
      "Brook": 8638,
      "misses": 8639,
      "Mario": 8640,
      "##ovs": 8641,
      "regul": 8642,
      "reduced": 8643,
      "buildings": 8644,
      "Morris": 8645,
      "silver": 8646,
      "strike": 8647,
      "##works": 8648,
      "Eye": 8649,
      "Hopper": 8650,
      "frag": 8651,
      "wrestling": 8652,
      "##ullivan": 8653,
      "Nightmare": 8654,
      "Mah": 8655,
      "ack": 8656,
      "##onscious": 8657,
      "##ifes": 8658,
      "trained": 8659,
      "absence": 8660,
      "Martha": 8661,
      "sadd": 8662,
      "contained": 8663,
      "satisfied": 8664,
      "temper": 8665,
      "puppet": 8666,
      "captivating": 8667,
      "poetry": 8668,
      "illegal": 8669,
      "##oubtedly": 8670,
      "\"!": 8671,
      "CD": 8672,
      "Fay": 8673,
      "Follow": 8674,
      "Kay": 8675,
      "bone": 8676,
      "sag": 8677,
      "##uge": 8678,
      "##rd": 8679,
      "##rent": 8680,
      "thief": 8681,
      "##entist": 8682,
      "stone": 8683,
      "##verted": 8684,
      "##emark": 8685,
      "trade": 8686,
      "spaces": 8687,
      "underc": 8688,
      "Block": 8689,
      "passes": 8690,
      "darker": 8691,
      "misunder": 8692,
      "Justin": 8693,
      "suspic": 8694,
      "Gods": 8695,
      "existed": 8696,
      "reaches": 8697,
      "subtlety": 8698,
      "burning": 8699,
      "frustrating": 8700,
      "blockbuster": 8701,
      "unintentional": 8702,
      "inventive": 8703,
      "arrested": 8704,
      "simplistic": 8705,
      "parallel": 8706,
      "invisible": 8707,
      "Manhattan": 8708,
      "Domin": 8709,
      "Math": 8710,
      "UN": 8711,
      "lake": 8712,
      "wet": 8713,
      "##iere": 8714,
      "##The": 8715,
      "diff": 8716,
      "adoles": 8717,
      "aggress": 8718,
      "function": 8719,
      "Head": 8720,
      "centered": 8721,
      "snakes": 8722,
      "Julian": 8723,
      "Enjoy": 8724,
      "unbelievably": 8725,
      "fatal": 8726,
      "Magn": 8727,
      "Carrie": 8728,
      "Kids": 8729,
      "Century": 8730,
      "distracting": 8731,
      "enormous": 8732,
      "acknow": 8733,
      ":-": 8734,
      "Bett": 8735,
      "Py": 8736,
      "Song": 8737,
      "Von": 8738,
      "aunt": 8739,
      "dish": 8740,
      "foul": 8741,
      "vib": 8742,
      "##vity": 8743,
      "##fall": 8744,
      "anth": 8745,
      "french": 8746,
      "clumsy": 8747,
      "funeral": 8748,
      "##ianc": 8749,
      "recru": 8750,
      "factory": 8751,
      "composed": 8752,
      "highest": 8753,
      "Myers": 8754,
      "buddies": 8755,
      "##annels": 8756,
      "hopeless": 8757,
      "unfolds": 8758,
      "Keith": 8759,
      "Glover": 8760,
      "trademark": 8761,
      "estate": 8762,
      "Eva": 8763,
      "Castle": 8764,
      "alternative": 8765,
      "solely": 8766,
      "cabin": 8767,
      "Characters": 8768,
      "convoluted": 8769,
      "Kh": 8770,
      "SE": 8771,
      "Unt": 8772,
      "bes": 8773,
      "code": 8774,
      "dust": 8775,
      "gall": 8776,
      "##aman": 8777,
      "chances": 8778,
      "conqu": 8779,
      "spr": 8780,
      "performer": 8781,
      "trap": 8782,
      "classical": 8783,
      "instant": 8784,
      "glor": 8785,
      "Road": 8786,
      "1980": 8787,
      "honesty": 8788,
      "Frankie": 8789,
      "catches": 8790,
      "porno": 8791,
      "depicts": 8792,
      "succeeded": 8793,
      "depressed": 8794,
      "Walken": 8795,
      "##!!!!!!!!": 8796,
      "eighties": 8797,
      "EVERY": 8798,
      "Streep": 8799,
      "divorce": 8800,
      "rubber": 8801,
      "innovative": 8802,
      "presumably": 8803,
      "newspaper": 8804,
      "Bette": 8805,
      "Fonda": 8806,
      "Holl": 8807,
      "Half": 8808,
      "##IP": 8809,
      "##sp": 8810,
      "notion": 8811,
      "##estic": 8812,
      "##ipment": 8813,
      "##aneously": 8814,
      "dramat": 8815,
      "barg": 8816,
      "secretary": 8817,
      "introduces": 8818,
      "unsett": 8819,
      "describes": 8820,
      "choreography": 8821,
      "scheme": 8822,
      "Claude": 8823,
      "Origin": 8824,
      "GREAT": 8825,
      "Gone": 8826,
      "Grey": 8827,
      "Pam": 8828,
      "Syl": 8829,
      "jazz": 8830,
      "nause": 8831,
      "south": 8832,
      "##end": 8833,
      "##ket": 8834,
      "conve": 8835,
      "##ciating": 8836,
      "##plo": 8837,
      "saf": 8838,
      "##izations": 8839,
      "##ressed": 8840,
      "Spike": 8841,
      "util": 8842,
      "gangsters": 8843,
      "writes": 8844,
      "witnessed": 8845,
      "synopsis": 8846,
      "Nobody": 8847,
      "510": 8848,
      "Bol": 8849,
      "Cag": 8850,
      "Hack": 8851,
      "Live": 8852,
      "Randy": 8853,
      "Rita": 8854,
      "houses": 8855,
      "maid": 8856,
      "ocean": 8857,
      "pays": 8858,
      "##uable": 8859,
      "Thunder": 8860,
      "stabb": 8861,
      "##irts": 8862,
      "##ela": 8863,
      "exotic": 8864,
      "alle": 8865,
      "overt": 8866,
      "guitar": 8867,
      "thoughtful": 8868,
      "carn": 8869,
      "shortly": 8870,
      "coherent": 8871,
      "psychopath": 8872,
      "countryside": 8873,
      "##ONG": 8874,
      "photographer": 8875,
      "Supp": 8876,
      "neglect": 8877,
      "terrorists": 8878,
      "Hitchcocks": 8879,
      "duo": 8880,
      "blatant": 8881,
      "chaos": 8882,
      "International": 8883,
      "Spielberg": 8884,
      "Margaret": 8885,
      "enemies": 8886,
      "Cox": 8887,
      "Doll": 8888,
      "Put": 8889,
      "Vis": 8890,
      "tame": 8891,
      "voy": 8892,
      "##eer": 8893,
      "##sen": 8894,
      "stellar": 8895,
      "##terday": 8896,
      "##cker": 8897,
      "##ulate": 8898,
      "##unters": 8899,
      "##ivals": 8900,
      "cheating": 8901,
      "explored": 8902,
      "cannibal": 8903,
      "patients": 8904,
      "damage": 8905,
      "amounts": 8906,
      "bullets": 8907,
      "consistent": 8908,
      "Peters": 8909,
      "specifically": 8910,
      "despair": 8911,
      "Todd": 8912,
      "casual": 8913,
      "robbery": 8914,
      "immensely": 8915,
      "splendid": 8916,
      "montage": 8917,
      "Frost": 8918,
      "dozens": 8919,
      "911": 8920,
      "Cross": 8921,
      "Falk": 8922,
      "Foster": 8923,
      "boun": 8924,
      "##gir": 8925,
      "##aters": 8926,
      "##ora": 8927,
      "##adget": 8928,
      "scores": 8929,
      "endings": 8930,
      "agreed": 8931,
      "##ruciating": 8932,
      "styles": 8933,
      "copies": 8934,
      "painted": 8935,
      "forms": 8936,
      "1995": 8937,
      "regardless": 8938,
      "primary": 8939,
      "Muslim": 8940,
      "wrapped": 8941,
      "shelf": 8942,
      "Beautiful": 8943,
      "Vegas": 8944,
      "Abb": 8945,
      "Crow": 8946,
      "Eth": 8947,
      "Eli": 8948,
      "Hills": 8949,
      "WAS": 8950,
      "gro": 8951,
      "tail": 8952,
      "wine": 8953,
      "##oner": 8954,
      "##reens": 8955,
      "shine": 8956,
      "shadows": 8957,
      "##unior": 8958,
      "##action": 8959,
      "##pert": 8960,
      "craw": 8961,
      "smaller": 8962,
      "equipment": 8963,
      "ruins": 8964,
      "recording": 8965,
      "uneven": 8966,
      "emphasis": 8967,
      "Turner": 8968,
      "Joy": 8969,
      "Que": 8970,
      "ears": 8971,
      "fighter": 8972,
      "mudd": 8973,
      "tires": 8974,
      "##woman": 8975,
      "##entin": 8976,
      "agrees": 8977,
      "Sha": 8978,
      "Forget": 8979,
      "##ahl": 8980,
      "Blade": 8981,
      "rooms": 8982,
      "narrator": 8983,
      "strikes": 8984,
      "##OME": 8985,
      "exploit": 8986,
      "fooled": 8987,
      "Stevens": 8988,
      "consistently": 8989,
      "##ulsive": 8990,
      "miserable": 8991,
      "rebell": 8992,
      "financial": 8993,
      "Curtis": 8994,
      "Miyaz": 8995,
      "hates": 8996,
      "sung": 8997,
      "partly": 8998,
      "Stars": 8999,
      "grotes": 9000,
      "relent": 9001,
      "paran": 9002,
      "##oked": 9003,
      "monolog": 9004,
      "failing": 9005,
      "Carrey": 9006,
      "snake": 9007,
      "##ika": 9008,
      "defeat": 9009,
      "Lin": 9010,
      "Mort": 9011,
      "Rene": 9012,
      "je": 9013,
      "sab": 9014,
      "tank": 9015,
      "##bled": 9016,
      "##?!": 9017,
      "##jo": 9018,
      "bell": 9019,
      "##vell": 9020,
      "##eland": 9021,
      "##olve": 9022,
      "worn": 9023,
      "justify": 9024,
      "diamond": 9025,
      "loads": 9026,
      "resur": 9027,
      "##psons": 9028,
      "##ikes": 9029,
      "convincingly": 9030,
      "teaching": 9031,
      "Profess": 9032,
      "kicked": 9033,
      "passionate": 9034,
      "splatter": 9035,
      "architect": 9036,
      "Streis": 9037,
      "dynamic": 9038,
      "irrele": 9039,
      "exhib": 9040,
      "According": 9041,
      "adequate": 9042,
      "Cusack": 9043,
      "Derek": 9044,
      "Lincoln": 9045,
      "Band": 9046,
      "Bourne": 9047,
      "Hop": 9048,
      "Mas": 9049,
      "MTV": 9050,
      "Pink": 9051,
      "Wid": 9052,
      "gest": 9053,
      "pale": 9054,
      "##iant": 9055,
      "##iour": 9056,
      "##zs": 9057,
      "##zel": 9058,
      "bears": 9059,
      "exter": 9060,
      "nevertheless": 9061,
      "illness": 9062,
      "Patric": 9063,
      "responsibility": 9064,
      "urge": 9065,
      "Duke": 9066,
      "Elli": 9067,
      "purchase": 9068,
      "Brando": 9069,
      "accompanied": 9070,
      "23": 9071,
      "Miles": 9072,
      "Times": 9073,
      "wig": 9074,
      "##gling": 9075,
      "##uf": 9076,
      "##zo": 9077,
      "##otte": 9078,
      "##ieve": 9079,
      "retain": 9080,
      "anx": 9081,
      "unpr": 9082,
      "blur": 9083,
      "Stooges": 9084,
      "Alm": 9085,
      "sounding": 9086,
      "homeless": 9087,
      "excruciating": 9088,
      "considerable": 9089,
      "similarities": 9090,
      "contrary": 9091,
      "settle": 9092,
      "crucial": 9093,
      "liberal": 9094,
      "Natal": 9095,
      "thumbs": 9096,
      "unoriginal": 9097,
      "website": 9098,
      "Cassavetes": 9099,
      "nervous": 9100,
      "Age": 9101,
      "Ko": 9102,
      "aid": 9103,
      "ease": 9104,
      "mouse": 9105,
      "##tte": 9106,
      "##eric": 9107,
      "inane": 9108,
      "plausible": 9109,
      "##atched": 9110,
      "props": 9111,
      "intim": 9112,
      "##igan": 9113,
      "poetic": 9114,
      "State": 9115,
      "enjoys": 9116,
      "instit": 9117,
      "##ucky": 9118,
      "useful": 9119,
      "Meg": 9120,
      "mentioning": 9121,
      "##okey": 9122,
      "advise": 9123,
      "survived": 9124,
      "silence": 9125,
      "laws": 9126,
      "Train": 9127,
      "bands": 9128,
      "bottle": 9129,
      "resemblance": 9130,
      "Better": 9131,
      "beneath": 9132,
      "REAL": 9133,
      "philosophical": 9134,
      "Children": 9135,
      "Florida": 9136,
      "dinosaurs": 9137,
      "Karloff": 9138,
      "transformation": 9139,
      "Aug": 9140,
      "Fish": 9141,
      "Mount": 9142,
      "Tam": 9143,
      "Var": 9144,
      "dys": 9145,
      "Thus": 9146,
      "##ima": 9147,
      "lip": 9148,
      "adul": 9149,
      "amuse": 9150,
      "tea": 9151,
      "awe": 9152,
      "Brons": 9153,
      "excell": 9154,
      "##arred": 9155,
      "classes": 9156,
      "Scr": 9157,
      "Isab": 9158,
      "McK": 9159,
      "prompt": 9160,
      "cliche": 9161,
      "1972": 9162,
      "##ivalent": 9163,
      "Norris": 9164,
      "Simply": 9165,
      "Graham": 9166,
      "STAR": 9167,
      "displayed": 9168,
      "Sheriff": 9169,
      "Valent": 9170,
      "vulgar": 9171,
      "glasses": 9172,
      "Friends": 9173,
      "Recommended": 9174,
      "Cool": 9175,
      "Either": 9176,
      "dating": 9177,
      "jer": 9178,
      "lav": 9179,
      "taught": 9180,
      "##UM": 9181,
      "##itual": 9182,
      "channels": 9183,
      "##odge": 9184,
      "arc": 9185,
      "overrated": 9186,
      "Shame": 9187,
      "##izable": 9188,
      "horrifying": 9189,
      "strang": 9190,
      "subl": 9191,
      "elimin": 9192,
      "absent": 9193,
      "creativity": 9194,
      "developing": 9195,
      "misle": 9196,
      "masterful": 9197,
      "Perry": 9198,
      "potentially": 9199,
      "trees": 9200,
      "Annie": 9201,
      "##........": 9202,
      "Conf": 9203,
      "Madonna": 9204,
      "disappeared": 9205,
      "companion": 9206,
      "Boris": 9207,
      "pretending": 9208,
      "psychiatrist": 9209,
      "(..": 9210,
      "22": 9211,
      "Dutch": 9212,
      "Mind": 9213,
      "hench": 9214,
      "jaw": 9215,
      "sits": 9216,
      "##bury": 9217,
      "tends": 9218,
      "flies": 9219,
      "lackl": 9220,
      "climactic": 9221,
      "##onica": 9222,
      "hideous": 9223,
      "translation": 9224,
      "revolutionary": 9225,
      "Spoilers": 9226,
      "deliberately": 9227,
      "borrowed": 9228,
      "album": 9229,
      "Gore": 9230,
      "TA": 9231,
      "Town": 9232,
      "Wag": 9233,
      "rug": 9234,
      "##can": 9235,
      "##alled": 9236,
      "##unned": 9237,
      "upl": 9238,
      "league": 9239,
      "##elli": 9240,
      "prec": 9241,
      "user": 9242,
      "##quel": 9243,
      "characteristic": 9244,
      "downhill": 9245,
      "cheated": 9246,
      "Americas": 9247,
      "helpless": 9248,
      "monkey": 9249,
      "distingu": 9250,
      "hilariously": 9251,
      "focusing": 9252,
      "blew": 9253,
      "arrived": 9254,
      "drops": 9255,
      "Garfield": 9256,
      "Waters": 9257,
      "subplots": 9258,
      "Francisco": 9259,
      "overwhelming": 9260,
      "citizens": 9261,
      "Cob": 9262,
      "Div": 9263,
      "ME": 9264,
      "Ok": 9265,
      "Sa": 9266,
      "##bidden": 9267,
      "##mons": 9268,
      "##enger": 9269,
      "staring": 9270,
      "##amber": 9271,
      "##ripp": 9272,
      "##pled": 9273,
      "##peror": 9274,
      "Chase": 9275,
      "guests": 9276,
      "surpass": 9277,
      "##ksh": 9278,
      "portion": 9279,
      "reflection": 9280,
      "Edgar": 9281,
      "campa": 9282,
      "brutally": 9283,
      "Snow": 9284,
      "advertising": 9285,
      "Usually": 9286,
      "Furthermore": 9287,
      "Absolutely": 9288,
      "Cart": 9289,
      "Crit": 9290,
      "Gib": 9291,
      "LOT": 9292,
      "Ward": 9293,
      "##creen": 9294,
      "##lines": 9295,
      "##bow": 9296,
      "##bra": 9297,
      "stark": 9298,
      "##pel": 9299,
      "##antom": 9300,
      "##antee": 9301,
      "##agues": 9302,
      "##aux": 9303,
      "divers": 9304,
      "intr": 9305,
      "adorable": 9306,
      "directs": 9307,
      "parties": 9308,
      "resort": 9309,
      "defense": 9310,
      "Hollywoods": 9311,
      "##etta": 9312,
      "Advent": 9313,
      "Quinn": 9314,
      "Angels": 9315,
      "persu": 9316,
      "progresses": 9317,
[...]
