{
  "version": "1.0",
  "truncation": null,
  "padding": null,
  "added_tokens": [
    {
      "id": 0,
      "content": "<unk>",
      "single_word": false,
      "lstrip": false,
      "rstrip": false,
      "normalized": false,
      "special": true
    },
    {
      "id": 1,
      "content": "<pad>",
      "single_word": false,
      "lstrip": false,
      "rstrip": false,
      "normalized": false,
      "special": true
    }
  ],
  "normalizer": null,
  "pre_tokenizer": {
    "type": "Whitespace"
  },
  "post_processor": null,
  "decoder": null,
  "model": {
    "type": "WordPiece",
    "unk_token": "<unk>",
    "continuing_subword_prefix": "##",
    "max_input_chars_per_word": 100,
    "vocab": {
      "<unk>": 0,
      "<pad>": 1,
      "!": 2,
      "\"": 3,
      "(": 4,
      ")": 5,
      ",": 6,
      "-": 7,
      ".": 8,
      "0": 9,
      "1": 10,
      "2": 11,
      "3": 12,
      "4": 13,
      "5": 14,
      "6": 15,
      "7": 16,
      "8": 17,
      "9": 18,
      ":": 19,
      "?": 20,
      "A": 21,
      "B": 22,
      "C": 23,
      "D": 24,
      "E": 25,
      "F": 26,
      "G": 27,
      "H": 28,
      "I": 29,
      "J": 30,
      "K": 31,
      "L": 32,
      "M": 33,
      "N": 34,
      "O": 35,
      "P": 36,
      "Q": 37,
      "R": 38,
      "S": 39,
      "T": 40,
      "U": 41,
      "V": 42,
      "W": 43,
      "X": 44,
      "Y": 45,
      "Z": 46,
      "a": 47,
      "b": 48,
      "c": 49,
      "d": 50,
      "e": 51,
      "f": 52,
      "g": 53,
      "h": 54,
      "i": 55,
      "j": 56,
      "k": 57,
      "l": 58,
      "m": 59,
      "n": 60,
      "o": 61,
      "p": 62,
      "q": 63,
      "r": 64,
      "s": 65,
      "t": 66,
      "u": 67,
      "v": 68,
      "w": 69,
      "x": 70,
      "y": 71,
      "z": 72,
      "А": 73,
      "Б": 74,
      "В": 75,
      "Г": 76,
      "Д": 77,
      "Е": 78,
      "Ж": 79,
      "З": 80,
      "И": 81,
      "К": 82,
      "Л": 83,
      "М": 84,
      "Н": 85,
      "О": 86,
      "П": 87,
      "Р": 88,
      "С": 89,
      "Т": 90,
      "У": 91,
      "Ф": 92,
      "Х": 93,
      "Ц": 94,
      "Ч": 95,
      "Ш": 96,
      "Щ": 97,
      "Ъ": 98,
      "Ы": 99,
      "Ь": 100,
      "Э": 101,
      "Ю": 102,
      "Я": 103,
      "а": 104,
      "б": 105,
      "в": 106,
      "г": 107,
      "д": 108,
      "е": 109,
      "ж": 110,
      "з": 111,
      "и": 112,
      "к": 113,
      "л": 114,
      "м": 115,
      "н": 116,
      "о": 117,
      "п": 118,
      "р": 119,
      "с": 120,
      "т": 121,
      "у": 122,
      "ф": 123,
      "х": 124,
      "ц": 125,
      "ч": 126,
      "ш": 127,
      "щ": 128,
      "ъ": 129,
      "ы": 130,
      "ь": 131,
      "э": 132,
      "ю": 133,
      "я": 134,
      "##в": 135,
      "##т": 136,
      "##о": 137,
      "##м": 138,
      "##а": 139,
      "##и": 140,
      "##ч": 141,
      "##е": 142,
      "##с": 143,
      "##к": 144,
      "##у": 145,
      "##ь": 146,
      "##п": 147,
      "##р": 148,
      "##я": 149,
      "##н": 150,
      "##х": 151,
      "##ы": 152,
      "##,": 153,
      "##ю": 154,
      "##i": 155,
      "##n": 156,
      "##b": 157,
      "##d": 158,
      "##л": 159,
      "##г": 160,
      "##ш": 161,
      "##д": 162,
      "##u": 163,
      "##r": 164,
      "##a": 165,
      "##t": 166,
      "##o": 167,
      "##ж": 168,
      "##y": 169,
      "##з": 170,
      "##ф": 171,
      "##p": 172,
      "##H": 173,
      "##б": 174,
      "##ц": 175,
      "##Л": 176,
      "##К": 177,
      "##О": 178,
      "##Г": 179,
      "##Ь": 180,
      "##Н": 181,
      "##Ы": 182,
      "##Х": 183,
      "##П": 184,
      "##И": 185,
      "##Д": 186,
      "##I": 187,
      "##A": 188,
      "##l": 189,
      "##m": 190,
      "##e": 191,
      "##щ": 192,
      "##Р": 193,
      "##Т": 194,
      "##В": 195,
      "##M": 196,
      "##k": 197,
      "##Е": 198,
      "##А": 199,
      "##М": 200,
      "##s": 201,
      "##)": 202,
      "##Б": 203,
      "##Ъ": 204,
      "##h": 205,
      "##7": 206,
      "##3": 207,
      "##1": 208,
      "##c": 209,
      "##g": 210,
      "##9": 211,
      "##ъ": 212,
      "##0": 213,
      "##4": 214,
      "##8": 215,
      "##У": 216,
      "##?": 217,
      "##!": 218,
      "##.": 219,
      "##P": 220,
      "##R": 221,
      "##\"": 222,
      "##С": 223,
      "##w": 224,
      "##Я": 225,
      "##э": 226,
      "##O": 227,
      "##Ш": 228,
      "##Щ": 229,
      "##5": 230,
      "##T": 231,
      "##Ц": 232,
      "##N": 233,
      "##Ч": 234,
      "##Ю": 235,
      "##G": 236,
      "##Ж": 237,
      "##q": 238,
      "##2": 239,
      "##z": 240,
      "##x": 241,
      "##C": 242,
      "##v": 243,
      "##:": 244,
      "##-": 245,
      "##З": 246,
      "##Э": 247,
      "##Z": 248,
      "##j": 249,
      "##L": 250,
      "##f": 251,
      "##W": 252,
      "##S": 253,
      "##U": 254,
      "##K": 255,
      "##E": 256,
      "##Y": 257,
      "##(": 258,
      "##B": 259,
      "##X": 260,
      "##6": 261,
      "##F": 262,
      "##Ф": 263,
      "##D": 264,
      "##J": 265,
      "##Q": 266,
      "##V": 267,
      "##ет": 268,
      "##то": 269,
      "##ен": 270,
      "##ит": 271,
      "по": 272,
      "##ро": 273,
      "##ра": 274,
      "##ст": 275,
      "##но": 276,
      "на": 277,
      "##ва": 278,
      "##ка": 279,
      "##ер": 280,
      "##ли": 281,
      "##ко": 282,
      "не": 283,
      "##во": 284,
      "##го": 285,
      "##ел": 286,
      "##на": 287,
      "##ся": 288,
      "##ал": 289,
      "##ри": 290,
      "##ни": 291,
      "##ол": 292,
      "##..": 293,
      "##ем": 294,
      "##ть": 295,
      "##да": 296,
      "##ки": 297,
      "за": 298,
      "##ла": 299,
      "...": 300,
      "##од": 301,
      "##ны": 302,
      "##ак": 303,
      "##от": 304,
      "что": 305,
      "ко": 306,
      "##ру": 307,
      "##ре": 308,
      "##ам": 309,
      "##ло": 310,
      "##ин": 311,
      "ра": 312,
      "##не": 313,
      "##ку": 314,
      "вы": 315,
      "##ил": 316,
      "то": 317,
      "от": 318,
      "##сь": 319,
      "##ов": 320,
      "##ма": 321,
      "##ед": 322,
      "про": 323,
      "##уж": 324,
      "##та": 325,
      "##се": 326,
      "при": 327,
      "до": 328,
      "го": 329,
      "мо": 330,
      "##ас": 331,
      "##ить": 332,
      "##ши": 333,
      "##ает": 334,
      "это": 335,
      "##ти": 336,
      "##ид": 337,
      "##чи": 338,
      "##еб": 339,
      "##еи": 340,
      "##вает": 341,
      "бы": 342,
      "##ес": 343,
      "##ют": 344,
      "##ут": 345,
      "##шь": 346,
      "##ос": 347,
      "##ез": 348,
      "##му": 349,
      "##до": 350,
      "сп": 351,
      "##ени": 352,
      "##ну": 353,
      "##ход": 354,
      "##ми": 355,
      "##ля": 356,
      "ка": 357,
      "##уд": 358,
      "##ать": 359,
      "##ите": 360,
      "как": 361,
      "ты": 362,
      "##ры": 363,
      "все": 364,
      "##ль": 365,
      "об": 366,
      "но": 367,
      "##ень": 368,
      "##оль": 369,
      "##ев": 370,
      "##мо": 371,
      "##га": 372,
      "из": 373,
      "##вор": 374,
      "##ста": 375,
      "со": 376,
      "под": 377,
      "во": 378,
      "ни": 379,
      "##ек": 380,
      "##ят": 381,
      "раз": 382,
      "##же": 383,
      "##ныи": 384,
      "##ель": 385,
      "##сть": 386,
      "##его": 387,
      "##кои": 388,
      "##гда": 389,
      "та": 390,
      "жен": 391,
      "##щи": 392,
      "##ис": 393,
      "##ня": 394,
      "муж": 395,
      "##па": 396,
      "##!!": 397,
      "##де": 398,
      "говор": 399,
      "##еня": 400,
      "##ча": 401,
      "##ыи": 402,
      "##уш": 403,
      "##ви": 404,
      "##ве": 405,
      "По": 406,
      "Да": 407,
      "##ди": 408,
      "##ле": 409,
      "пер": 410,
      "ст": 411,
      "##каз": 412,
      "од": 413,
      "##ке": 414,
      "он": 415,
      "##ще": 416,
      "##аль": 417,
      "##бо": 418,
      "##си": 419,
      "меня": 420,
      "##ходит": 421,
      "##по": 422,
      "па": 423,
      "На": 424,
      "##ци": 425,
      "##ги": 426,
      "##нои": 427,
      "ру": 428,
      "да": 429,
      "##ешь": 430,
      "так": 431,
      "##ше": 432,
      "говорит": 433,
      "Ну": 434,
      "теб": 435,
      "ку": 436,
      "##ан": 437,
      "хо": 438,
      "пос": 439,
      "##ме": 440,
      "##сли": 441,
      "зна": 442,
      "##сти": 443,
      "##вер": 444,
      "##ски": 445,
      "##ется": 446,
      "же": 447,
      "##лу": 448,
      "ма": 449,
      "сво": 450,
      "##ик": 451,
      "##бы": 452,
      "мне": 453,
      "##чит": 454,
      "##ду": 455,
      "сто": 456,
      "##ала": 457,
      "##ного": 458,
      "его": 459,
      "буд": 460,
      "##жи": 461,
      "дру": 462,
      "##ом": 463,
      "##ему": 464,
      "лю": 465,
      "##рав": 466,
      "##сто": 467,
      "##вет": 468,
      "##за": 469,
      "##ца": 470,
      "##би": 471,
      "##че": 472,
      "##ком": 473,
      "##гу": 474,
      "##вать": 475,
      "##ная": 476,
      "##лю": 477,
      "!!!": 478,
      "##ря": 479,
      "пре": 480,
      "##об": 481,
      "##раши": 482,
      "##ую": 483,
      "##ела": 484,
      "##ша": 485,
      "##из": 486,
      "ста": 487,
      "##ту": 488,
      "##чка": 489,
      "##мот": 490,
      "##ор": 491,
      "##ои": 492,
      "##он": 493,
      "ли": 494,
      "спраши": 495,
      "##ете": 496,
      "##олько": 497,
      "##ба": 498,
      "##ные": 499,
      "сам": 500,
      "##пи": 501,
      "##те": 502,
      "Не": 503,
      "##ров": 504,
      "За": 505,
      "Вы": 506,
      "ду": 507,
      "##бот": 508,
      "мож": 509,
      "мы": 510,
      ":-": 511,
      "##ар": 512,
      "##рос": 513,
      "##ств": 514,
      "##рет": 515,
      "##ент": 516,
      "нет": 517,
      "еще": 518,
      "##мер": 519,
      "##ник": 520,
      "##ение": 521,
      "##кая": 522,
      "##гра": 523,
      "те": 524,
      "гол": 525,
      "Что": 526,
      "##ное": 527,
      "##лы": 528,
      "##ром": 529,
      "При": 530,
      "она": 531,
      "##нима": 532,
      "##вы": 533,
      "##ья": 534,
      "##пу": 535,
      "##еж": 536,
      "ба": 537,
      "##ять": 538,
      "##том": 539,
      "##рем": 540,
      "только": 541,
      "##ок": 542,
      "боль": 543,
      "##00": 544,
      "пи": 545,
      "##хо": 546,
      "тебя": 547,
      "когда": 548,
      "##чно": 549,
      "спрашивает": 550,
      "?-": 551,
      "Муж": 552,
      "##сс": 553,
      "##шел": 554,
      "##ды": 555,
      "##тор": 556,
      "вид": 557,
      "##вои": 558,
      "##ена": 559,
      "##чему": 560,
      "##енно": 561,
      "##скии": 562,
      "дел": 563,
      "##ения": 564,
      "##иль": 565,
      "##чу": 566,
      "Во": 567,
      "там": 568,
      "кото": 569,
      "##евуш": 570,
      "##кого": 571,
      "вот": 572,
      "ве": 573,
      "##дет": 574,
      "##тер": 575,
      "работ": 576,
      "##ков": 577,
      "ре": 578,
      "--": 579,
      "##елов": 580,
      "##лись": 581,
      "##нов": 582,
      "##ается": 583,
      "##ами": 584,
      "вас": 585,
      "два": 586,
      "##са": 587,
      "##пер": 588,
      "ее": 589,
      "\".": 590,
      "есть": 591,
      "##дел": 592,
      "кон": 593,
      "себ": 594,
      "сказ": 595,
      "уже": 596,
      "##зы": 597,
      "##ало": 598,
      "##лед": 599,
      "##жа": 600,
      "##ег": 601,
      "##вают": 602,
      "##ха": 603,
      "Ко": 604,
      "##ты": 605,
      "ему": 606,
      "##ных": 607,
      "если": 608,
      "день": 609,
      "воз": 610,
      "оп": 611,
      "##уч": 612,
      "тебе": 613,
      "пол": 614,
      "##бу": 615,
      "для": 616,
      "##лся": 617,
      "##кое": 618,
      "ва": 619,
      "Ты": 620,
      "##сп": 621,
      "##став": 622,
      "##ину": 623,
      "Это": 624,
      "##им": 625,
      "челов": 626,
      "Как": 627,
      "чер": 628,
      "нас": 629,
      "мол": 630,
      "кто": 631,
      "##чина": 632,
      "##ран": 633,
      "дол": 634,
      "вод": 635,
      "##аз": 636,
      "ме": 637,
      "##коль": 638,
      "ком": 639,
      "##це": 640,
      "ин": 641,
      "Нет": 642,
      "##рои": 643,
      "ми": 644,
      "Про": 645,
      "##ние": 646,
      "чем": 647,
      "##нь": 648,
      "##вается": 649,
      "Если": 650,
      "##ство": 651,
      "##кры": 652,
      "##итель": 653,
      "##мотр": 654,
      "\"\"": 655,
      "##раз": 656,
      "Од": 657,
      "##ится": 658,
      "##ова": 659,
      ".-": 660,
      "сло": 661,
      "люб": 662,
      "##чь": 663,
      "##жу": 664,
      "##ются": 665,
      "оч": 666,
      "##кии": 667,
      "##ика": 668,
      "##цу": 669,
      "лет": 670,
      "Ка": 671,
      "##зя": 672,
      "они": 673,
      "##еть": 674,
      "##ную": 675,
      "один": 676,
      "##ном": 677,
      "##руг": 678,
      "##ща": 679,
      "чтобы": 680,
      "Он": 681,
      "ту": 682,
      "су": 683,
      "врем": 684,
      "##ился": 685,
      "##ож": 686,
      "##er": 687,
      "##??": 688,
      "##рош": 689,
      "?!": 690,
      "##чает": 691,
      "без": 692,
      "##вая": 693,
      "кра": 694,
      "девуш": 695,
      "##аи": 696,
      "##чес": 697,
      "надо": 698,
      "вс": 699,
      "мужик": 700,
      "ну": 701,
      "##ным": 702,
      "##кие": 703,
      "женщи": 704,
      "де": 705,
      "!\"": 706,
      "##мои": 707,
      "друго": 708,
      "Но": 709,
      "##стре": 710,
      "##тель": 711,
      "пере": 712,
      "пу": 713,
      "##зна": 714,
      "##))": 715,
      "будет": 716,
      "гла": 717,
      "сид": 718,
      "##чего": 719,
      "тут": 720,
      "##чик": 721,
      "##ера": 722,
      "сы": 723,
      "Так": 724,
      "..": 725,
      "##ама": 726,
      "##колько": 727,
      "жена": 728,
      "или": 729,
      "##лет": 730,
      "##тов": 731,
      "был": 732,
      "где": 733,
      "было": 734,
      "##ваи": 735,
      "пред": 736,
      "##кра": 737,
      "##нии": 738,
      "##ву": 739,
      "бу": 740,
      "##фи": 741,
      "##мы": 742,
      "##вочка": 743,
      "##ине": 744,
      "вам": 745,
      "нап": 746,
      "им": 747,
      "##со": 748,
      "##сту": 749,
      "##лась": 750,
      "Па": 751,
      "От": 752,
      "##вал": 753,
      "их": 754,
      "Вот": 755,
      "##иться": 756,
      "##тра": 757,
      "поп": 758,
      "##вно": 759,
      "##казы": 760,
      "?\"": 761,
      "##бра": 762,
      "бо": 763,
      "него": 764,
      "пла": 765,
      "дума": 766,
      "##чера": 767,
      "##вто": 768,
      "##ели": 769,
      "тел": 770,
      "час": 771,
      "может": 772,
      "жи": 773,
      "Из": 774,
      "почему": 775,
      "сов": 776,
      "##ад": 777,
      "полу": 778,
      "##ман": 779,
      "##яв": 780,
      "##ния": 781,
      "##вод": 782,
      "жиз": 783,
      "время": 784,
      "Ва": 785,
      "##ита": 786,
      "##цы": 787,
      "##ска": 788,
      "##бл": 789,
      "##сы": 790,
      "вер": 791,
      "отве": 792,
      "кол": 793,
      "##чку": 794,
      "##ец": 795,
      "##ые": 796,
      "##чет": 797,
      "##дня": 798,
      "можно": 799,
      "си": 800,
      "Под": 801,
      "##час": 802,
      "##чем": 803,
      "три": 804,
      "которы": 805,
      "##щии": 806,
      "дер": 807,
      "До": 808,
      "##ню": 809,
      "сос": 810,
      "домои": 811,
      "Все": 812,
      "##нет": 813,
      "чу": 814,
      "##едь": 815,
      "##егодня": 816,
      "##ции": 817,
      "рус": 818,
      "##вали": 819,
      "дет": 820,
      "##нок": 821,
      "##или": 822,
      "гру": 823,
      "##бои": 824,
      "##вари": 825,
      "свои": 826,
      "##лен": 827,
      "себе": 828,
      "сек": 829,
      "Хо": 830,
      "##ити": 831,
      "мои": 832,
      "стра": 833,
      "пар": 834,
      "ска": 835,
      "##перь": 836,
      "тоже": 837,
      "потом": 838,
      "хот": 839,
      "##ника": 840,
      "человек": 841,
      "нов": 842,
      "##дь": 843,
      "тру": 844,
      "че": 845,
      "ви": 846,
      "##мен": 847,
      "##прос": 848,
      "ответ": 849,
      "##pа": 850,
      "просто": 851,
      "кри": 852,
      "##рошо": 853,
      "Мужик": 854,
      "##шка": 855,
      "##су": 856,
      "##выи": 857,
      "##ело": 858,
      "очень": 859,
      "Ива": 860,
      "после": 861,
      "Ма": 862,
      "##стро": 863,
      "смотр": 864,
      "наш": 865,
      "##ался": 866,
      "доро": 867,
      "каж": 868,
      "чего": 869,
      "##зи": 870,
      "##лось": 871,
      "вто": 872,
      "##есто": 873,
      "Пос": 874,
      "такои": 875,
      "бер": 876,
      "##ться": 877,
      "вз": 878,
      "##in": 879,
      "##учше": 880,
      "Она": 881,
      "##нец": 882,
      "авто": 883,
      "нуж": 884,
      "##ум": 885,
      "##рат": 886,
      "##друг": 887,
      "двер": 888,
      "##род": 889,
      "##жен": 890,
      "расс": 891,
      "##рова": 892,
      "##нул": 893,
      "больше": 894,
      "##чки": 895,
      "##дает": 896,
      "##жал": 897,
      "##еля": 898,
      "сказал": 899,
      "##пе": 900,
      "##гла": 901,
      "##рт": 902,
      "поло": 903,
      "##...": 904,
      "Вас": 905,
      "ло": 906,
      "отвечает": 907,
      "такое": 908,
      "##an": 909,
      "##удь": 910,
      "слу": 911,
      "нач": 912,
      "##еичас": 913,
      "##сте": 914,
      "Почему": 915,
      "##вое": 916,
      "##ция": 917,
      "ди": 918,
      "##тому": 919,
      "мин": 920,
      "Жена": 921,
      "....": 922,
      "себя": 923,
      "##ых": 924,
      "##ница": 925,
      "##ред": 926,
      "##луш": 927,
      "сер": 928,
      "##вя": 929,
      "##бира": 930,
      "\",": 931,
      "му": 932,
      "##ью": 933,
      "Вовочка": 934,
      "ти": 935,
      "##нд": 936,
      "прав": 937,
      "##ян": 938,
      "##осси": 939,
      "через": 940,
      "ничего": 941,
      "Один": 942,
      "##шии": 943,
      "##лин": 944,
      "голов": 945,
      "!-": 946,
      "##хи": 947,
      "Чер": 948,
      "##мет": 949,
      "тем": 950,
      "тот": 951,
      "##ствен": 952,
      "еи": 953,
      "пp": 954,
      "Пер": 955,
      "быть": 956,
      "две": 957,
      "##олод": 958,
      "##дом": 959,
      "##уи": 960,
      "сегодня": 961,
      "мал": 962,
      "##вид": 963,
      "женщина": 964,
      "ры": 965,
      "кла": 966,
      "рас": 967,
      "род": 968,
      "##рен": 969,
      "начина": 970,
      "##ех": 971,
      "##али": 972,
      "откры": 973,
      "То": 974,
      "##нее": 975,
      "оста": 976,
      "зап": 977,
      "мед": 978,
      "ско": 979,
      "след": 980,
      "##ar": 981,
      "какои": 982,
      "вып": 983,
      "стоит": 984,
      "вчера": 985,
      "поз": 986,
      "##ении": 987,
      "дела": 988,
      "ос": 989,
      "##шу": 990,
      "са": 991,
      "##жно": 992,
      "вол": 993,
      "сдел": 994,
      "##еф": 995,
      "челове": 996,
      "ут": 997,
      "##грам": 998,
      "перед": 999,
      "##ращ": 1000,
      "них": 1001,
      "##ваю": 1002,
      "##or": 1003,
      "Об": 1004,
      "##ками": 1005,
      "пло": 1006,
      "##сты": 1007,
      "##вин": 1008,
      "опять": 1009,
      "##стра": 1010,
      "##неи": 1011,
      "вопрос": 1012,
      "пра": 1013,
      "##вори": 1014,
      "Раз": 1015,
      "теперь": 1016,
      "##будь": 1017,
      "##шла": 1018,
      "Когда": 1019,
      "бол": 1020,
      "знаю": 1021,
      "##xx": 1022,
      "ки": 1023,
      "##гля": 1024,
      "помо": 1025,
      "значит": 1026,
      "???": 1027,
      "##ии": 1028,
      ".\"": 1029,
      "##рм": 1030,
      "приходит": 1031,
      "Бо": 1032,
      "ок": 1033,
      "ро": 1034,
      "куп": 1035,
      "##тив": 1036,
      "лучше": 1037,
      "Ни": 1038,
      "##шли": 1039,
      "##гои": 1040,
      "10": 1041,
      "##ства": 1042,
      "дома": 1043,
      "##оло": 1044,
      "тра": 1045,
      "год": 1046,
      "нам": 1047,
      "сеичас": 1048,
      "##вед": 1049,
      "##кто": 1050,
      "##лиц": 1051,
      "##ге": 1052,
      "##ству": 1053,
      "##ишь": 1054,
      "нибудь": 1055,
      "кар": 1056,
      "того": 1057,
      "молод": 1058,
      "зад": 1059,
      "минут": 1060,
      "##клю": 1061,
      "##сов": 1062,
      "##вар": 1063,
      "##чен": 1064,
      "Мы": 1065,
      "##ление": 1066,
      "##вого": 1067,
      "всех": 1068,
      "Сид": 1069,
      "фи": 1070,
      "даже": 1071,
      "ум": 1072,
      "##on": 1073,
      "женщ": 1074,
      "##нечно": 1075,
      "нее": 1076,
      "пока": 1077,
      "была": 1078,
      "гра": 1079,
      "ночь": 1080,
      "вра": 1081,
      "##десь": 1082,
      "маш": 1083,
      "##en": 1084,
      "объ": 1085,
      "вос": 1086,
      "зво": 1087,
      "пе": 1088,
      "Росси": 1089,
      "##нова": 1090,
      "Мо": 1091,
      "нес": 1092,
      "над": 1093,
      "##вич": 1094,
      "##гли": 1095,
      "хорошо": 1096,
      "ча": 1097,
      "ход": 1098,
      "могу": 1099,
      "##ких": 1100,
      "всегда": 1101,
      "ис": 1102,
      "##кон": 1103,
      "##вре": 1104,
      "идет": 1105,
      "комп": 1106,
      "):": 1107,
      "##ках": 1108,
      "русскии": 1109,
      "##зин": 1110,
      "делать": 1111,
      "кру": 1112,
      "эти": 1113,
      "Через": 1114,
      "нем": 1115,
      "подходит": 1116,
      "##дут": 1117,
      "Приходит": 1118,
      "##скои": 1119,
      "одна": 1120,
      "послед": 1121,
      "тво": 1122,
      "##читель": 1123,
      "прос": 1124,
      "Кто": 1125,
      "##юсь": 1126,
      "##нуть": 1127,
      "##аться": 1128,
      "малень": 1129,
      "тре": 1130,
      "ост": 1131,
      "Ку": 1132,
      "ша": 1133,
      "много": 1134,
      "свет": 1135,
      "бес": 1136,
      "ус": 1137,
      "##яс": 1138,
      "##лек": 1139,
      "Док": 1140,
      "##тир": 1141,
      "пья": 1142,
      "неи": 1143,
      "буду": 1144,
      "ле": 1145,
      "##пы": 1146,
      "##ступ": 1147,
      "Го": 1148,
      "##еты": 1149,
      "Та": 1150,
      "трет": 1151,
      "...\"": 1152,
      "кур": 1153,
      "##рел": 1154,
      "##ушка": 1155,
      "которыи": 1156,
      "маль": 1157,
      "##пор": 1158,
      "подо": 1159,
      "пом": 1160,
      "##лом": 1161,
      "сем": 1162,
      "##она": 1163,
      "реш": 1164,
      "сколько": 1165,
      "деньги": 1166,
      "##тя": 1167,
      "##нял": 1168,
      "Девуш": 1169,
      "##нит": 1170,
      "##разу": 1171,
      "##жите": 1172,
      "##стает": 1173,
      "##еди": 1174,
      "уж": 1175,
      "##дал": 1176,
      "само": 1177,
      "интер": 1178,
      "этот": 1179,
      "баб": 1180,
      "этого": 1181,
      "##ее": 1182,
      "Ба": 1183,
      "##--": 1184,
      "кро": 1185,
      "ваш": 1186,
      "тогда": 1187,
      "##ху": 1188,
      "хоч": 1189,
      "сидит": 1190,
      "девушка": 1191,
      "##лыш": 1192,
      "зав": 1193,
      "##итесь": 1194,
      "жизни": 1195,
      "Жен": 1196,
      "уб": 1197,
      "дверь": 1198,
      "##ктор": 1199,
      "##тои": 1200,
      "##рая": 1201,
      "эк": 1202,
      "другои": 1203,
      "##ьют": 1204,
      "##рок": 1205,
      "##гая": 1206,
      "##иса": 1207,
      "##рое": 1208,
      "##ского": 1209,
      "голос": 1210,
      "##ким": 1211,
      "видит": 1212,
      "ск": 1213,
      "Доктор": 1214,
      "дву": 1215,
      "Ст": 1216,
      "Пет": 1217,
      "жизнь": 1218,
      "любов": 1219,
      "здесь": 1220,
      "мет": 1221,
      "ули": 1222,
      "##ым": 1223,
      "##стви": 1224,
      "##ант": 1225,
      "##зу": 1226,
      "##дать": 1227,
      "исп": 1228,
      "##хот": 1229,
      "##ставля": 1230,
      "гор": 1231,
      "##дер": 1232,
      "##жалуи": 1233,
      "бра": 1234,
      "игра": 1235,
      "Ми": 1236,
      "##дар": 1237,
      "всего": 1238,
      "##говари": 1239,
      "студ": 1240,
      "##дно": 1241,
      "##нес": 1242,
      "##пла": 1243,
      "ан": 1244,
      "##ыл": 1245,
      "##аа": 1246,
      "смотрит": 1247,
      "хочу": 1248,
      "Девушка": 1249,
      "Штир": 1250,
      "понима": 1251,
      "##ним": 1252,
      "##ально": 1253,
      "крас": 1254,
      "##жает": 1255,
      "соб": 1256,
      "ря": 1257,
      "##чер": 1258,
      "##ваться": 1259,
      "леж": 1260,
      "##pо": 1261,
      "уп": 1262,
      "лес": 1263,
      "ла": 1264,
      "##алось": 1265,
      "Зна": 1266,
      "Ра": 1267,
      "##дела": 1268,
      "Тут": 1269,
      "##когда": 1270,
      "##ильно": 1271,
      "##стреча": 1272,
      "своеи": 1273,
      "xxx": 1274,
      "кого": 1275,
      "ним": 1276,
      "больш": 1277,
      "се": 1278,
      "##ходят": 1279,
      "##воль": 1280,
      "свою": 1281,
      "бл": 1282,
      "мужчина": 1283,
      "дело": 1284,
      "следую": 1285,
      "##ники": 1286,
      "взя": 1287,
      "Ста": 1288,
      "##ращается": 1289,
      "сосед": 1290,
      "##жалуиста": 1291,
      "весь": 1292,
      "##бли": 1293,
      "мага": 1294,
      "##цию": 1295,
      "##ские": 1296,
      "мама": 1297,
      "##шая": 1298,
      "гу": 1299,
      "##пол": 1300,
      "##рко": 1301,
      "мог": 1302,
      "##ета": 1303,
      "сол": 1304,
      "##as": 1305,
      "##казывает": 1306,
      "Папа": 1307,
      "Лю": 1308,
      "моя": 1309,
      "этом": 1310,
      "дура": 1311,
      "програм": 1312,
      "твои": 1313,
      "##бе": 1314,
      "пор": 1315,
      "зачем": 1316,
      "евре": 1317,
      "##ила": 1318,
      "##кую": 1319,
      "Идет": 1320,
      "##нос": 1321,
      "бут": 1322,
      "##ежду": 1323,
      ":\"": 1324,
      "##мерика": 1325,
      "бан": 1326,
      "##ики": 1327,
      "соба": 1328,
      "реб": 1329,
      "коро": 1330,
      "пост": 1331,
      "Мама": 1332,
      "##стер": 1333,
      "телеф": 1334,
      ":)": 1335,
      "##at": 1336,
      "Те": 1337,
      "даваи": 1338,
      "##ными": 1339,
      "ведь": 1340,
      "даль": 1341,
      "нос": 1342,
      "увид": 1343,
      "##сем": 1344,
      "##под": 1345,
      "случа": 1346,
      "##чин": 1347,
      "Вдруг": 1348,
      "##ность": 1349,
      "дев": 1350,
      "куда": 1351,
      "шо": 1352,
      "хва": 1353,
      "##нят": 1354,
      "##ента": 1355,
      "Ру": 1356,
      "Мне": 1357,
      "женщины": 1358,
      "##нулся": 1359,
      "##рез": 1360,
      "##егает": 1361,
      "!!": 1362,
      "сразу": 1363,
      "Одна": 1364,
      "##кан": 1365,
      "нужно": 1366,
      "краси": 1367,
      "меся": 1368,
      "Доро": 1369,
      "глу": 1370,
      "##воз": 1371,
      "сторо": 1372,
      "##дя": 1373,
      "прода": 1374,
      "ап": 1375,
      "##фес": 1376,
      "знаешь": 1377,
      "##ума": 1378,
      "##нав": 1379,
      "##ема": 1380,
      "получ": 1381,
      "##лад": 1382,
      "##дыи": 1383,
      "руки": 1384,
      "маши": 1385,
      "такая": 1386,
      "люди": 1387,
      "ше": 1388,
      "работу": 1389,
      "Петь": 1390,
      "##мотри": 1391,
      "##вые": 1392,
      "ден": 1393,
      "пять": 1394,
      "глаза": 1395,
      "##росил": 1396,
      "новыи": 1397,
      "##ина": 1398,
      "Мож": 1399,
      "Сп": 1400,
      "##вез": 1401,
      "20": 1402,
      "##ских": 1403,
      "##ур": 1404,
      "##ота": 1405,
      "говори": 1406,
      "Штирлиц": 1407,
      "голову": 1408,
      "##вом": 1409,
      "през": 1410,
      "вдруг": 1411,
      "##ская": 1412,
      "кричит": 1413,
      "##....": 1414,
      "##рыи": 1415,
      "##еш": 1416,
      "эта": 1417,
      "##ности": 1418,
      "сл": 1419,
      "мам": 1420,
      "шко": 1421,
      "Только": 1422,
      "между": 1423,
      "ор": 1424,
      "##ятся": 1425,
      "ак": 1426,
      "##чат": 1427,
      "одно": 1428,
      "##нем": 1429,
      "ад": 1430,
      "##нут": 1431,
      "яи": 1432,
      "папа": 1433,
      "хоро": 1434,
      "пря": 1435,
      "##al": 1436,
      "##обще": 1437,
      "100": 1438,
      "начинает": 1439,
      "##мент": 1440,
      "долго": 1441,
      "15": 1442,
      "##цо": 1443,
      "##овыи": 1444,
      "поб": 1445,
      "##кому": 1446,
      "том": 1447,
      "произ": 1448,
      "##нять": 1449,
      "##ат": 1450,
      "##говор": 1451,
      "пы": 1452,
      "##ваите": 1453,
      "##вши": 1454,
      "вся": 1455,
      "##деи": 1456,
      "тор": 1457,
      "Ска": 1458,
      "##сят": 1459,
      "Ин": 1460,
      "комна": 1461,
      "слова": 1462,
      "##рь": 1463,
      "##кус": 1464,
      "были": 1465,
      "##рю": 1466,
      "##ток": 1467,
      "##сор": 1468,
      "второи": 1469,
      "Тогда": 1470,
      "рез": 1471,
      "назы": 1472,
      "##лич": 1473,
      "нему": 1474,
      "друг": 1475,
      "##pи": 1476,
      "##200": 1477,
      "однои": 1478,
      "всю": 1479,
      "##стит": 1480,
      "После": 1481,
      "пожалуиста": 1482,
      "##бил": 1483,
      "Женщи": 1484,
      "одного": 1485,
      "##пись": 1486,
      "##бор": 1487,
      "##пом": 1488,
      "человека": 1489,
      "##низ": 1490,
      "##лушаи": 1491,
      "##роси": 1492,
      "дед": 1493,
      "тя": 1494,
      "сме": 1495,
      "##куда": 1496,
      "глаз": 1497,
      "##щего": 1498,
      "##рии": 1499,
      "поид": 1500,
      "##енныи": 1501,
      "свя": 1502,
      "##el": 1503,
      "##стречаются": 1504,
      "дальше": 1505,
      "мер": 1506,
      "##жды": 1507,
      "коман": 1508,
      "тех": 1509,
      "ар": 1510,
      "Со": 1511,
      "##див": 1512,
      "возв": 1513,
      "##три": 1514,
      "никогда": 1515,
      "##драв": 1516,
      "##фе": 1517,
      "поку": 1518,
      "бло": 1519,
      "##жда": 1520,
      "фо": 1521,
      "Вам": 1522,
      "узна": 1523,
      "##явление": 1524,
      "пес": 1525,
      "##алась": 1526,
      "##нович": 1527,
      "##шку": 1528,
      "##чке": 1529,
      "##шки": 1530,
      "##кото": 1531,
      "Сто": 1532,
      "##ети": 1533,
      "Два": 1534,
      "цвет": 1535,
      "##ением": 1536,
      "какая": 1537,
      "##при": 1538,
      "##ван": 1539,
      "##конец": 1540,
      "двух": 1541,
      "денег": 1542,
      "такие": 1543,
      "##ено": 1544,
      "подум": 1545,
      "другому": 1546,
      "потому": 1547,
      "##ников": 1548,
      "##рачи": 1549,
      "газ": 1550,
      "лег": 1551,
      "хи": 1552,
      "занима": 1553,
      "мор": 1554,
      "га": 1555,
      "##тро": 1556,
      "выходит": 1557,
      "вообще": 1558,
      "##!!!!": 1559,
      "##ницу": 1560,
      "здо": 1561,
      "пробл": 1562,
      "русс": 1563,
      "уч": 1564,
      "очер": 1565,
      "квар": 1566,
      "##рого": 1567,
      "Петька": 1568,
      "Сы": 1569,
      "пришел": 1570,
      "##ехал": 1571,
      "России": 1572,
      "##бку": 1573,
      "каб": 1574,
      "съ": 1575,
      "первыи": 1576,
      "##тельно": 1577,
      "##ук": 1578,
      "зу": 1579,
      "зам": 1580,
      "прият": 1581,
      "всем": 1582,
      "Са": 1583,
      "##чилось": 1584,
      "люби": 1585,
      "##зам": 1586,
      "##бер": 1587,
      "##але": 1588,
      "##стно": 1589,
      "Чем": 1590,
      "обо": 1591,
      "своего": 1592,
      "##ственно": 1593,
      "##прав": 1594,
      "хоть": 1595,
      "Васили": 1596,
      "жене": 1597,
      "тер": 1598,
      "##чек": 1599,
      "ноги": 1600,
      "интерес": 1601,
      "Hу": 1602,
      "снова": 1603,
      "секс": 1604,
      "други": 1605,
      "пис": 1606,
      "Пол": 1607,
      "холод": 1608,
      "##адно": 1609,
      "##шло": 1610,
      "##ье": 1611,
      "говорят": 1612,
      "сказать": 1613,
      "##is": 1614,
      "##щик": 1615,
      "##гает": 1616,
      "##ительно": 1617,
      "##лов": 1618,
      "улице": 1619,
      "##re": 1620,
      "равно": 1621,
      "##жешь": 1622,
      "ника": 1623,
      "кварти": 1624,
      "вст": 1625,
      "смо": 1626,
      "страш": 1627,
      "Мос": 1628,
      "завтра": 1629,
      "##бегает": 1630,
      "##рес": 1631,
      "##лож": 1632,
      "##навли": 1633,
      "думает": 1634,
      "##le": 1635,
      "наз": 1636,
      "делает": 1637,
      "попа": 1638,
      "язы": 1639,
      "паль": 1640,
      "##щу": 1641,
      "име": 1642,
      "##рик": 1643,
      "пиш": 1644,
      "скоро": 1645,
      "плохо": 1646,
      "200": 1647,
      "мя": 1648,
      "##чины": 1649,
      "##ляется": 1650,
      "##нить": 1651,
      "##дол": 1652,
      "##част": 1653,
      "мальчик": 1654,
      "тол": 1655,
      "##цион": 1656,
      "##крас": 1657,
      ").": 1658,
      "пода": 1659,
      "##реть": 1660,
      "дня": 1661,
      "бутыл": 1662,
      "мил": 1663,
      "офи": 1664,
      "##ены": 1665,
      "##ндин": 1666,
      "года": 1667,
      "##жет": 1668,
      "##стя": 1669,
      "Тот": 1670,
      "##щая": 1671,
      "Объ": 1672,
      "##ленно": 1673,
      "конечно": 1674,
      "туда": 1675,
      "навер": 1676,
      "насто": 1677,
      "туал": 1678,
      "сдела": 1679,
      "таки": 1680,
      "чит": 1681,
      "##ич": 1682,
      "Вто": 1683,
      "компьют": 1684,
      "слыш": 1685,
      "вес": 1686,
      "Ои": 1687,
      "##чала": 1688,
      "##про": 1689,
      "мужика": 1690,
      "жену": 1691,
      "жела": 1692,
      "кни": 1693,
      "сын": 1694,
      "бел": 1695,
      "знает": 1696,
      "пас": 1697,
      "забы": 1698,
      "бал": 1699,
      "некото": 1700,
      "##нимает": 1701,
      "##it": 1702,
      "##цев": 1703,
      "Молод": 1704,
      "##лем": 1705,
      "сделать": 1706,
      "##еду": 1707,
      "12": 1708,
      "Пу": 1709,
      "дерев": 1710,
      "##зо": 1711,
      "##ету": 1712,
      "удив": 1713,
      "машину": 1714,
      "место": 1715,
      "совсем": 1716,
      "##нил": 1717,
      "##ходи": 1718,
      "хозя": 1719,
      "водки": 1720,
      "##енька": 1721,
      "Ан": 1722,
      "кры": 1723,
      "##ic": 1724,
      "##ТО": 1725,
      "##мерикан": 1726,
      "##ro": 1727,
      "##ляет": 1728,
      "решил": 1729,
      "недел": 1730,
      "отец": 1731,
      "спрашивают": 1732,
      "##тел": 1733,
      "##вили": 1734,
      "бук": 1735,
      "кам": 1736,
      "подумал": 1737,
      "знаете": 1738,
      "чув": 1739,
      "рядом": 1740,
      "самол": 1741,
      "Мои": 1742,
      "##пит": 1743,
      "Встречаются": 1744,
      "##il": 1745,
      "##рил": 1746,
      "жал": 1747,
      "##леи": 1748,
      "Новыи": 1749,
      "стол": 1750,
      "##чныи": 1751,
      "##лько": 1752,
      "зем": 1753,
      "цел": 1754,
      "##мал": 1755,
      "##ik": 1756,
      "##рую": 1757,
      "усп": 1758,
      "##нин": 1759,
      "Гос": 1760,
      "уда": 1761,
      "##дам": 1762,
      "каждыи": 1763,
      "ды": 1764,
      "##щеи": 1765,
      "недо": 1766,
      "!..": 1767,
      "ал": 1768,
      "Женщина": 1769,
      "##шеи": 1770,
      "##чером": 1771,
      "Сам": 1772,
      "обы": 1773,
      "пят": 1774,
      "пошел": 1775,
      "##чительница": 1776,
      "##роде": 1777,
      "##ряд": 1778,
      "друга": 1779,
      "счит": 1780,
      "##ерва": 1781,
      "Hа": 1782,
      "ог": 1783,
      "похо": 1784,
      "##us": 1785,
      "заходит": 1786,
      "будешь": 1787,
      "##ском": 1788,
      "живо": 1789,
      "##дц": 1790,
      ",-": 1791,
      "должен": 1792,
      "которые": 1793,
      "##шие": 1794,
      "сооб": 1795,
      "хочешь": 1796,
      "##коло": 1797,
      "тобои": 1798,
      "член": 1799,
      "Моск": 1800,
      "##екла": 1801,
      "##щие": 1802,
      "иг": 1803,
      "чи": 1804,
      "##рит": 1805,
      "слово": 1806,
      "Хорошо": 1807,
      "Сколько": 1808,
      "Где": 1809,
      "встре": 1810,
      "##вала": 1811,
      "какие": 1812,
      "##ура": 1813,
      "##ключ": 1814,
      "##аси": 1815,
      "##))))": 1816,
      "собира": 1817,
      "одну": 1818,
      "умер": 1819,
      "женои": 1820,
      "##вым": 1821,
      "работа": 1822,
      "19": 1823,
      "##ьет": 1824,
      "дом": 1825,
      "##бол": 1826,
      "моеи": 1827,
      "иди": 1828,
      "несколько": 1829,
      "Вчера": 1830,
      "Подходит": 1831,
      "женщин": 1832,
      "##щих": 1833,
      "##ене": 1834,
      "##мотреть": 1835,
      "##езжает": 1836,
      "Есть": 1837,
      "##зад": 1838,
      "##рать": 1839,
      "##лер": 1840,
      "доб": 1841,
      "##2007": 1842,
      "Сер": 1843,
      "пара": 1844,
      "##мина": 1845,
      "##тоя": 1846,
      "##рож": 1847,
      "мили": 1848,
      "Пред": 1849,
      "спи": 1850,
      "##блю": 1851,
      "мужа": 1852,
      "Ал": 1853,
      "никто": 1854,
      "руку": 1855,
      "##енера": 1856,
      "мужу": 1857,
      "Слушаи": 1858,
      "##щем": 1859,
      "товари": 1860,
      "подру": 1861,
      "##ск": 1862,
      "следующии": 1863,
      "##дат": 1864,
      "Зво": 1865,
      "уме": 1866,
      "##шили": 1867,
      "##нице": 1868,
      "ребен": 1869,
      "кли": 1870,
      "появ": 1871,
      "##ших": 1872,
      "спать": 1873,
      "дети": 1874,
      "ради": 1875,
      "##вых": 1876,
      "Василии": 1877,
      "кор": 1878,
      "##ваются": 1879,
      "ши": 1880,
      "##фо": 1881,
      "чтоб": 1882,
      "тан": 1883,
      "##дцать": 1884,
      "жить": 1885,
      "моло": 1886,
      "пово": 1887,
      "оде": 1888,
      "Де": 1889,
      "работы": 1890,
      "##еха": 1891,
      "мат": 1892,
      "детеи": 1893,
      "объяс": 1894,
      "##пуска": 1895,
      "ха": 1896,
      "##жев": 1897,
      "##еры": 1898,
      "сынок": 1899,
      "##ител": 1900,
      "жел": 1901,
      "поч": 1902,
      "мимо": 1903,
      "назад": 1904,
      "быстро": 1905,
      "пить": 1906,
      "нарко": 1907,
      "##езд": 1908,
      "напис": 1909,
      "стал": 1910,
      "##pу": 1911,
      "собои": 1912,
      "другу": 1913,
      "работает": 1914,
      "рож": 1915,
      "##оо": 1916,
      "началь": 1917,
      "жо": 1918,
      "Вид": 1919,
      "##дои": 1920,
      "\"?": 1921,
      "##es": 1922,
      "...-": 1923,
      "Объявление": 1924,
      "хочет": 1925,
      "##ята": 1926,
      "##юда": 1927,
      "вед": 1928,
      "зал": 1929,
      "оши": 1930,
      "обрат": 1931,
      "утром": 1932,
      "##глас": 1933,
      "собра": 1934,
      "Они": 1935,
      "норм": 1936,
      "орга": 1937,
      "выход": 1938,
      "автобу": 1939,
      "##етыре": 1940,
      "бор": 1941,
      "##ению": 1942,
      "##am": 1943,
      "часа": 1944,
      "пож": 1945,
      "кух": 1946,
      "кот": 1947,
      "##рот": 1948,
      "##раж": 1949,
      "матер": 1950,
      "##хожу": 1951,
      "дам": 1952,
      "долла": 1953,
      "##ления": 1954,
      "чет": 1955,
      "студент": 1956,
      "##шим": 1957,
      "##бка": 1958,
      "##et": 1959,
      "##льзя": 1960,
      "глав": 1961,
      "понял": 1962,
      "##начала": 1963,
      "этои": 1964,
      "Мар": 1965,
      "потер": 1966,
      "##ешься": 1967,
      "нельзя": 1968,
      "жены": 1969,
      "думаю": 1970,
      "деи": 1971,
      "шта": 1972,
      "##пис": 1973,
      "сту": 1974,
      "мар": 1975,
      "Чтобы": 1976,
      "видел": 1977,
      "ед": 1978,
      "##ol": 1979,
      "##тает": 1980,
      "спо": 1981,
      "##стью": 1982,
      "друз": 1983,
      "Воз": 1984,
      "##тыи": 1985,
      "мать": 1986,
      "##ЕН": 1987,
      "бли": 1988,
      "##ad": 1989,
      "укра": 1990,
      "##пода": 1991,
      "точно": 1992,
      "##стал": 1993,
      "уд": 1994,
      "провер": 1995,
      "раза": 1996,
      "##кла": 1997,
      "##дох": 1998,
      "\"...": 1999,
      "долж": 2000,
      "Конечно": 2001,
      "постав": 2002,
      "##него": 2003,
      "парень": 2004,
      "дис": 2005,
      "лежит": 2006,
      "случаи": 2007,
      "тро": 2008,
      "##кур": 2009,
      "Пре": 2010,
      "стро": 2011,
      "закры": 2012,
      "возь": 2013,
      "Оп": 2014,
      "пов": 2015,
      "Дж": 2016,
      "НЕ": 2017,
      "Теперь": 2018,
      "бла": 2019,
      "##ow": 2020,
      "рубл": 2021,
      "взял": 2022,
      "блондин": 2023,
      "здоров": 2024,
      "##дель": 2025,
      "приду": 2026,
      "##роз": 2027,
      "##стве": 2028,
      "##ители": 2029,
      "Даваи": 2030,
      "зов": 2031,
      "##рас": 2032,
      "##нику": 2033,
      "прис": 2034,
      "Бы": 2035,
      "##рода": 2036,
      "будут": 2037,
      "исто": 2038,
      "##лез": 2039,
      "пиво": 2040,
      "класс": 2041,
      "##гал": 2042,
      "##щен": 2043,
      "##сажи": 2044,
      "##бов": 2045,
      "расп": 2046,
      "##эр": 2047,
      "доктор": 2048,
      "##фессор": 2049,
      "##лик": 2050,
      "##воp": 2051,
      "выс": 2052,
      "##няет": 2053,
      "мнои": 2054,
      "##ял": 2055,
      "##РА": 2056,
      "50": 2057,
      "##еп": 2058,
      "секрет": 2059,
      "##пили": 2060,
      "30": 2061,
      "разговари": 2062,
      "##ницы": 2063,
      "ново": 2064,
      "вок": 2065,
      "купил": 2066,
      "Ди": 2067,
      "Заходит": 2068,
      "сказала": 2069,
      "##om": 2070,
      "##рави": 2071,
      "Мужчина": 2072,
      "##еp": 2073,
      "удо": 2074,
      "##ному": 2075,
      "деся": 2076,
      "Маль": 2077,
      "ночью": 2078,
      "третии": 2079,
      "рот": 2080,
      "суд": 2081,
      "Иван": 2082,
      "сделал": 2083,
      "Ржев": 2084,
      "##ручик": 2085,
      "американ": 2086,
      "мас": 2087,
      "уго": 2088,
      "##нали": 2089,
      "##дан": 2090,
      "##енькии": 2091,
      "кре": 2092,
      "посмотр": 2093,
      "##дывает": 2094,
      "просит": 2095,
      "Студ": 2096,
      "##сон": 2097,
      "##жд": 2098,
      "пот": 2099,
      "##дая": 2100,
      "поль": 2101,
      "мужчины": 2102,
      "людеи": 2103,
      "Там": 2104,
      "пры": 2105,
      "уро": 2106,
      "##чок": 2107,
      "##ское": 2108,
      "лесу": 2109,
      "Сидят": 2110,
      "вечером": 2111,
      "Мал": 2112,
      "англи": 2113,
      "утра": 2114,
      "##каза": 2115,
      "##ого": 2116,
      "##мя": 2117,
      "Му": 2118,
      "заме": 2119,
      "фор": 2120,
      "Потому": 2121,
      "сла": 2122,
      "сад": 2123,
      "эту": 2124,
      "##чать": 2125,
      "##ka": 2126,
      "типа": 2127,
      "душ": 2128,
      "11": 2129,
      "##ерш": 2130,
      "сама": 2131,
      "хотел": 2132,
      "##ьте": 2133,
      "##РО": 2134,
      "отс": 2135,
      "##особ": 2136,
      "##чень": 2137,
      "##шего": 2138,
      "##стру": 2139,
      "##можно": 2140,
      "сли": 2141,
      "чис": 2142,
      "пыта": 2143,
      "##ch": 2144,
      "##ует": 2145,
      "##асибо": 2146,
      "обе": 2147,
      "охот": 2148,
      "спор": 2149,
      "ног": 2150,
      "##евиз": 2151,
      "свое": 2152,
      "случилось": 2153,
      "программи": 2154,
      "проблем": 2155,
      "неделю": 2156,
      "Пар": 2157,
      "молодои": 2158,
      "##пил": 2159,
      "##чал": 2160,
      "##хва": 2161,
      "##ed": 2162,
      "волос": 2163,
      "зада": 2164,
      ")))": 2165,
      "##тия": 2166,
      "спросил": 2167,
      "позво": 2168,
      "самое": 2169,
      "##ot": 2170,
      "##зов": 2171,
      "Зачем": 2172,
      "будем": 2173,
      "люблю": 2174,
      "сва": 2175,
      "четыре": 2176,
      "##тит": 2177,
      "останавли": 2178,
      "прямо": 2179,
      "Оте": 2180,
      "##ясь": 2181,
      "звонит": 2182,
      "ПО": 2183,
      "смер": 2184,
      "посто": 2185,
      "##вшись": 2186,
      "мало": 2187,
      "##yy": 2188,
      "фут": 2189,
      "##ителя": 2190,
      "##дается": 2191,
      "##ческии": 2192,
      "##чика": 2193,
      "фото": 2194,
      "##беж": 2195,
      "##тора": 2196,
      "доста": 2197,
      "ответил": 2198,
      "лоша": 2199,
      "Рус": 2200,
      "##рин": 2201,
      "моз": 2202,
      "бума": 2203,
      "Су": 2204,
      "##тан": 2205,
      "экзам": 2206,
      "##ните": 2207,
      "##гом": 2208,
      "##ранцу": 2209,
      "попро": 2210,
      "берет": 2211,
      "##бав": 2212,
      "пpи": 2213,
      "Скажите": 2214,
      "Для": 2215,
      "##уль": 2216,
      "живот": 2217,
      "см": 2218,
      ".....": 2219,
      "магазин": 2220,
      "Рас": 2221,
      "вме": 2222,
      "##ушки": 2223,
      "18": 2224,
      "радо": 2225,
      "Потом": 2226,
      "##шком": 2227,
      "##нула": 2228,
      "Вод": 2229,
      "блин": 2230,
      "##вание": 2231,
      "##емся": 2232,
      "##мыс": 2233,
      "нрав": 2234,
      "пал": 2235,
      "##игра": 2236,
      "бак": 2237,
      "ху": 2238,
      "евреи": 2239,
      "Может": 2240,
      "Сегодня": 2241,
      "ресто": 2242,
      "##цен": 2243,
      "##вест": 2244,
      "Иванович": 2245,
      "Студент": 2246,
      "##чная": 2247,
      "##ститут": 2248,
      "впер": 2249,
      "закон": 2250,
      "готов": 2251,
      "##стов": 2252,
      "ино": 2253,
      "би": 2254,
      "брос": 2255,
      "Сидит": 2256,
      "милли": 2257,
      "внима": 2258,
      "сидят": 2259,
      "месяц": 2260,
      "народ": 2261,
      "##нек": 2262,
      "##шник": 2263,
      "большои": 2264,
      "команди": 2265,
      "##работ": 2266,
      "двое": 2267,
      "##леб": 2268,
      "автомо": 2269,
      "кабин": 2270,
      "16": 2271,
      "своим": 2272,
      "Первыи": 2273,
      "замуж": 2274,
      "мен": 2275,
      "##бод": 2276,
      "продол": 2277,
      "пьяныи": 2278,
      "Боль": 2279,
      "##уу": 2280,
      "##того": 2281,
      "заду": 2282,
      "став": 2283,
      "##дают": 2284,
      "опера": 2285,
      "девочка": 2286,
      "телефон": 2287,
      "служ": 2288,
      "Лучше": 2289,
      "дает": 2290,
      "улы": 2291,
      "??": 2292,
      "попу": 2293,
      "##мом": 2294,
      "прекрас": 2295,
      "сред": 2296,
      "филь": 2297,
      "наконец": 2298,
      "стать": 2299,
      "##лав": 2300,
      "меч": 2301,
      "яица": 2302,
      "сот": 2303,
      "##биль": 2304,
      "голо": 2305,
      "Какои": 2306,
      "##нал": 2307,
      "откуда": 2308,
      "гости": 2309,
      "##еру": 2310,
      "##сия": 2311,
      "##графи": 2312,
      "возвращается": 2313,
      "Дед": 2314,
      "##щее": 2315,
      "вечер": 2316,
      "собака": 2317,
      "Ве": 2318,
      "##вался": 2319,
      "кос": 2320,
      "Отец": 2321,
      "Еще": 2322,
      "##чкои": 2323,
      "##фор": 2324,
      "##руж": 2325,
      "Пи": 2326,
      "Прав": 2327,
      "гре": 2328,
      "самыи": 2329,
      "дире": 2330,
      "##яц": 2331,
      "##них": 2332,
      "Второи": 2333,
      "14": 2334,
      "девушки": 2335,
      "презерва": 2336,
      "##пал": 2337,
      "##ере": 2338,
      "бед": 2339,
      "ци": 2340,
      "хочется": 2341,
      "!?": 2342,
      "Това": 2343,
      "твоя": 2344,
      "Гол": 2345,
      "##фа": 2346,
      "##ником": 2347,
      "##еньше": 2348,
      "своих": 2349,
      "элек": 2350,
      "##зова": 2351,
      "способ": 2352,
      "##бло": 2353,
      "##рия": 2354,
      "##пусти": 2355,
      "которая": 2356,
      "постели": 2357,
      "##оне": 2358,
      "настоя": 2359,
      "Кол": 2360,
      "ид": 2361,
      "##часть": 2362,
      "Ки": 2363,
      "ля": 2364,
      "##ТЬ": 2365,
      "##иту": 2366,
      "ладно": 2367,
      "##раб": 2368,
      "номер": 2369,
      "соз": 2370,
      "##чнои": 2371,
      "обна": 2372,
      "замет": 2373,
      "##ган": 2374,
      "пле": 2375,
      "##уется": 2376,
      "##рк": 2377,
      "рабо": 2378,
      "совет": 2379,
      "дви": 2380,
      "луч": 2381,
      "##езжа": 2382,
      "##чество": 2383,
      "рублеи": 2384,
      "знаком": 2385,
      "останов": 2386,
      "говоp": 2387,
      "столько": 2388,
      "немного": 2389,
      "Его": 2390,
      "кем": 2391,
      "##КА": 2392,
      "##нах": 2393,
      "##вец": 2394,
      "женщину": 2395,
      "))": 2396,
      "наверное": 2397,
      "##ику": 2398,
      "правда": 2399,
      "вин": 2400,
      "##вшии": 2401,
      "вместе": 2402,
      "подума": 2403,
      "пись": 2404,
      "окно": 2405,
      "##!!!": 2406,
      "##казал": 2407,
      "работать": 2408,
      "Дорогои": 2409,
      "yyy": 2410,
      "бил": 2411,
      "ночи": 2412,
      "##дели": 2413,
      "сообщ": 2414,
      "вис": 2415,
      "##пло": 2416,
      "##ходя": 2417,
      "тыся": 2418,
      "вели": 2419,
      "телевиз": 2420,
      "##носит": 2421,
      "Ржевскии": 2422,
      "Ти": 2423,
      "##ay": 2424,
      "пого": 2425,
      "хватает": 2426,
      "##мат": 2427,
      "##ниц": 2428,
      "зол": 2429,
      "##ерка": 2430,
      "##шься": 2431,
      "##янно": 2432,
      "##хх": 2433,
      "13": 2434,
      "##зади": 2435,
      "врач": 2436,
      "генера": 2437,
      "Учительница": 2438,
      "бар": 2439,
      "##чил": 2440,
      "работе": 2441,
      "##руд": 2442,
      "Ре": 2443,
      "##ЕР": 2444,
      "##идет": 2445,
      "##станов": 2446,
      "!!!!": 2447,
      "##пать": 2448,
      "##елен": 2449,
      "Иванов": 2450,
      "##ствуите": 2451,
      "ге": 2452,
      "##ежит": 2453,
      "суп": 2454,
      "вижу": 2455,
      "Мер": 2456,
      "##ваешь": 2457,
      "коз": 2458,
      "гля": 2459,
      "##ющии": 2460,
      "##рач": 2461,
      "долларов": 2462,
      "17": 2463,
      "хорош": 2464,
      "##вую": 2465,
      "давно": 2466,
      "полож": 2467,
      "бога": 2468,
      "пил": 2469,
      "##ровать": 2470,
      "##има": 2471,
      "достает": 2472,
      "##чить": 2473,
      "написа": 2474,
      "открывает": 2475,
      "Соб": 2476,
      "Укра": 2477,
      "##седа": 2478,
      "##вести": 2479,
      "##оты": 2480,
      "##реди": 2481,
      "##били": 2482,
      "\":": 2483,
      "огром": 2484,
      "Гру": 2485,
      "пси": 2486,
      "##нике": 2487,
      "соверш": 2488,
      "чуть": 2489,
      "туалет": 2490,
      "##рал": 2491,
      "выдер": 2492,
      "обя": 2493,
      "##альные": 2494,
      "##ствие": 2495,
      "Сов": 2496,
      "##чали": 2497,
      "##чится": 2498,
      "Бог": 2499,
      "Товари": 2500,
      "компа": 2501,
      "машина": 2502,
      "арми": 2503,
      "бе": 2504,
      "##стеи": 2505,
      "стар": 2506,
      "Интер": 2507,
      "клю": 2508,
      "слуш": 2509,
      "##ньше": 2510,
      "Вол": 2511,
      "##рах": 2512,
      "##пои": 2513,
      "25": 2514,
      "Кон": 2515,
      "сви": 2516,
      "##вле": 2517,
      "##дали": 2518,
      "##уди": 2519,
      "##щим": 2520,
      "говорю": 2521,
      "голу": 2522,
      "НР": 2523,
      "оно": 2524,
      "##нию": 2525,
      "отлич": 2526,
      "##рка": 2527,
      "повер": 2528,
      "##чии": 2529,
      "##ое": 2530,
      "##стите": 2531,
      "##нев": 2532,
      "пpо": 2533,
      "Абра": 2534,
      "##док": 2535,
      "Ничего": 2536,
      "пох": 2537,
      "##ходить": 2538,
      "могут": 2539,
      "четвер": 2540,
      "вд": 2541,
      "##лия": 2542,
      "голова": 2543,
      "дево": 2544,
      "ужас": 2545,
      "говорить": 2546,
      "гря": 2547,
      "##дения": 2548,
      "раньше": 2549,
      "##альныи": 2550,
      "зло": 2551,
      "##мец": 2552,
      "скажи": 2553,
      "Здрав": 2554,
      "##место": 2555,
      "##дит": 2556,
      "наде": 2557,
      "кофе": 2558,
      "##лок": 2559,
      "бывает": 2560,
      "пива": 2561,
      "сына": 2562,
      "нашел": 2563,
      "зат": 2564,
      "пон": 2565,
      "##ноп": 2566,
      "ез": 2567,
      "##зм": 2568,
      "кому": 2569,
      "##казать": 2570,
      "##вините": 2571,
      "фа": 2572,
      "##мм": 2573,
      "##ися": 2574,
      "можешь": 2575,
      "##рые": 2576,
      "\"\".": 2577,
      "запис": 2578,
      "23": 2579,
      "сти": 2580,
      "сначала": 2581,
      "##осто": 2582,
      "свадь": 2583,
      "позна": 2584,
      "##гивает": 2585,
      "сист": 2586,
      "гро": 2587,
      "дал": 2588,
      "пти": 2589,
      "сюда": 2590,
      "##нови": 2591,
      "шту": 2592,
      "##реля": 2593,
      "##хал": 2594,
      "##im": 2595,
      "##ЕТ": 2596,
      "ох": 2597,
      "##ck": 2598,
      "##ружи": 2599,
      "купи": 2600,
      "Какая": 2601,
      "предла": 2602,
      "зовут": 2603,
      "##зе": 2604,
      "##раль": 2605,
      "спе": 2606,
      "либо": 2607,
      "Вася": 2608,
      "##ьем": 2609,
      "зас": 2610,
      "##чески": 2611,
      "НА": 2612,
      "##ствует": 2613,
      "маленькии": 2614,
      "##ir": 2615,
      "прин": 2616,
      "увидел": 2617,
      "Си": 2618,
      "##яти": 2619,
      "пам": 2620,
      "##тить": 2621,
      "вами": 2622,
      "меньше": 2623,
      "##пан": 2624,
      "месте": 2625,
      "Сеичас": 2626,
      "##ведь": 2627,
      "##кает": 2628,
      "лишь": 2629,
      "Смотр": 2630,
      "Че": 2631,
      "гром": 2632,
      "падает": 2633,
      "?..": 2634,
      "брат": 2635,
      "ото": 2636,
      "##ань": 2637,
      "40": 2638,
      "вал": 2639,
      "##оп": 2640,
      "некоторое": 2641,
      "##вания": 2642,
      "##ехали": 2643,
      "Иль": 2644,
      "##скую": 2645,
      "##этому": 2646,
      "##гов": 2647,
      "##шина": 2648,
      "##частли": 2649,
      "обратно": 2650,
      "Мальчик": 2651,
      "Дети": 2652,
      "вла": 2653,
      "##шен": 2654,
      "Господ": 2655,
      "##жать": 2656,
      "##КО": 2657,
      "##стить": 2658,
      "вста": 2659,
      "воро": 2660,
      "Каж": 2661,
      "утро": 2662,
      "лож": 2663,
      "ску": 2664,
      "##кам": 2665,
      "##езде": 2666,
      "##лег": 2667,
      "чук": 2668,
      "Сын": 2669,
      "хотя": 2670,
      "Бер": 2671,
      "вет": 2672,
      "конце": 2673,
      "##водит": 2674,
      "двери": 2675,
      "Парень": 2676,
      "какое": 2677,
      "),": 2678,
      "##емен": 2679,
      "##рачивается": 2680,
      "##пается": 2681,
      "##уже": 2682,
      "думал": 2683,
      "свер": 2684,
      "##так": 2685,
      "купить": 2686,
      "компьютер": 2687,
      "##нули": 2688,
      "написано": 2689,
      "pаз": 2690,
      "##есть": 2691,
      "хотите": 2692,
      "более": 2693,
      "##ун": 2694,
      "неу": 2695,
      "образ": 2696,
      "##рован": 2697,
      "Молодои": 2698,
      "Кар": 2699,
      "##хать": 2700,
      "какую": 2701,
      "Ната": 2702,
      "Надо": 2703,
      "машине": 2704,
      "ого": 2705,
      "##кол": 2706,
      "спроси": 2707,
      "Русскии": 2708,
      "##ak": 2709,
      "выпи": 2710,
      "высо": 2711,
      "против": 2712,
      "вокруг": 2713,
      "##ранцуз": 2714,
      "##имо": 2715,
      "##лая": 2716,
      "##реж": 2717,
      "тяж": 2718,
      "спокои": 2719,
      "часов": 2720,
      "##дил": 2721,
      "неб": 2722,
      "воды": 2723,
      "школе": 2724,
      "чаи": 2725,
      "!!!\"": 2726,
      ",--": 2727,
      "##os": 2728,
      "##давно": 2729,
      "своему": 2730,
      "другого": 2731,
      "слы": 2732,
      "##тил": 2733,
      "призна": 2734,
      "которои": 2735,
      "ваша": 2736,
      "начал": 2737,
      "десять": 2738,
      "##строи": 2739,
      "##ским": 2740,
      "товарищ": 2741,
      "Меня": 2742,
      "##рпла": 2743,
      "пару": 2744,
      "представ": 2745,
      "Слы": 2746,
      "##ают": 2747,
      "##мана": 2748,
      "зву": 2749,
      "##ьи": 2750,
      "##pе": 2751,
      "##ваем": 2752,
      "сил": 2753,
      "такого": 2754,
      "даи": 2755,
      "све": 2756,
      "##аю": 2757,
      "##чают": 2758,
      "Ви": 2759,
      "иде": 2760,
      "##НО": 2761,
      "нашеи": 2762,
      "Можно": 2763,
      "презид": 2764,
      "зерка": 2765,
      "силь": 2766,
      "##бит": 2767,
      "Ша": 2768,
      "времени": 2769,
      "дере": 2770,
      "Говор": 2771,
      "телефо": 2772,
      "Hе": 2773,
      "##редел": 2774,
      "груп": 2775,
      "испол": 2776,
      "машины": 2777,
      "друзья": 2778,
      "Мед": 2779,
      "встает": 2780,
      "##жки": 2781,
      "##жку": 2782,
      "##вила": 2783,
      "##летает": 2784,
      "росси": 2785,
      "##кт": 2786,
      "порт": 2787,
      "##инг": 2788,
      "##чили": 2789,
      "пусть": 2790,
      "Нас": 2791,
      "наид": 2792,
      "кап": 2793,
      "кажется": 2794,
      "Теб": 2795,
      "вместо": 2796,
      "##ип": 2797,
      "каждо": 2798,
      "собак": 2799,
      "Дорогая": 2800,
      "дж": 2801,
      "яв": 2802,
      "##тина": 2803,
      "оказ": 2804,
      "##ind": 2805,
      "музы": 2806,
      "говоpит": 2807,
      "Три": 2808,
      "сел": 2809,
      "хлеб": 2810,
      "##ter": 2811,
      "лицо": 2812,
      "##овал": 2813,
      "Вла": 2814,
      "ван": 2815,
      "##гаи": 2816,
      "предлож": 2817,
      "встрет": 2818,
      "сильно": 2819,
      "уби": 2820,
      "##цес": 2821,
      "заня": 2822,
      "мужч": 2823,
      "конц": 2824,
      "этим": 2825,
      "лов": 2826,
      "##кола": 2827,
      "##анта": 2828,
      "голове": 2829,
      "воск": 2830,
      "баксов": 2831,
      "\"!": 2832,
      "дя": 2833,
      "мод": 2834,
      "##кать": 2835,
      "мир": 2836,
      "##иня": 2837,
      "пассажи": 2838,
      "##вел": 2839,
      "руках": 2840,
      "##ствую": 2841,
      "Ага": 2842,
      "##гать": 2843,
      "подъ": 2844,
      "грузин": 2845,
      "трех": 2846,
      "комнату": 2847,
      "читает": 2848,
      "Чук": 2849,
      "##чешь": 2850,
      "##ях": 2851,
      "##юл": 2852,
      "##разд": 2853,
      "##ульта": 2854,
      "выгля": 2855,
      "город": 2856,
      "девушку": 2857,
      "звонок": 2858,
      "холодиль": 2859,
      "Крас": 2860,
      "дво": 2861,
      "свин": 2862,
      "##ике": 2863,
      "просы": 2864,
      "Привет": 2865,
      "Лен": 2866,
      "##что": 2867,
      "##шает": 2868,
      "показы": 2869,
      "нег": 2870,
      "отды": 2871,
      "любит": 2872,
      "карто": 2873,
      "22": 2874,
      "Жиз": 2875,
      "уг": 2876,
      "##бал": 2877,
      "##даю": 2878,
      "Над": 2879,
      "состоя": 2880,
      "##ональ": 2881,
      "##фу": 2882,
      "##em": 2883,
      "Опять": 2884,
      "##стныи": 2885,
      "отли": 2886,
      "нового": 2887,
      "перес": 2888,
      "рассказы": 2889,
      "##ителеи": 2890,
      "нео": 2891,
      "##вели": 2892,
      "тормо": 2893,
      "##сер": 2894,
      "##бас": 2895,
      "##искии": 2896,
      "стран": 2897,
      "слишком": 2898,
      "Чего": 2899,
      "##циант": 2900,
      "старыи": 2901,
      "русского": 2902,
      "самолет": 2903,
      "Род": 2904,
      "##дов": 2905,
      "##рев": 2906,
      "девушкои": 2907,
      "нормально": 2908,
      "Буд": 2909,
      "вкус": 2910,
      "поро": 2911,
      "##дав": 2912,
      "часто": 2913,
      "сзади": 2914,
      "Поз": 2915,
      "необ": 2916,
      "Хочу": 2917,
      "Врач": 2918,
      "смотри": 2919,
      "##мин": 2920,
      "гряз": 2921,
      "##ины": 2922,
      "заи": 2923,
      "##рых": 2924,
      "стоя": 2925,
      "##кс": 2926,
      "моего": 2927,
      "##тиво": 2928,
      "##зывает": 2929,
      "##пает": 2930,
      "##емон": 2931,
      "вон": 2932,
      "надпись": 2933,
      "смыс": 2934,
      "##лот": 2935,
      "мужики": 2936,
      "орет": 2937,
      "##шке": 2938,
      "запа": 2939,
      "##лять": 2940,
      "обез": 2941,
      "солдат": 2942,
      "Алло": 2943,
      "длин": 2944,
      "##ывает": 2945,
      "##цем": 2946,
      "##ЛО": 2947,
      "##СТ": 2948,
      "##кал": 2949,
      "отправ": 2950,
      "мою": 2951,
      "##меня": 2952,
      "##гают": 2953,
      "##гие": 2954,
      "решили": 2955,
      "радио": 2956,
      "благо": 2957,
      "кас": 2958,
      "зак": 2959,
      "сига": 2960,
      "тет": 2961,
      "##чные": 2962,
      "##un": 2963,
      "руками": 2964,
      "ххх": 2965,
      "##жик": 2966,
      "обращается": 2967,
      "серд": 2968,
      "особ": 2969,
      "ошиб": 2970,
      "наити": 2971,
      "##мущ": 2972,
      "жив": 2973,
      "Звонок": 2974,
      "##АИ": 2975,
      "пошли": 2976,
      "места": 2977,
      "рассказывает": 2978,
      "постоянно": 2979,
      "лы": 2980,
      "наши": 2981,
      "##кивает": 2982,
      "стен": 2983,
      "теща": 2984,
      "вну": 2985,
      "##пов": 2986,
      "зарпла": 2987,
      "говорил": 2988,
      "пишет": 2989,
      "анек": 2990,
      "кури": 2991,
      "станов": 2992,
      "выпол": 2993,
      "дурак": 2994,
      "Челов": 2995,
      "##id": 2996,
      "##нами": 2997,
      "обще": 2998,
      "##порт": 2999,
      "понимаю": 3000,
      "счет": 3001,
      "##кло": 3002,
      "##кор": 3003,
      "мужчин": 3004,
      "такую": 3005,
      "##ствия": 3006,
      "называется": 3007,
      "гри": 3008,
      "##рово": 3009,
      "##стил": 3010,
      "##нием": 3011,
      "делаешь": 3012,
      "едет": 3013,
      "фами": 3014,
      "##ус": 3015,
      "водку": 3016,
      "суще": 3017,
      "##ИН": 3018,
      "##етесь": 3019,
      "дороге": 3020,
      "сан": 3021,
      "##цел": 3022,
      "повто": 3023,
      "##бок": 3024,
      "уходит": 3025,
      "##тно": 3026,
      "##рак": 3027,
      "спас": 3028,
      ")\"": 3029,
      "тю": 3030,
      "##хои": 3031,
      "Профессор": 3032,
      "матери": 3033,
      "Вин": 3034,
      "##ныч": 3035,
      "##няя": 3036,
      "врачу": 3037,
      "бутылку": 3038,
      "момент": 3039,
      "счасть": 3040,
      "одном": 3041,
      "самого": 3042,
      "##чную": 3043,
      "##ur": 3044,
      "воду": 3045,
      "живет": 3046,
      "##ука": 3047,
      "##py": 3048,
      "обра": 3049,
      "##аишник": 3050,
      "##нист": 3051,
      "##гии": 3052,
      "##хов": 3053,
      "##рует": 3054,
      "вышел": 3055,
      "День": 3056,
      "празд": 3057,
      "##oo": 3058,
      "Абрам": 3059,
      "##тон": 3060,
      "##рут": 3061,
      "пора": 3062,
      "изоб": 3063,
      "нравится": 3064,
      "воен": 3065,
      "свобод": 3066,
      "Жизнь": 3067,
      "сами": 3068,
      "головои": 3069,
      "Здравствуите": 3070,
      "Очень": 3071,
      "##рает": 3072,
      "Суд": 3073,
      "физ": 3074,
      "##ag": 3075,
      "отдел": 3076,
      "мыс": 3077,
      "нав": 3078,
      "##сии": 3079,
      "взгля": 3080,
      "Вер": 3081,
      "##рон": 3082,
      "тому": 3083,
      "вниз": 3084,
      "шу": 3085,
      "##гре": 3086,
      "##щит": 3087,
      "сочин": 3088,
      "Моя": 3089,
      "счастли": 3090,
      "##АА": 3091,
      "кило": 3092,
      "нах": 3093,
      "нали": 3094,
      "принес": 3095,
      "доме": 3096,
      "##помина": 3097,
      "можете": 3098,
      "никак": 3099,
      "сим": 3100,
      "показывает": 3101,
      "##ливо": 3102,
      "привет": 3103,
      "видишь": 3104,
      "##спек": 3105,
      "попал": 3106,
      "зоо": 3107,
      "увер": 3108,
      "шка": 3109,
      "дорогои": 3110,
      "##----": 3111,
      "##нятно": 3112,
      "Пут": 3113,
      "Чу": 3114,
      "плю": 3115,
      "##луж": 3116,
      "##нам": 3117,
      "##нишь": 3118,
      "горя": 3119,
      "будете": 3120,
      "трубку": 3121,
      "даваите": 3122,
      "Ком": 3123,
      "##ыт": 3124,
      "стало": 3125,
      "грудь": 3126,
      "году": 3127,
      "исполь": 3128,
      "результа": 3129,
      "Мюл": 3130,
      "паци": 3131,
      "секретар": 3132,
      "Ле": 3133,
      "##ыми": 3134,
      "подс": 3135,
      "##туда": 3136,
      "виде": 3137,
      "лек": 3138,
      "сни": 3139,
      "ябло": 3140,
      "выпить": 3141,
      "требу": 3142,
      "Стоит": 3143,
      "Ут": 3144,
      "вел": 3145,
      "пришла": 3146,
      "##ушку": 3147,
      "чита": 3148,
      "##шения": 3149,
      "##мах": 3150,
      "разд": 3151,
      "##пон": 3152,
      "##????": 3153,
      "твою": 3154,
      "##питан": 3155,
      "##ентов": 3156,
      "##важа": 3157,
      "##поко": 3158,
      "помощ": 3159,
      "внут": 3160,
      "##ВО": 3161,
      "##ВА": 3162,
      "##тии": 3163,
      "девушке": 3164,
      "##ственныи": 3165,
      "голосом": 3166,
      "##мая": 3167,
      "пример": 3168,
      "##иду": 3169,
      "нужен": 3170,
      "##фф": 3171,
      "ними": 3172,
      "##ствительно": 3173,
      "думаешь": 3174,
      "задум": 3175,
      "Товарищ": 3176,
      "отк": 3177,
      "Вово": 3178,
      "обычно": 3179,
      "Мам": 3180,
      "оди": 3181,
      "сда": 3182,
      "уни": 3183,
      "упал": 3184,
      "##иди": 3185,
      "##нулась": 3186,
      "обс": 3187,
      "##стати": 3188,
      "никого": 3189,
      "возра": 3190,
      "кино": 3191,
      "сексом": 3192,
      "секу": 3193,
      "специ": 3194,
      "рекла": 3195,
      "##наль": 3196,
      "##лан": 3197,
      "сказали": 3198,
      "русских": 3199,
      "крова": 3200,
      "##почка": 3201,
      "стакан": 3202,
      "фир": 3203,
      "ЗА": 3204,
      "##стри": 3205,
      "##нешь": 3206,
      "Однажды": 3207,
      "##реи": 3208,
      "теле": 3209,
      "##нюю": 3210,
      "Разговари": 3211,
      "трав": 3212,
      "##ставляешь": 3213,
      "идут": 3214,
      "нету": 3215,
      "правильно": 3216,
      "Откры": 3217,
      "зуб": 3218,
      "телефону": 3219,
      "пр": 3220,
      "сне": 3221,
      "##ав": 3222,
      "##хе": 3223,
      "##кат": 3224,
      "##ери": 3225,
      "соглас": 3226,
      "Поручик": 3227,
      "Ответ": 3228,
      "мно": 3229,
      "##ваясь": 3230,
      "стороны": 3231,
      "очередь": 3232,
      "##готов": 3233,
      "##гад": 3234,
      "Вопрос": 3235,
      "##хая": 3236,
      "последнии": 3237,
      "дра": 3238,
      "##зине": 3239,
      "##щую": 3240,
      "дочь": 3241,
      "Пока": 3242,
      "новых": 3243,
      "продав": 3244,
      "поста": 3245,
      "сум": 3246,
      "лошадь": 3247,
      "##стрее": 3248,
      "Чукча": 3249,
      "Ту": 3250,
      "##ям": 3251,
      "отпу": 3252,
      "##еса": 3253,
      "слез": 3254,
      "##хает": 3255,
      "профес": 3256,
      "любовь": 3257,
      "##роду": 3258,
      "отно": 3259,
      "##ством": 3260,
      "улыб": 3261,
      "Влади": 3262,
      "00": 3263,
      "##кти": 3264,
      "Даите": 3265,
      "##стречу": 3266,
      "посмотрел": 3267,
      "анекд": 3268,
      "Едет": 3269,
      "Лет": 3270,
      "упа": 3271,
      "##зан": 3272,
      "##АМ": 3273,
      "##раво": 3274,
      "нечего": 3275,
      "возле": 3276,
      "мире": 3277,
      "зелен": 3278,
      "любо": 3279,
      "стали": 3280,
      "забыл": 3281,
      "Доб": 3282,
      "##ИТ": 3283,
      "поле": 3284,
      "выта": 3285,
      "поднима": 3286,
      "конф": 3287,
      "иметь": 3288,
      "часы": 3289,
      "рождения": 3290,
      "рестора": 3291,
      "Слышь": 3292,
      "обезья": 3293,
      "Сол": 3294,
      "остав": 3295,
      "##ig": 3296,
      "зако": 3297,
      "заку": 3298,
      "прид": 3299,
      "спу": 3300,
      "объяв": 3301,
      "Раби": 3302,
      "вроде": 3303,
      "##тик": 3304,
      "аб": 3305,
      "лез": 3306,
      "заб": 3307,
      "зато": 3308,
      "##мера": 3309,
      "жалуется": 3310,
      "обяза": 3311,
      "Дру": 3312,
      "Офи": 3313,
      "Эи": 3314,
      "прием": 3315,
      "доволь": 3316,
      "##чаи": 3317,
      "медвед": 3318,
      "бег": 3319,
      "##меи": 3320,
      "##точно": 3321,
      "квартиру": 3322,
      "смотреть": 3323,
      "ума": 3324,
      "##хом": 3325,
      "##толо": 3326,
      "поиду": 3327,
      "спокоино": 3328,
      "ищ": 3329,
      "хво": 3330,
      "бере": 3331,
      "Ро": 3332,
      "хрен": 3333,
      "##рис": 3334,
      "##еке": 3335,
      "должны": 3336,
      "Разговаривают": 3337,
      "21": 3338,
      "##рно": 3339,
      "поим": 3340,
      "##лии": 3341,
      "доку": 3342,
      "##гада": 3343,
      "таб": 3344,
      "первого": 3345,
      "желание": 3346,
      "##эт": 3347,
      "##ляю": 3348,
      "апте": 3349,
      "покупа": 3350,
      "##шко": 3351,
      "##кин": 3352,
      "коли": 3353,
      "рукои": 3354,
      "##стом": 3355,
      "возможно": 3356,
      "ваши": 3357,
      "смотрю": 3358,
      "Ладно": 3359,
      "любви": 3360,
      "алкого": 3361,
      "поня": 3362,
      "которого": 3363,
      "Ваш": 3364,
      "расска": 3365,
      "##ционер": 3366,
      "Хот": 3367,
      "звер": 3368,
      "мент": 3369,
      "##рили": 3370,
      "Просто": 3371,
      "Значит": 3372,
      "почти": 3373,
      "Ах": 3374,
      "Ча": 3375,
      "звез": 3376,
      "##цом": 3377,
      "##утся": 3378,
      "окна": 3379,
      "метро": 3380,
      "##ash": 3381,
      "главное": 3382,
      "удоволь": 3383,
      "футбол": 3384,
      "Трет": 3385,
      "жа": 3386,
      "##яться": 3387,
      "другом": 3388,
      "случаино": 3389,
      "Wind": 3390,
      "днеи": 3391,
      "чуж": 3392,
      "щас": 3393,
      "раи": 3394,
      "##матри": 3395,
      "##ремя": 3396,
      "Хол": 3397,
      "иска": 3398,
      "##ЛЬ": 3399,
      "обла": 3400,
      "Извините": 3401,
      "бом": 3402,
      "##щему": 3403,
      "##стрел": 3404,
      "##вода": 3405,
      "коров": 3406,
      "имеет": 3407,
      "уто": 3408,
      "##тю": 3409,
      "##ГО": 3410,
      "корм": 3411,
      "проходит": 3412,
      "знал": 3413,
      "деле": 3414,
      "делают": 3415,
      "нашего": 3416,
      "##менты": 3417,
      "##ows": 3418,
      "пля": 3419,
      "##((": 3420,
      "поэтому": 3421,
      "конец": 3422,
      "раст": 3423,
      "##тая": 3424,
      "Вс": 3425,
      "##нется": 3426,
      "##рам": 3427,
      "интел": 3428,
      "письмо": 3429,
      "Ос": 3430,
      "##НИ": 3431,
      "##толет": 3432,
      "##инки": 3433,
      "ребенка": 3434,
      "проблемы": 3435,
      "сле": 3436,
      "##сед": 3437,
      "##шение": 3438,
      "##pы": 3439,
      "##гах": 3440,
      "Наконец": 3441,
      "##зина": 3442,
      "досто": 3443,
      "Пере": 3444,
      "ква": 3445,
      "##нуться": 3446,
      "##пар": 3447,
      "##циональ": 3448,
      "Пап": 3449,
      "Ват": 3450,
      "поздно": 3451,
      "сэр": 3452,
      "##лит": 3453,
      "##шивает": 3454,
      "другие": 3455,
      "экзамен": 3456,
      "##зит": 3457,
      "выбра": 3458,
      "вне": 3459,
      "##мс": 3460,
      "##ША": 3461,
      "##екс": 3462,
      "именно": 3463,
      "помню": 3464,
      "Спасибо": 3465,
      "Реб": 3466,
      "##льту": 3467,
      "ногу": 3468,
      "##гаю": 3469,
      "стоят": 3470,
      "автобус": 3471,
      "St": 3472,
      "поя": 3473,
      "треть": 3474,
      "Hет": 3475,
      "##шкои": 3476,
      "##цами": 3477,
      "##ерт": 3478,
      "##лои": 3479,
      "какого": 3480,
      "паро": 3481,
      "такси": 3482,
      "язык": 3483,
      "##ЛА": 3484,
      "оттуда": 3485,
      "приш": 3486,
      "карт": 3487,
      "согла": 3488,
      "стан": 3489,
      "садится": 3490,
      "Человек": 3491,
      "##жит": 3492,
      "##жка": 3493,
      "недавно": 3494,
      "##мист": 3495,
      "Ха": 3496,
      "##ились": 3497,
      "дан": 3498,
      "лиф": 3499,
      "самом": 3500,
      "определ": 3501,
      "##порщик": 3502,
      "Владими": 3503,
      "пут": 3504,
      "рис": 3505,
      "##лыи": 3506,
      "заяв": 3507,
      "сор": 3508,
      "##казывается": 3509,
      "дорогая": 3510,
      "взять": 3511,
      "Две": 3512,
      "##раба": 3513,
      "магазине": 3514,
      "деиствительно": 3515,
      "бои": 3516,
      "##чаль": 3517,
      "##яет": 3518,
      "##енье": 3519,
      "скажите": 3520,
      "Баб": 3521,
      "сотруд": 3522,
      "##гру": 3523,
      "##шила": 3524,
      "##чиво": 3525,
      "золот": 3526,
      "жур": 3527,
      "##гры": 3528,
      "##ден": 3529,
      "##ватель": 3530,
      "посмотри": 3531,
      "секса": 3532,
      "вашеи": 3533,
      "сторону": 3534,
      "Сынок": 3535,
      "француз": 3536,
      "##чного": 3537,
      "##ep": 3538,
      "посмотреть": 3539,
      "##цеп": 3540,
      "##ставляет": 3541,
      "Путин": 3542,
      "хуже": 3543,
      "##лил": 3544,
      "проис": 3545,
      "пригла": 3546,
      "##жима": 3547,
      "тихо": 3548,
      "Куда": 3549,
      "Спраши": 3550,
      "штаны": 3551,
      "Дол": 3552,
      "Ря": 3553,
      "брю": 3554,
      "##сан": 3555,
      "##гент": 3556,
      "##стран": 3557,
      "общем": 3558,
      "болит": 3559,
      "ходить": 3560,
      ")-": 3561,
      "ru": 3562,
      "вов": 3563,
      "опо": 3564,
      "##ческои": 3565,
      "дерь": 3566,
      "медленно": 3567,
      "осталось": 3568,
      "мел": 3569,
      "##мени": 3570,
      "##нен": 3571,
      "##ra": 3572,
      "нату": 3573,
      "дого": 3574,
      "мое": 3575,
      "мужи": 3576,
      "##чаю": 3577,
      "молча": 3578,
      "метров": 3579,
      "пид": 3580,
      "##вину": 3581,
      "##бно": 3582,
      "вылез": 3583,
      "##сило": 3584,
      "случае": 3585,
      "очеред": 3586,
      "Без": 3587,
      "Идут": 3588,
      "##ok": 3589,
      "##рию": 3590,
      "##елось": 3591,
      "экс": 3592,
      "Любов": 3593,
      "сигарет": 3594,
      "?!!": 3595,
      "Мил": 3596,
      "кори": 3597,
      "##лови": 3598,
      "приход": 3599,
      "понимаешь": 3600,
      "!...": 3601,
      "пала": 3602,
      "подар": 3603,
      "заго": 3604,
      "!\".": 3605,
      "маме": 3606,
      "связи": 3607,
      "един": 3608,
      "Бил": 3609,
      "##гами": 3610,
      "##he": 3611,
      "##елю": 3612,
      "##чики": 3613,
      "таким": 3614,
      "##шее": 3615,
      "новую": 3616,
      "тр": 3617,
      "ушел": 3618,
      "цент": 3619,
      "##кар": 3620,
      "вспом": 3621,
      "женщине": 3622,
      "пьян": 3623,
      "Тебе": 3624,
      "дать": 3625,
      "бабушка": 3626,
      "повторя": 3627,
      "привы": 3628,
      "изна": 3629,
      "##живает": 3630,
      "##арь": 3631,
      "мест": 3632,
      "инстру": 3633,
      "пусты": 3634,
      "##чеи": 3635,
      "##акет": 3636,
      "##есно": 3637,
      "Понима": 3638,
      "школу": 3639,
      "pа": 3640,
      "##ьез": 3641,
      "##рист": 3642,
      "море": 3643,
      "##ностью": 3644,
      "написал": 3645,
      "бежит": 3646,
      "лев": 3647,
      "##дца": 3648,
      "##ov": 3649,
      "##вол": 3650,
      "##нили": 3651,
      "Проходит": 3652,
      "Ге": 3653,
      "Мол": 3654,
      "##ul": 3655,
      "##енка": 3656,
      "сексу": 3657,
      "медведь": 3658,
      "кроме": 3659,
      "директо": 3660,
      "Вст": 3661,
      "##скому": 3662,
      "начальник": 3663,
      "Ему": 3664,
      "Ры": 3665,
      "##ЛИ": 3666,
      "##кинь": 3667,
      "##рус": 3668,
      "Пошел": 3669,
      "Пришел": 3670,
      "вещи": 3671,
      "играть": 3672,
      "##мериканец": 3673,
      "подруги": 3674,
      "Маленькии": 3675,
      "Мюллер": 3676,
      "наблю": 3677,
      "докто": 3678,
      "должно": 3679,
      "русские": 3680,
      "Маша": 3681,
      "##ступает": 3682,
      "Знаешь": 3683,
      "должна": 3684,
      "##ыы": 3685,
      "##енту": 3686,
      "обед": 3687,
      "##пута": 3688,
      "##ческие": 3689,
      "запла": 3690,
      "других": 3691,
      "##итуа": 3692,
      "систем": 3693,
      "Иди": 3694,
      "тря": 3695,
      "##ЕМ": 3696,
      "##сили": 3697,
      "Выходит": 3698,
      "дорогу": 3699,
      "движ": 3700,
      "совершенно": 3701,
      "таблет": 3702,
      "##пот": 3703,
      "спpа": 3704,
      "перев": 3705,
      "видно": 3706,
      "переда": 3707,
      "##страи": 3708,
      "кроко": 3709,
      "Сло": 3710,
      "##рами": 3711,
      "находит": 3712,
      "##лина": 3713,
      "смотрят": 3714,
      "армии": 3715,
      "600": 3716,
      "Прос": 3717,
      "ждет": 3718,
      "##бить": 3719,
      "##ятель": 3720,
      "разре": 3721,
      "пах": 3722,
      "своем": 3723,
      "-\"": 3724,
      "ел": 3725,
      "##ut": 3726,
      "понять": 3727,
      "имя": 3728,
      "ходит": 3729,
      "получается": 3730,
      "Девочка": 3731,
      "дерево": 3732,
      "Windows": 3733,
      "лит": 3734,
      "##СС": 3735,
      "поли": 3736,
      "##росить": 3737,
      "фиг": 3738,
      "управ": 3739,
      "500": 3740,
      "Мать": 3741,
      "смот": 3742,
      "##мати": 3743,
      "могли": 3744,
      "##енькая": 3745,
      "стару": 3746,
      "комнате": 3747,
      "##яется": 3748,
      "##лод": 3749,
      "##стю": 3750,
      "нау": 3751,
      "нару": 3752,
      "выигра": 3753,
      "поезд": 3754,
      "отца": 3755,
      "Оста": 3756,
      "клу": 3757,
      "уши": 3758,
      "##пера": 3759,
      "нало": 3760,
      "##рип": 3761,
      "нож": 3762,
      "дов": 3763,
      "двои": 3764,
      "##of": 3765,
      "поряд": 3766,
      "немец": 3767,
      "##риз": 3768,
      "ков": 3769,
      "##вина": 3770,
      "Хоро": 3771,
      "зубы": 3772,
      "командиров": 3773,
      "Наташа": 3774,
      "Пья": 3775,
      "кита": 3776,
      "##зь": 3777,
      "##РИ": 3778,
      "поля": 3779,
      "##номи": 3780,
      "появляется": 3781,
      "другую": 3782,
      "англиис": 3783,
      "Надпись": 3784,
      "иду": 3785,
      "шут": 3786,
      "##чие": 3787,
      "##бовал": 3788,
      "права": 3789,
      "трах": 3790,
      "гражда": 3791,
      "блондинка": 3792,
      "громко": 3793,
      "Бес": 3794,
      "процес": 3795,
      "разве": 3796,
      "##часа": 3797,
      "Ленин": 3798,
      "кровати": 3799,
      "клет": 3800,
      "шеф": 3801,
      "##ому": 3802,
      "недели": 3803,
      "моему": 3804,
      "ката": 3805,
      "Хозя": 3806,
      "любовью": 3807,
      "познаком": 3808,
      "нер": 3809,
      "##ая": 3810,
      "##la": 3811,
      "поме": 3812,
      "##овно": 3813,
      "таких": 3814,
      "маленькая": 3815,
      "США": 3816,
      "##лев": 3817,
      "##рели": 3818,
      "произо": 3819,
      "биз": 3820,
      "тон": 3821,
      "дос": 3822,
      "конца": 3823,
      "глазами": 3824,
      "Ло": 3825,
      "жени": 3826,
      "##вро": 3827,
      "##тки": 3828,
      "##дили": 3829,
      "##ческая": 3830,
      "##бирает": 3831,
      "Нем": 3832,
      "##иф": 3833,
      "##od": 3834,
      "##енок": 3835,
      "##ужели": 3836,
      "быстрее": 3837,
      "разде": 3838,
      "стек": 3839,
      "клад": 3840,
      "Винни": 3841,
      "ухо": 3842,
      "разо": 3843,
      "##ing": 3844,
      "волосы": 3845,
      "снима": 3846,
      "выпил": 3847,
      "минуту": 3848,
      "Ватсон": 3849,
      "око": 3850,
      "пен": 3851,
      "фак": 3852,
      "##ia": 3853,
      "##сию": 3854,
      "мысли": 3855,
      "получил": 3856,
      "Скажи": 3857,
      "идти": 3858,
      "Евре": 3859,
      "Жи": 3860,
      "лу": 3861,
      "нена": 3862,
      "уми": 3863,
      "##рец": 3864,
      "скажу": 3865,
      "беспла": 3866,
      "фотографи": 3867,
      "входит": 3868,
      "коль": 3869,
      "##рочно": 3870,
      "наша": 3871,
      "поднимает": 3872,
      "Вась": 3873,
      "Разговор": 3874,
      "ман": 3875,
      "пьет": 3876,
      "хло": 3877,
      "##чо": 3878,
      "госу": 3879,
      "Даваите": 3880,
      "КО": 3881,
      "бело": 3882,
      "школь": 3883,
      "##рить": 3884,
      "##НА": 3885,
      "пришли": 3886,
      "разница": 3887,
      "перек": 3888,
      "знать": 3889,
      "бабу": 3890,
      "##ранс": 3891,
      "новые": 3892,
      "кровать": 3893,
      "Работ": 3894,
      "шесть": 3895,
      "писать": 3896,
      "Каждыи": 3897,
      "куш": 3898,
      "лам": 3899,
      "##чение": 3900,
      "неве": 3901,
      "спасибо": 3902,
      "пап": 3903,
      "головы": 3904,
      "электри": 3905,
      "Амер": 3906,
      "кноп": 3907,
      "шам": 3908,
      "##ген": 3909,
      "##емь": 3910,
      "##рур": 3911,
      "прош": 3912,
      "спер": 3913,
      "столе": 3914,
      "напри": 3915,
      "испу": 3916,
      "генерал": 3917,
      "россиис": 3918,
      "вклю": 3919,
      "##um": 3920,
      "пото": 3921,
      "гото": 3922,
      "переб": 3923,
      "##альная": 3924,
      "Коро": 3925,
      "нашли": 3926,
      "параш": 3927,
      "Буш": 3928,
      "##жант": 3929,
      "##тории": 3930,
      "напи": 3931,
      "спаль": 3932,
      "первои": 3933,
      "##стои": 3934,
      "Заяц": 3935,
      "##ард": 3936,
      "Петров": 3937,
      "красивая": 3938,
      "кабинет": 3939,
      "##ДА": 3940,
      "посту": 3941,
      "всеи": 3942,
      "Россия": 3943,
      "##аааа": 3944,
      "залез": 3945,
      "билет": 3946,
      "например": 3947,
      "вил": 3948,
      "еб": 3949,
      "##вис": 3950,
      "##ob": 3951,
      "##елая": 3952,
      "##ременно": 3953,
      "##КИ": 3954,
      "непри": 3955,
      "дож": 3956,
      "разго": 3957,
      "колбас": 3958,
      "фильм": 3959,
      "тысяч": 3960,
      "Утром": 3961,
      "Рабинович": 3962,
      "берегу": 3963,
      "Ско": 3964,
      "##ями": 3965,
      "проду": 3966,
      "##тать": 3967,
      "##гляды": 3968,
      "##лицеи": 3969,
      "пеp": 3970,
      "муд": 3971,
      "##мента": 3972,
      "постель": 3973,
      "одному": 3974,
      "Алек": 3975,
      "мик": 3976,
      "##чное": 3977,
      "##сол": 3978,
      "##АЗ": 3979,
      "добав": 3980,
      "Даже": 3981,
      "водитель": 3982,
      "сижу": 3983,
      "двумя": 3984,
      "пожар": 3985,
      "удалось": 3986,
      "##дание": 3987,
      "рав": 3988,
      "##тики": 3989,
      "баба": 3990,
      "часть": 3991,
      "Дума": 3992,
      "##дем": 3993,
      "##рее": 3994,
      "одним": 3995,
      "##деть": 3996,
      "корот": 3997,
      "хорошая": 3998,
      "слышит": 3999,
      "Гра": 4000,
      "протя": 4001,
      "возду": 4002,
      "хорошии": 4003,
      "страшно": 4004,
      "затем": 4005,
      "300": 4006,
      "Ад": 4007,
      "##плы": 4008,
      "##нка": 4009,
      "##нения": 4010,
      "##шек": 4011,
      "##op": 4012,
      "непо": 4013,
      "сон": 4014,
      "стреля": 4015,
      "##обо": 4016,
      "##инка": 4017,
      "отцу": 4018,
      "##чим": 4019,
      "кухне": 4020,
      "ги": 4021,
      "ситуа": 4022,
      "##жем": 4023,
      "##енько": 4024,
      "лод": 4025,
      "ожи": 4026,
      "##нди": 4027,
      "невоз": 4028,
      "##вому": 4029,
      "##тика": 4030,
      "слов": 4031,
      "Какие": 4032,
      "трудно": 4033,
      "##........": 4034,
      "Голос": 4035,
      "придется": 4036,
      "Холмс": 4037,
      "рю": 4038,
      "ца": 4039,
      "##стр": 4040,
      "справ": 4041,
      "##сим": 4042,
      "прев": 4043,
      "ваго": 4044,
      "женщинои": 4045,
      "Хочешь": 4046,
      "понрави": 4047,
      "среди": 4048,
      "##ялся": 4049,
      "##аете": 4050,
      "полчаса": 4051,
      "солда": 4052,
      "Англи": 4053,
      "чукча": 4054,
      "цен": 4055,
      "##чных": 4056,
      "##ээ": 4057,
      "##кова": 4058,
      "разу": 4059,
      "##лево": 4060,
      "части": 4061,
      "останавливает": 4062,
      "вез": 4063,
      "двор": 4064,
      "учитель": 4065,
      "##дра": 4066,
      "##боль": 4067,
      "науч": 4068,
      "##дания": 4069,
      "##чила": 4070,
      "##езда": 4071,
      "##хода": 4072,
      "!\"\"": 4073,
      "трусы": 4074,
      "##ехала": 4075,
      "бот": 4076,
      "повы": 4077,
      "заяц": 4078,
      "принима": 4079,
      "водка": 4080,
      "мира": 4081,
      "вернулся": 4082,
      "отличается": 4083,
      "ГАИ": 4084,
      "##рки": 4085,
      "кана": 4086,
      "стрел": 4087,
      "##жаи": 4088,
      "##ехать": 4089,
      "семь": 4090,
      "проблема": 4091,
      "государ": 4092,
      "24": 4093,
      "##рому": 4094,
      "##сек": 4095,
      "##идем": 4096,
      "голод": 4097,
      "услыш": 4098,
      "сод": 4099,
      "уста": 4100,
      "##веи": 4101,
      "##лении": 4102,
      "побед": 4103,
      "словами": 4104,
      "квартире": 4105,
      "жопу": 4106,
      "повес": 4107,
      "презервати": 4108,
      "Грузин": 4109,
      "##влека": 4110,
      "Свет": 4111,
      "ась": 4112,
      "ль": 4113,
      "снимает": 4114,
      "##ева": 4115,
      "##гается": 4116,
      "поцел": 4117,
      "##лим": 4118,
      "##рика": 4119,
      "##чишь": 4120,
      "рука": 4121,
      "##дуп": 4122,
      "сих": 4123,
      "волк": 4124,
      "трам": 4125,
      "узнать": 4126,
      "пытается": 4127,
      "появи": 4128,
      "бок": 4129,
      "##аите": 4130,
      "##рена": 4131,
      "спит": 4132,
      "кат": 4133,
      "новая": 4134,
      "##виа": 4135,
      "Простите": 4136,
      "бух": 4137,
      "##пыт": 4138,
      "вперед": 4139,
      "обязательно": 4140,
      "Hо": 4141,
      "Дура": 4142,
      "поручик": 4143,
      "извест": 4144,
      "одни": 4145,
      "полез": 4146,
      "темно": 4147,
      "легко": 4148,
      "сделали": 4149,
      "кухню": 4150,
      "##РЕ": 4151,
      "провод": 4152,
      "обид": 4153,
      "своими": 4154,
      "##art": 4155,
      "Эх": 4156,
      "чо": 4157,
      "##дак": 4158,
      "##тим": 4159,
      "##нув": 4160,
      "##пали": 4161,
      "попробу": 4162,
      "Гор": 4163,
      "##нение": 4164,
      "прине": 4165,
      "любят": 4166,
      "волну": 4167,
      "##ork": 4168,
      "интернет": 4169,
      "Знаете": 4170,
      "короче": 4171,
      "делаете": 4172,
      "хозяин": 4173,
      ".)": 4174,
      "Мак": 4175,
      "Сос": 4176,
      "гвоз": 4177,
      "##щение": 4178,
      "##рался": 4179,
      "##вало": 4180,
      "города": 4181,
      "женился": 4182,
      "которую": 4183,
      "возмущ": 4184,
      "комму": 4185,
      "дороги": 4186,
      "особенно": 4187,
      "##солют": 4188,
      "##сом": 4189,
      "##нер": 4190,
      "##жныи": 4191,
      "##?!": 4192,
      "##жили": 4193,
      "программист": 4194,
      "телевизо": 4195,
      "##важаем": 4196,
      "около": 4197,
      "##мите": 4198,
      "##ap": 4199,
      "##дешь": 4200,
      "ас": 4201,
      "жар": 4202,
      "сало": 4203,
      "##хон": 4204,
      "##лена": 4205,
      "противо": 4206,
      "!!!!!!!": 4207,
      "пив": 4208,
      "##стественно": 4209,
      "Петро": 4210,
      "глубо": 4211,
      "игру": 4212,
      "автобусе": 4213,
      "автомобиль": 4214,
      "Ар": 4215,
      "учительница": 4216,
      "проститут": 4217,
      "мони": 4218,
      "##чилась": 4219,
      "##жим": 4220,
      "##жидан": 4221,
      "большие": 4222,
      "право": 4223,
      "мальчика": 4224,
      "поидем": 4225,
      "Возв": 4226,
      "сверху": 4227,
      "Официант": 4228,
      "Блин": 4229,
      "Кла": 4230,
      "Ли": 4231,
      "През": 4232,
      "Учитель": 4233,
      "##шите": 4234,
      "##ax": 4235,
      "тои": 4236,
      "##мис": 4237,
      "большая": 4238,
      "начала": 4239,
      "вашего": 4240,
      "xxxx": 4241,
      "автомобил": 4242,
      "An": 4243,
      "вар": 4244,
      "##зем": 4245,
      "##pос": 4246,
      "руб": 4247,
      "твоеи": 4248,
      "ввер": 4249,
      "##дите": 4250,
      "##pь": 4251,
      "##няется": 4252,
      "##вяз": 4253,
      "Перед": 4254,
      "клас": 4255,
      "подошел": 4256,
      "ребенок": 4257,
      "телевизор": 4258,
      "мужчину": 4259,
      "изнасило": 4260,
      "?...": 4261,
      "лас": 4262,
      "##чая": 4263,
      "первую": 4264,
      "поставил": 4265,
      "ляг": 4266,
      "просыпается": 4267,
      "Пpи": 4268,
      "##жете": 4269,
      "##довои": 4270,
      "Даи": 4271,
      "сты": 4272,
      "брать": 4273,
      "очереди": 4274,
      "интересно": 4275,
      "буква": 4276,
      "гад": 4277,
      "оф": 4278,
      "##таль": 4279,
      "##кими": 4280,
      "##ответ": 4281,
      "выпу": 4282,
      "отда": 4283,
      "профессор": 4284,
      "##бые": 4285,
      "сади": 4286,
      "осталь": 4287,
      "мясо": 4288,
      "Москве": 4289,
      "желез": 4290,
      "Водитель": 4291,
      "становится": 4292,
      "90": 4293,
      "Зем": 4294,
      "круг": 4295,
      "##очка": 4296,
      "##кет": 4297,
      "##кру": 4298,
      "##щается": 4299,
      "наж": 4300,
      "##нила": 4301,
      "##стая": 4302,
      "##десят": 4303,
      "нужна": 4304,
      "родился": 4305,
      "Сидо": 4306,
      "фигу": 4307,
      "##10": 4308,
      "прово": 4309,
      "##поро": 4310,
      "мини": 4311,
      "площа": 4312,
      "помог": 4313,
      "##ологи": 4314,
      "этих": 4315,
      "побеж": 4316,
      "Бабушка": 4317,
      "Анд": 4318,
      "Здесь": 4319,
      "еле": 4320,
      "##вак": 4321,
      "##вались": 4322,
      "корова": 4323,
      "разб": 4324,
      "разговор": 4325,
      "руке": 4326,
      "##жии": 4327,
      "Маш": 4328,
      "логи": 4329,
      "практи": 4330,
      "приятеля": 4331,
      "Бу": 4332,
      "Ведь": 4333,
      "Едут": 4334,
      "Пот": 4335,
      "гал": 4336,
      "учен": 4337,
      "##шую": 4338,
      "пошла": 4339,
      "жениться": 4340,
      "##инеколо": 4341,
      "плать": 4342,
      "стране": 4343,
      "Sh": 4344,
      "Вал": 4345,
      "Глав": 4346,
      "Пята": 4347,
      "бас": 4348,
      "шел": 4349,
      "##шок": 4350,
      "##енная": 4351,
      "##рака": 4352,
      "заст": 4353,
      "##ковник": 4354,
      "курить": 4355,
      "коридо": 4356,
      "Пов": 4357,
      "Уже": 4358,
      "арм": 4359,
      "огу": 4360,
      "окон": 4361,
      "##iv": 4362,
      "##емо": 4363,
      "##вестно": 4364,
      "##леп": 4365,
      "##ставить": 4366,
      "фра": 4367,
      "стала": 4368,
      "Мужики": 4369,
      "##чув": 4370,
      "##ческого": 4371,
      "сидя": 4372,
      "##and": 4373,
      "задницу": 4374,
      "украин": 4375,
      "директор": 4376,
      "заметил": 4377,
      "собаку": 4378,
      "ищет": 4379,
      "Аф": 4380,
      "прось": 4381,
      "мобиль": 4382,
      "Пом": 4383,
      "также": 4384,
      "сыну": 4385,
      "Илья": 4386,
      ":(": 4387,
      "Пра": 4388,
      "озна": 4389,
      "замо": 4390,
      "захот": 4391,
      "##тие": 4392,
      "строи": 4393,
      "двадцать": 4394,
      "адми": 4395,
      "27": 4396,
      "Стра": 4397,
      "##ya": 4398,
      "##ev": 4399,
      "##раща": 4400,
      "подруг": 4401,
      "которых": 4402,
      "улицу": 4403,
      "иногда": 4404,
      "##нулись": 4405,
      "направ": 4406,
      "нужны": 4407,
      "однажды": 4408,
      "играет": 4409,
      "чуд": 4410,
      "##клад": 4411,
      "##шему": 4412,
      "госп": 4413,
      "слышал": 4414,
      "желания": 4415,
      "землю": 4416,
      "След": 4417,
      "##ия": 4418,
      "##стан": 4419,
      "колхо": 4420,
      "родители": 4421,
      "встречает": 4422,
      "придума": 4423,
      "джи": 4424,
      "зи": 4425,
      "##втра": 4426,
      "##жер": 4427,
      "костю": 4428,
      "выше": 4429,
      "прочит": 4430,
      "дост": 4431,
      "кус": 4432,
      "база": 4433,
      "##нитаз": 4434,
      "Сара": 4435,
      "смог": 4436,
      "Дире": 4437,
      "счастье": 4438,
      "Судья": 4439,
      "спpашивает": 4440,
      "Смотри": 4441,
      "бен": 4442,
      "##шать": 4443,
      "настро": 4444,
      "##елыи": 4445,
      "разв": 4446,
      "##ушке": 4447,
      "посов": 4448,
      "серьез": 4449,
      "производ": 4450,
      "самая": 4451,
      "пьют": 4452,
      "сма": 4453,
      "сцу": 4454,
      "цер": 4455,
      "посад": 4456,
      "рыба": 4457,
      "молодая": 4458,
      "возьми": 4459,
      "ногами": 4460,
      "дама": 4461,
      "дале": 4462,
      "##чается": 4463,
      "##бан": 4464,
      "понятно": 4465,
      "##нан": 4466,
      "зашел": 4467,
      "выра": 4468,
      "прошло": 4469,
      "##гар": 4470,
      "супер": 4471,
      "кир": 4472,
      "завис": 4473,
      "порно": 4474,
      "пистолет": 4475,
      "Дя": 4476,
      "сед": 4477,
      "##кро": 4478,
      "##яя": 4479,
      "##нке": 4480,
      "##итаи": 4481,
      "выз": 4482,
      "Ночь": 4483,
      "карма": 4484,
      "красныи": 4485,
      "гуля": 4486,
      "##клады": 4487,
      "Правда": 4488,
      "Господи": 4489,
      "60": 4490,
      "##рость": 4491,
      "##рим": 4492,
      "##покои": 4493,
      "знают": 4494,
      "конья": 4495,
      "однако": 4496,
      "Смотрит": 4497,
      "тюрь": 4498,
      ".:": 4499,
      "КА": 4500,
      "удар": 4501,
      "що": 4502,
      "##тое": 4503,
      "##еле": 4504,
      "##оте": 4505,
      "##рывается": 4506,
      "вода": 4507,
      "##жаю": 4508,
      "Откуда": 4509,
      "взяли": 4510,
      "подарок": 4511,
      "туалете": 4512,
      "отсут": 4513,
      "##опас": 4514,
      "##елся": 4515,
      "измен": 4516,
      "дали": 4517,
      "##шают": 4518,
      "##ческих": 4519,
      "человеку": 4520,
      "болез": 4521,
      "недоста": 4522,
      "друзеи": 4523,
      "Эк": 4524,
      "##дить": 4525,
      "наг": 4526,
      "неиз": 4527,
      "##циеи": 4528,
      "дают": 4529,
      "своло": 4530,
      "месяца": 4531,
      "смерть": 4532,
      "ресторан": 4533,
      "свадьбы": 4534,
      "Лука": 4535,
      "ест": 4536,
      "ща": 4537,
      "поима": 4538,
      "##лать": 4539,
      "говоря": 4540,
      "!!!!!": 4541,
      "##образ": 4542,
      "черт": 4543,
      "Мимо": 4544,
      "успе": 4545,
      "##sh": 4546,
      "##лично": 4547,
      "привез": 4548,
      "##жено": 4549,
      "шах": 4550,
      ":))": 4551,
      "пью": 4552,
      "устро": 4553,
      "##жить": 4554,
      "##жде": 4555,
      "##зер": 4556,
      "зака": 4557,
      "дочер": 4558,
      "видят": 4559,
      "напро": 4560,
      "труд": 4561,
      "Василь": 4562,
      "шеп": 4563,
      "любишь": 4564,
      "вверх": 4565,
      "Зам": 4566,
      "эко": 4567,
      "##чон": 4568,
      "##шев": 4569,
      "бара": 4570,
      "круп": 4571,
      "Чапа": 4572,
      "трое": 4573,
      "##pов": 4574,
      "##елеи": 4575,
      "##реб": 4576,
      "каком": 4577,
      "##енты": 4578,
      "Одес": 4579,
      "человеком": 4580,
      "вопросы": 4581,
      "читать": 4582,
      "Пушки": 4583,
      "япон": 4584,
      "##енного": 4585,
      "##енные": 4586,
      "поко": 4587,
      "кося": 4588,
      "выбо": 4589,
      "выити": 4590,
      "##тили": 4591,
      "предуп": 4592,
      "тело": 4593,
      "Боже": 4594,
      "Звонит": 4595,
      "смерти": 4596,
      "Мерсед": 4597,
      "......": 4598,
      "этому": 4599,
      "##дон": 4600,
      "##ходил": 4601,
      "каче": 4602,
      "##евич": 4603,
      "посы": 4604,
      "##совы": 4605,
      "матема": 4606,
      "англича": 4607,
      "навстречу": 4608,
      "Милыи": 4609,
      "Гер": 4610,
      "золо": 4611,
      "##рныи": 4612,
      "Помо": 4613,
      "##казали": 4614,
      "плат": 4615,
      "коло": 4616,
      "свете": 4617,
      "Волк": 4618,
      "##тюшка": 4619,
      "писа": 4620,
      "##av": 4621,
      "##недель": 4622,
      "##пати": 4623,
      "другое": 4624,
      "Ново": 4625,
      "Иваныч": 4626,
      "хватит": 4627,
      "мерт": 4628,
      "ресторане": 4629,
      "унитаз": 4630,
      "##ex": 4631,
      "##иля": 4632,
      "##вини": 4633,
      "думают": 4634,
      "наркоман": 4635,
      "фамилия": 4636,
      "ов": 4637,
      "##ица": 4638,
      "##чился": 4639,
      "##чным": 4640,
      "запи": 4641,
      "изменя": 4642,
      "Прода": 4643,
      "парня": 4644,
      "целыи": 4645,
      "Третии": 4646,
      "кров": 4647,
      "установ": 4648,
      "##чко": 4649,
      "##лал": 4650,
      "пола": 4651,
      "придет": 4652,
      "##ваете": 4653,
      "руко": 4654,
      "опас": 4655,
      "сапо": 4656,
      "бабка": 4657,
      "##ешил": 4658,
      "книгу": 4659,
      "висит": 4660,
      "Любовь": 4661,
      "Встрет": 4662,
      "Двое": 4663,
      "##лить": 4664,
      "##гна": 4665,
      "##шед": 4666,
      "##st": 4667,
      "приехал": 4668,
      "оба": 4669,
      "соседа": 4670,
      "##жец": 4671,
      "первым": 4672,
      "контро": 4673,
      "начинают": 4674,
      "школы": 4675,
      "##атр": 4676,
      "заниматься": 4677,
      "Совет": 4678,
      "достоин": 4679,
      "Пьяныи": 4680,
      "огра": 4681,
      "сбор": 4682,
      "##щения": 4683,
      "вышла": 4684,
      "Коман": 4685,
      "##ant": 4686,
      "Бога": 4687,
      "##ступил": 4688,
      "студента": 4689,
      "глупо": 4690,
      "тянет": 4691,
      "идиот": 4692,
      "написать": 4693,
      "замеча": 4694,
      "##овлет": 4695,
      "##рыг": 4696,
      "раздается": 4697,
      "##елье": 4698,
      "конкур": 4699,
      "следует": 4700,
      "работаю": 4701,
      "Представляешь": 4702,
      "Ду": 4703,
      "Кра": 4704,
      "еду": 4705,
      "мину": 4706,
      "##юард": 4707,
      "##СЯ": 4708,
      "кошка": 4709,
      "выбира": 4710,
      "посет": 4711,
      "##ленныи": 4712,
      "каждого": 4713,
      "Бло": 4714,
      "ои": 4715,
      "##ion": 4716,
      "##шно": 4717,
      "##рым": 4718,
      "##ект": 4719,
      "задер": 4720,
      "шоке": 4721,
      "мечта": 4722,
      "велос": 4723,
      "зала": 4724,
      "##чения": 4725,
      "##дин": 4726,
      "##стыи": 4727,
      "маи": 4728,
      "любил": 4729,
      "достаточно": 4730,
      "порядке": 4731,
      "кладби": 4732,
      "Директор": 4733,
      "пь": 4734,
      "шля": 4735,
      "##пала": 4736,
      "##рку": 4737,
      "##zz": 4738,
      "##инку": 4739,
      "##ольше": 4740,
      "съел": 4741,
      "##солютно": 4742,
      "Гу": 4743,
      "Сем": 4744,
      "##тем": 4745,
      "##ив": 4746,
      "небо": 4747,
      "забра": 4748,
      "подня": 4749,
      "тарел": 4750,
      "котором": 4751,
      "полз": 4752,
      "Програм": 4753,
      "крик": 4754,
      "семья": 4755,
      "##ствии": 4756,
      "близ": 4757,
      "компании": 4758,
      "мысль": 4759,
      "Евреи": 4760,
      "кота": 4761,
      "рос": 4762,
      "нами": 4763,
      "##раздо": 4764,
      "боюсь": 4765,
      "##pав": 4766,
      "последнее": 4767,
      "встал": 4768,
      "##ницеи": 4769,
      "глядя": 4770,
      "Ис": 4771,
      "бьет": 4772,
      "##тал": 4773,
      "##жник": 4774,
      "наход": 4775,
      "##лился": 4776,
      "##ково": 4777,
      "##года": 4778,
      "##щица": 4779,
      "столом": 4780,
      "самые": 4781,
      "помочь": 4782,
      "врача": 4783,
      "поставить": 4784,
      "сердце": 4785,
      "аль": 4786,
      "бросил": 4787,
      "гар": 4788,
      "крес": 4789,
      "св": 4790,
      "##тся": 4791,
      "##ести": 4792,
      "наших": 4793,
      "##надцать": 4794,
      "##рился": 4795,
      "выб": 4796,
      "##едо": 4797,
      "пропа": 4798,
      "##тах": 4799,
      "каким": 4800,
      "культу": 4801,
      "инспек": 4802,
      "суб": 4803,
      "##глядывает": 4804,
      "##канчи": 4805,
      "газету": 4806,
      "##ходимо": 4807,
      "универ": 4808,
      "##рабаты": 4809,
      "содер": 4810,
      "Бар": 4811,
      "Дев": 4812,
      "Кру": 4813,
      "дала": 4814,
      "##пить": 4815,
      "##шои": 4816,
      "##сеи": 4817,
      "сох": 4818,
      "даите": 4819,
      "публи": 4820,
      "Пари": 4821,
      "думать": 4822,
      "##зии": 4823,
      "рыб": 4824,
      "##низм": 4825,
      "Видит": 4826,
      "удал": 4827,
      "##торы": 4828,
      "постро": 4829,
      "##тино": 4830,
      "бывают": 4831,
      "черныи": 4832,
      "водо": 4833,
      "институт": 4834,
      "беремен": 4835,
      "##печат": 4836,
      "другим": 4837,
      "марш": 4838,
      "Гаишник": 4839,
      "Ино": 4840,
      "Пла": 4841,
      "##пку": 4842,
      "##ИД": 4843,
      "##мор": 4844,
      "##тые": 4845,
      "думаете": 4846,
      "искус": 4847,
      "похоро": 4848,
      "анекдот": 4849,
      "##чез": 4850,
      "##сно": 4851,
      "##ыш": 4852,
      "националь": 4853,
      "вари": 4854,
      "вашу": 4855,
      "##метров": 4856,
      "остальные": 4857,
      "Настоя": 4858,
      "кирпи": 4859,
      "##pом": 4860,
      "##еннои": 4861,
      "неп": 4862,
      "##реза": 4863,
      "мона": 4864,
      "первых": 4865,
      "Навер": 4866,
      "дав": 4867,
      "летит": 4868,
      "собствен": 4869,
      "Молодец": 4870,
      "##подаватель": 4871,
      "пользова": 4872,
      "Правильно": 4873,
      "смысле": 4874,
      "Или": 4875,
      "транс": 4876,
      "##онов": 4877,
      "##чник": 4878,
      "##юр": 4879,
      "##енных": 4880,
      "пожи": 4881,
      "полю": 4882,
      "##ови": 4883,
      "лица": 4884,
      "баш": 4885,
      "##овая": 4886,
      "Первая": 4887,
      "рыбал": 4888,
      "##тяги": 4889,
      "собаки": 4890,
      "Женщины": 4891,
      "настолько": 4892,
      "мужиков": 4893,
      "бизнес": 4894,
      "МО": 4895,
      "ана": 4896,
      "прем": 4897,
      "##они": 4898,
      "отп": 4899,
      "##нувшись": 4900,
      "мужем": 4901,
      "##дим": 4902,
      "Народ": 4903,
      "купе": 4904,
      "будто": 4905,
      "##стон": 4906,
      "Люди": 4907,
      "учени": 4908,
      "чувство": 4909,
      "похм": 4910,
      "является": 4911,
      "задумчиво": 4912,
      "45": 4913,
      "Фи": 4914,
      "ред": 4915,
      "##щал": 4916,
      "##итен": 4917,
      "пои": 4918,
      "приня": 4919,
      "обои": 4920,
      "Нарко": 4921,
      "##сах": 4922,
      "Ваша": 4923,
      "каждои": 4924,
      "солн": 4925,
      "поворачивается": 4926,
      "останавливается": 4927,
      "электро": 4928,
      "психи": 4929,
      "ВО": 4930,
      "млад": 4931,
      "ны": 4932,
      "сдох": 4933,
      "уз": 4934,
      "##пет": 4935,
      "мастер": 4936,
      "решила": 4937,
      "##ческое": 4938,
      "сестра": 4939,
      "этаж": 4940,
      "##))))))))": 4941,
      "Интересно": 4942,
      "нэ": 4943,
      "ремон": 4944,
      "##uk": 4945,
      "завод": 4946,
      "мото": 4947,
      "лиш": 4948,
      "##пила": 4949,
      "больно": 4950,
      "семеи": 4951,
      ":)\"": 4952,
      "потерял": 4953,
      "разговаривают": 4954,
      "замечает": 4955,
      "дворе": 4956,
      "зарплату": 4957,
      "Га": 4958,
      "дро": 4959,
      "пяти": 4960,
      "руж": 4961,
      "сала": 4962,
      "##шем": 4963,
      "##ворачи": 4964,
      "##нистра": 4965,
      "тока": 4966,
      "##ляются": 4967,
      "Пожалуиста": 4968,
      "##дила": 4969,
      "однов": 4970,
      "##дую": 4971,
      "получает": 4972,
      "честь": 4973,
      "смотрел": 4974,
      "вторая": 4975,
      "Никогда": 4976,
      "поменя": 4977,
      "In": 4978,
      "бод": 4979,
      "вп": 4980,
      "гинеколо": 4981,
      "##хол": 4982,
      "мужику": 4983,
      "##чаются": 4984,
      "первая": 4985,
      "старик": 4986,
      "##лые": 4987,
      "хотела": 4988,
      "Послед": 4989,
      "рыбку": 4990,
      "крови": 4991,
      "креп": 4992,
      "господ": 4993,
      "000": 4994,
      "Ник": 4995,
      "ам": 4996,
      "км": 4997,
      "##кy": 4998,
      "##жение": 4999,
      "поза": 5000,
      "поря": 5001,
      "зага": 5002,
      "коп": 5003,
      "выяс": 5004,
      "выраж": 5005,
      "##стань": 5006,
      "второго": 5007,
      "##ent": 5008,
      "анти": 5009,
      "уроке": 5010,
      "Чеб": 5011,
      "сго": 5012,
      "##лист": 5013,
      "вызывает": 5014,
      "спис": 5015,
      "рулем": 5016,
      "другая": 5017,
      "хотят": 5018,
      "минет": 5019,
      "грамм": 5020,
      "трез": 5021,
      "подоз": 5022,
      "дедушка": 5023,
      "холодильник": 5024,
      "Владимир": 5025,
      "##юардес": 5026,
      "ДА": 5027,
      "Ум": 5028,
      "ся": 5029,
      "##pя": 5030,
      "##man": 5031,
      "##волю": 5032,
      "городе": 5033,
      "воп": 5034,
      "##дир": 5035,
      "спрашиваю": 5036,
      "которое": 5037,
      "##erg": 5038,
      "девушек": 5039,
      "плохая": 5040,
      "секунд": 5041,
      "##овлетвор": 5042,
      "Вз": 5043,
      "Им": 5044,
      "кстати": 5045,
      "ууу": 5046,
      "##мит": 5047,
      "##ix": 5048,
      "##лением": 5049,
      "##др": 5050,
      "##НЫ": 5051,
      "незна": 5052,
      "##чками": 5053,
      "живу": 5054,
      "сервер": 5055,
      "##ark": 5056,
      "мальчи": 5057,
      "пришлось": 5058,
      "Тем": 5059,
      "##теля": 5060,
      "##стин": 5061,
      "##вок": 5062,
      "подбегает": 5063,
      "видели": 5064,
      "##ченныи": 5065,
      "скорость": 5066,
      "ветер": 5067,
      "Ме": 5068,
      "##сит": 5069,
      "##ТА": 5070,
      "##рату": 5071,
      "засу": 5072,
      "гос": 5073,
      "говорите": 5074,
      "##етели": 5075,
      "##ительныи": 5076,
      "безопас": 5077,
      "получить": 5078,
      "хирур": 5079,
      "клиент": 5080,
      "##оборот": 5081,
      "едут": 5082,
      "сал": 5083,
      "##нку": 5084,
      "##aw": 5085,
      "##бря": 5086,
      "##цин": 5087,
      "##валась": 5088,
      "гораздо": 5089,
      "руба": 5090,
      "чемо": 5091,
      "умныи": 5092,
      "Петя": 5093,
      "блть": 5094,
      "еврея": 5095,
      "бутылки": 5096,
      "Пусть": 5097,
      "предлагает": 5098,
      "Говорят": 5099,
      "неожидан": 5100,
      "находится": 5101,
      "велосип": 5102,
      "Изя": 5103,
      "Тол": 5104,
      "беж": 5105,
      "ем": 5106,
      "кал": 5107,
      "осо": 5108,
      "поддер": 5109,
      "##жают": 5110,
      "лопа": 5111,
      "прапорщик": 5112,
      "ведро": 5113,
      "бесплатно": 5114,
      "Авто": 5115,
      "Моло": 5116,
      "вход": 5117,
      "включ": 5118,
      "дpу": 5119,
      "##ou": 5120,
      "##ec": 5121,
      "##СЕ": 5122,
      "поговор": 5123,
      "##лица": 5124,
      "##лосо": 5125,
      "##инеи": 5126,
      "##чинои": 5127,
      "сидел": 5128,
      "меди": 5129,
      "козел": 5130,
      "слышу": 5131,
      "Ген": 5132,
      "Сначала": 5133,
      "бю": 5134,
      "тек": 5135,
      "ящик": 5136,
      "##ыта": 5137,
      "дочка": 5138,
      "разные": 5139,
      "##гуля": 5140,
      "##окра": 5141,
      "скажет": 5142,
      "ходил": 5143,
      "исчез": 5144,
      "Однако": 5145,
      "маму": 5146,
      "легче": 5147,
      "Господа": 5148,
      "спросили": 5149,
      "искать": 5150,
      "Блондин": 5151,
      "Ох": 5152,
      "ски": 5153,
      "тp": 5154,
      "##вес": 5155,
      "##тех": 5156,
      "видите": 5157,
      "сука": 5158,
      "минуты": 5159,
      "убил": 5160,
      "жопа": 5161,
      "чисто": 5162,
      "живут": 5163,
      "опоз": 5164,
      "Рекла": 5165,
      "ТА": 5166,
      "Хм": 5167,
      "встреча": 5168,
      "уст": 5169,
      "учит": 5170,
      "заканчи": 5171,
      "##рек": 5172,
      "рано": 5173,
      "моря": 5174,
      "новое": 5175,
      "Началь": 5176,
      "##траф": 5177,
      "груди": 5178,
      "псих": 5179,
      "шкаф": 5180,
      "аптеку": 5181,
      "платье": 5182,
      "Лев": 5183,
      "афо": 5184,
      "тему": 5185,
      "##ах": 5186,
      "##гер": 5187,
      "##РУ": 5188,
      "##ужд": 5189,
      "краса": 5190,
      "##скакивает": 5191,
      "спорт": 5192,
      "Расс": 5193,
      "естественно": 5194,
      "жил": 5195,
      "сна": 5196,
      "##жан": 5197,
      "##лили": 5198,
      "людя": 5199,
      "Завтра": 5200,
      "ваше": 5201,
      "##тельныи": 5202,
      "##фиг": 5203,
      "вино": 5204,
      "правитель": 5205,
      "роз": 5206,
      "убеж": 5207,
      "терп": 5208,
      "милиционер": 5209,
      "##порожец": 5210,
      "напротив": 5211,
      "No": 5212,
      "СП": 5213,
      "Шо": 5214,
      "гаи": 5215,
      "ори": 5216,
      "##ана": 5217,
      "##жения": 5218,
      "##ИБ": 5219,
      "вызы": 5220,
      "семье": 5221,
      "мамы": 5222,
      "узнал": 5223,
      "миллион": 5224,
      "Пло": 5225,
      "кp": 5226,
      "це": 5227,
      "##рожно": 5228,
      "приносит": 5229,
      "тарака": 5230,
      "##сила": 5231,
      "##бур": 5232,
      "нашем": 5233,
      "рыбу": 5234,
      "поздрав": 5235,
      "гордо": 5236,
      "Алексан": 5237,
      "ав": 5238,
      "зр": 5239,
      "##чились": 5240,
      "##вило": 5241,
      "##енности": 5242,
      "полити": 5243,
      "?\"\"": 5244,
      "##ственная": 5245,
      "восп": 5246,
      "офици": 5247,
      "Вторая": 5248,
      "необходимо": 5249,
      "шампан": 5250,
      "одновременно": 5251,
      "ауди": 5252,
      "код": 5253,
      "оз": 5254,
      "судь": 5255,
      "твое": 5256,
      "##шо": 5257,
      "##фер": 5258,
      "##11": 5259,
      "понедель": 5260,
      "занят": 5261,
      "кора": 5262,
      "сожал": 5263,
      "##бом": 5264,
      "##тели": 5265,
      "?!-": 5266,
      "плачет": 5267,
      "Старыи": 5268,
      "учеб": 5269,
      "продолжает": 5270,
      "бухгал": 5271,
      "80": 5272,
      "##ly": 5273,
      "##щь": 5274,
      "заказ": 5275,
      "##ходите": 5276,
      "стене": 5277,
      "лично": 5278,
      "##алог": 5279,
      "##ческим": 5280,
      "вторую": 5281,
      "чаще": 5282,
      "удивленно": 5283,
      "Джон": 5284,
      "неболь": 5285,
      "зеркало": 5286,
      "Хозяин": 5287,
      "Взя": 5288,
      "Пас": 5289,
      "Свя": 5290,
      "##чев": 5291,
      "##нете": 5292,
      "##щев": 5293,
      "##пая": 5294,
      "напря": 5295,
      "получится": 5296,
      "##ваюсь": 5297,
      "ходят": 5298,
      "ребята": 5299,
      "белыи": 5300,
      "симпати": 5301,
      "абсолютно": 5302,
      "количество": 5303,
      "аж": 5304,
      "блю": 5305,
      "оказывается": 5306,
      "##епа": 5307,
      "##ek": 5308,
      "пог": 5309,
      "поис": 5310,
      "неза": 5311,
      "соответ": 5312,
      "размер": 5313,
      "табли": 5314,
      "препод": 5315,
      "видела": 5316,
      "молчит": 5317,
      "верх": 5318,
      "мусор": 5319,
      "родствен": 5320,
      "начинается": 5321,
      "открыл": 5322,
      "цвета": 5323,
      "##едуют": 5324,
      "##бежал": 5325,
      "Останавли": 5326,
      "невозможно": 5327,
      "Сидоров": 5328,
      "Чебура": 5329,
      "01": 5330,
      "Уважаем": 5331,
      "##тоp": 5332,
      ".......": 5333,
      "##маз": 5334,
      "умеет": 5335,
      "одино": 5336,
      "происходит": 5337,
      "пустыне": 5338,
      "Ус": 5339,
      "мак": 5340,
      "уча": 5341,
      "участ": 5342,
      "##цер": 5343,
      "##эро": 5344,
      "повез": 5345,
      "##роят": 5346,
      "##нина": 5347,
      "забо": 5348,
      "##идо": 5349,
      "представля": 5350,
      "хотели": 5351,
      "успел": 5352,
      "гаишник": 5353,
      "##щает": 5354,
      "##олет": 5355,
      "достал": 5356,
      "##идите": 5357,
      "##цик": 5358,
      "##тым": 5359,
      "бог": 5360,
      "услови": 5361,
      "Короче": 5362,
      "Бра": 5363,
      "ГО": 5364,
      "срочно": 5365,
      "фот": 5366,
      "ще": 5367,
      "##ие": 5368,
      "##яю": 5369,
      "##ey": 5370,
      "1000": 5371,
      "внимания": 5372,
      "сочинения": 5373,
      "28": 5374,
      "пакет": 5375,
      "##овать": 5376,
      "##МА": 5377,
      "пору": 5378,
      "##ровал": 5379,
      "начали": 5380,
      "наоборот": 5381,
      "##кома": 5382,
      "капитан": 5383,
      "никому": 5384,
      "##щика": 5385,
      "##гиб": 5386,
      "беспоко": 5387,
      "лест": 5388,
      "пользу": 5389,
      "джент": 5390,
      "70": 5391,
      "Американ": 5392,
      "ЧТО": 5393,
      "отор": 5394,
      "##вращ": 5395,
      "##мыи": 5396,
      "##цов": 5397,
      "##роб": 5398,
      "##низу": 5399,
      "##руют": 5400,
      "##уду": 5401,
      "ниже": 5402,
      "бабы": 5403,
      "попросил": 5404,
      "отвечают": 5405,
      "##ститу": 5406,
      "земле": 5407,
      "появился": 5408,
      "##форма": 5409,
      "принци": 5410,
      "президент": 5411,
      "разгово": 5412,
      "Презид": 5413,
      "Сла": 5414,
      "Фран": 5415,
      "виз": 5416,
      "остро": 5417,
      "плы": 5418,
      "уров": 5419,
      "##гел": 5420,
      "##фон": 5421,
      "##рочка": 5422,
      "##наче": 5423,
      "забер": 5424,
      "спросить": 5425,
      "кара": 5426,
      "таком": 5427,
      "вечера": 5428,
      "##ственное": 5429,
      "Стран": 5430,
      "новости": 5431,
      "отсюда": 5432,
      "оказалось": 5433,
      "мужчине": 5434,
      "дядя": 5435,
      "везде": 5436,
      "осто": 5437,
      "тал": 5438,
      "##рр": 5439,
      "##МО": 5440,
      "пош": 5441,
      "##лали": 5442,
      "##рыз": 5443,
      "оби": 5444,
      "##енность": 5445,
      "Какое": 5446,
      "состо": 5447,
      "кладет": 5448,
      "радостно": 5449,
      "джин": 5450,
      "означает": 5451,
      "Вос": 5452,
      "Генера": 5453,
      "встречаются": 5454,
      "опу": 5455,
      "##ентом": 5456,
      "##лика": 5457,
      "пивом": 5458,
      "##ставил": 5459,
      "Этот": 5460,
      "страны": 5461,
      "курс": 5462,
      "курит": 5463,
      "##пускает": 5464,
      "животных": 5465,
      "девочки": 5466,
      "Мент": 5467,
      "Нам": 5468,
      "Тру": 5469,
      "ага": 5470,
      "спра": 5471,
      "разоб": 5472,
      "##бивает": 5473,
      "водои": 5474,
      "цветы": 5475,
      "прекрасно": 5476,
      "тяжело": 5477,
      "документы": 5478,
      "сцуко": 5479,
      "далеко": 5480,
      "суббот": 5481,
      "велосипед": 5482,
      "pу": 5483,
      "Здо": 5484,
      "ТО": 5485,
      "Шеф": 5486,
      "вред": 5487,
      "дв": 5488,
      "##цам": 5489,
      "поити": 5490,
      "##лигент": 5491,
      "неправ": 5492,
      "##ревно": 5493,
      "##илу": 5494,
      "##альше": 5495,
      "Неужели": 5496,
      "##енном": 5497,
      "депута": 5498,
      "восемь": 5499,
      "мяг": 5500,
      "блондинки": 5501,
      "Вели": 5502,
      "Час": 5503,
      "син": 5504,
      "тела": 5505,
      "##ac": 5506,
      "##oc": 5507,
      "нарис": 5508,
      "причем": 5509,
      "##альнои": 5510,
      "стоял": 5511,
      "полет": 5512,
      "полно": 5513,
      "##летел": 5514,
      "вина": 5515,
      "помогает": 5516,
      "Москва": 5517,
      "ставит": 5518,
      "купила": 5519,
      "пациент": 5520,
      "стыдно": 5521,
      "Бреж": 5522,
      "ощу": 5523,
      "ушла": 5524,
      "##рят": 5525,
      "##цан": 5526,
      "отвер": 5527,
      "развед": 5528,
      "пау": 5529,
      "рук": 5530,
      "любои": 5531,
      "##шали": 5532,
      "##орд": 5533,
      "хозяи": 5534,
      "собирается": 5535,
      "медведя": 5536,
      "Пятачок": 5537,
      "Ги": 5538,
      "американец": 5539,
      "зале": 5540,
      "мy": 5541,
      "пя": 5542,
      "трои": 5543,
      "##оз": 5544,
      "##ЕЛ": 5545,
      "##рали": 5546,
      "##дии": 5547,
      "##лера": 5548,
      "##почку": 5549,
      "честно": 5550,
      "сделала": 5551,
      "приятно": 5552,
      "милыи": 5553,
      "состоянии": 5554,
      "pас": 5555,
      "Нес": 5556,
      "жид": 5557,
      "хак": 5558,
      "##ченька": 5559,
      "топ": 5560,
      "##мар": 5561,
      "прошу": 5562,
      "раздел": 5563,
      "пути": 5564,
      "Гоги": 5565,
      "##lex": 5566,
      "##стях": 5567,
      "удовлетвор": 5568,
      "впереди": 5569,
      "Интернет": 5570,
      "Билл": 5571,
      "##кер": 5572,
      "##нда": 5573,
      "##нему": 5574,
      "станет": 5575,
      "чемпи": 5576,
      "скорее": 5577,
      "ужин": 5578,
      "банк": 5579,
      "всеми": 5580,
      "самолета": 5581,
      "угол": 5582,
      "палец": 5583,
      "обнаружи": 5584,
      "хвост": 5585,
      "Бура": 5586,
      "кис": 5587,
      "##мала": 5588,
      "##ером": 5589,
      "##ывать": 5590,
      "##дала": 5591,
      "##бки": 5592,
      "каз": 5593,
      "стола": 5594,
      "##ствуи": 5595,
      "Ваши": 5596,
      "домаш": 5597,
      "карты": 5598,
      "помнишь": 5599,
      "диск": 5600,
      "презерватив": 5601,
      "золотую": 5602,
      "##oft": 5603,
      "продук": 5604,
      "Встретились": 5605,
      "Бор": 5606,
      "Кро": 5607,
      "бро": 5608,
      "днем": 5609,
      "кг": 5610,
      "##жо": 5611,
      "##ДД": 5612,
      "##ER": 5613,
      "##роп": 5614,
      "приго": 5615,
      "лицом": 5616,
      "дорого": 5617,
      "Купил": 5618,
      "священ": 5619,
      "пишут": 5620,
      "балко": 5621,
      "пахнет": 5622,
      "an": 5623,
      "оружи": 5624,
      "устрои": 5625,
      "##жил": 5626,
      "забол": 5627,
      "каза": 5628,
      "обес": 5629,
      "низ": 5630,
      "Зато": 5631,
      "предмет": 5632,
      "Петр": 5633,
      "понимаете": 5634,
      "лежат": 5635,
      "Люби": 5636,
      "буты": 5637,
      "воскрес": 5638,
      "командировки": 5639,
      "БА": 5640,
      "Мин": 5641,
      "рак": 5642,
      "як": 5643,
      "##мся": 5644,
      "##жеи": 5645,
      "##eg": 5646,
      "##ерб": 5647,
      "##тивно": 5648,
      "##мое": 5649,
      "мадам": 5650,
      "открывается": 5651,
      "приходится": 5652,
      "история": 5653,
      "Продавец": 5654,
      "32": 5655,
      "Арм": 5656,
      "Мили": 5657,
      "Тел": 5658,
      "пету": 5659,
      "смен": 5660,
      "##точку": 5661,
      "##иты": 5662,
      "показ": 5663,
      "##кана": 5664,
      "##коми": 5665,
      "##интер": 5666,
      "##сье": 5667,
      "сож": 5668,
      "Пошли": 5669,
      "##зации": 5670,
      "##выми": 5671,
      "##ледова": 5672,
      "опыт": 5673,
      "грустныи": 5674,
      "##ствием": 5675,
      "пальцем": 5676,
      "Медведь": 5677,
      "натуре": 5678,
      "шепчет": 5679,
      "Решил": 5680,
      "лоб": 5681,
      "##атра": 5682,
      "##пки": 5683,
      "##емокра": 5684,
      "##люсь": 5685,
      "преступ": 5686,
      "Затем": 5687,
      "колле": 5688,
      "комнаты": 5689,
      "вокз": 5690,
      "килограм": 5691,
      "##--------": 5692,
      "Ch": 5693,
      "Ее": 5694,
      "лис": 5695,
      "##ык": 5696,
      "##12": 5697,
      "##рики": 5698,
      "##нись": 5699,
      "##льныи": 5700,
      "знак": 5701,
      "##тера": 5702,
      "души": 5703,
      "делал": 5704,
      "##сора": 5705,
      "##никам": 5706,
      "берем": 5707,
      "борь": 5708,
      "##ждение": 5709,
      "попугаи": 5710,
      "средство": 5711,
      "одина": 5712,
      "Просы": 5713,
      "экономи": 5714,
      "Ла": 5715,
      "кло": 5716,
      "китаи": 5717,
      "##iz": 5718,
      "##лку": 5719,
      "##душ": 5720,
      "...,": 5721,
      "##логи": 5722,
      "##дец": 5723,
      "##била": 5724,
      "попроси": 5725,
      "?\".": 5726,
      "автомат": 5727,
      "делаю": 5728,
      "отдыха": 5729,
      "налого": 5730,
      "Наверное": 5731,
      "Al": 5732,
      "Сек": 5733,
      "або": 5734,
      "нить": 5735,
      "чему": 5736,
      "##ию": 5737,
      "##етку": 5738,
      "##рались": 5739,
      "##лию": 5740,
      "запом": 5741,
      "##мон": 5742,
      "стук": 5743,
      "##чества": 5744,
      "##ворил": 5745,
      "##олог": 5746,
      "Мороз": 5747,
      "##ros": 5748,
      "милиции": 5749,
      "Возь": 5750,
      "Геит": 5751,
      "Буратино": 5752,
      "##ест": 5753,
      "##ьер": 5754,
      "##og": 5755,
      "##зма": 5756,
      "##52007": 5757,
      "заработ": 5758,
      "относ": 5759,
      "обма": 5760,
      "вор": 5761,
      "##елья": 5762,
      "##иская": 5763,
      "##жали": 5764,
      "##тых": 5765,
      "фору": 5766,
      "внимание": 5767,
      "##езжают": 5768,
      "помощью": 5769,
      "Спрашивает": 5770,
      "35": 5771,
      "Hy": 5772,
      "Дом": 5773,
      "##вка": 5774,
      "##уна": 5775,
      "##ппа": 5776,
      "##янин": 5777,
      "##гно": 5778,
      "##ht": 5779,
      "##\"\"": 5780,
      "##бовать": 5781,
      "папе": 5782,
      "Наш": 5783,
      "пиа": 5784,
      "полныи": 5785,
      "медсе": 5786,
      "основ": 5787,
      "говоришь": 5788,
      "деревне": 5789,
      "##кладывает": 5790,
      "супру": 5791,
      "память": 5792,
      "Возвращается": 5793,
      "офис": 5794,
      "Ника": 5795,
      "Хи": 5796,
      "Ход": 5797,
      "скры": 5798,
      "фун": 5799,
      "##нк": 5800,
      "##ab": 5801,
      "захо": 5802,
      "выки": 5803,
      "выпили": 5804,
      "моро": 5805,
      "обращ": 5806,
      "женскии": 5807,
      "верблю": 5808,
      "сила": 5809,
      "потеря": 5810,
      "командир": 5811,
      "картину": 5812,
      "дерьмо": 5813,
      "стекло": 5814,
      "Блондинка": 5815,
      "Дер": 5816,
      "СО": 5817,
      "сня": 5818,
      "ссы": 5819,
      "накло": 5820,
      "##иле": 5821,
      "##жила": 5822,
      "##гули": 5823,
      "можем": 5824,
      "пуска": 5825,
      "жалко": 5826,
      "мозги": 5827,
      "Соба": 5828,
      "ваннои": 5829,
      "Красная": 5830,
      "дочери": 5831,
      "Ор": 5832,
      "##ивает": 5833,
      "##пка": 5834,
      "##хло": 5835,
      "##КУ": 5836,
      "разных": 5837,
      "##дина": 5838,
      "тещу": 5839,
      "черепа": 5840,
      "водителя": 5841,
      "##ован": 5842,
      "русски": 5843,
      "Богу": 5844,
      "остается": 5845,
      "носки": 5846,
      "языка": 5847,
      "официант": 5848,
      "буквы": 5849,
      "считать": 5850,
      "ведет": 5851,
      "бумаги": 5852,
      "Коля": 5853,
      "Зак": 5854,
      "деб": 5855,
      "зел": 5856,
      "опа": 5857,
      "эро": 5858,
      "##жке": 5859,
      "##ДИ": 5860,
      "поед": 5861,
      "##лив": 5862,
      "##чив": 5863,
      "##ходим": 5864,
      "##ступа": 5865,
      "##ang": 5866,
      "остался": 5867,
      "объяснить": 5868,
      "памят": 5869,
      "отлично": 5870,
      "Деньги": 5871,
      "##лимпи": 5872,
      "Наркоман": 5873,
      "Кита": 5874,
      "##нду": 5875,
      "##pем": 5876,
      "##стые": 5877,
      "##ризм": 5878,
      "кула": 5879,
      "автома": 5880,
      "рога": 5881,
      "150": 5882,
      "умею": 5883,
      "бросает": 5884,
      "углу": 5885,
      "отпуск": 5886,
      "Зол": 5887,
      "Уж": 5888,
      "бить": 5889,
      "##ько": 5890,
      "##ься": 5891,
      "##геи": 5892,
      "##шается": 5893,
      "##УУ": 5894,
      "##носят": 5895,
      "завер": 5896,
      "##искои": 5897,
      "баре": 5898,
      "опти": 5899,
      "сидеть": 5900,
      "предло": 5901,
      "платить": 5902,
      "тишина": 5903,
      "утвер": 5904,
      "Ничто": 5905,
      "объясняет": 5906,
      "негр": 5907,
      "Долго": 5908,
      "Экзам": 5909,
      "26": 5910,
      "sh": 5911,
      "Всем": 5912,
      "ДО": 5913,
      "аи": 5914,
      "пита": 5915,
      "цы": 5916,
      "шум": 5917,
      "##ub": 5918,
      "##жду": 5919,
      "##тору": 5920,
      "##рости": 5921,
      "зара": 5922,
      "обал": 5923,
      "Поку": 5924,
      "##циент": 5925,
      "##жая": 5926,
      "любить": 5927,
      "##ваися": 5928,
      "##брал": 5929,
      "парт": 5930,
      "чеp": 5931,
      "открыть": 5932,
      "годы": 5933,
      "магазина": 5934,
      "игры": 5935,
      "проверить": 5936,
      "понравилось": 5937,
      "сволочь": 5938,
      "Мерседес": 5939,
      "кровь": 5940,
      "Командир": 5941,
      "Ост": 5942,
      "ТЫ": 5943,
      "##нится": 5944,
      "отказ": 5945,
      "приходят": 5946,
      "ногои": 5947,
      "паца": 5948,
      "##анс": 5949,
      "##???": 5950,
      "перевод": 5951,
      "роман": 5952,
      "этажа": 5953,
      "подруга": 5954,
      "ширин": 5955,
      "##вшиися": 5956,
      "ключ": 5957,
      "тяжел": 5958,
      "Гражда": 5959,
      "посовет": 5960,
      "Кам": 5961,
      "ЭТО": 5962,
      "пл": 5963,
      "роб": 5964,
      "ужа": 5965,
      "##ДО": 5966,
      "##ваитесь": 5967,
      "приготов": 5968,
      "новои": 5969,
      "##гали": 5970,
      "разме": 5971,
      "##пора": 5972,
      "стоять": 5973,
      "##стоя": 5974,
      "запре": 5975,
      "граду": 5976,
      "лежа": 5977,
      "охра": 5978,
      "тормоз": 5979,
      "зоопа": 5980,
      "очереднои": 5981,
      "Начальник": 5982,
      "сожалению": 5983,
      "НО": 5984,
      "ОН": 5985,
      "сц": 5986,
      "твер": 5987,
      "##гнал": 5988,
      "##yт": 5989,
      "##нож": 5990,
      "комис": 5991,
      "##рест": 5992,
      "раду": 5993,
      "##курат": 5994,
      "отдох": 5995,
      "##едленно": 5996,
      "парти": 5997,
      "взрос": 5998,
      "истории": 5999,
      "Дедушка": 6000,
      "образом": 6001,
      "поднимается": 6002,
      "Ребята": 6003,
      "фла": 6004,
      "##нки": 6005,
      "##НЕ": 6006,
      "нака": 6007,
      "##кот": 6008,
      "##нилось": 6009,
      "добра": 6010,
      "##чис": 6011,
      "##ционе": 6012,
      "самои": 6013,
      "##выря": 6014,
      "инжен": 6015,
      "получилось": 6016,
      "аппа": 6017,
      "говорила": 6018,
      "резко": 6019,
      "огромныи": 6020,
      "друзьями": 6021,
      "обсуж": 6022,
      "парашю": 6023,
      "##виату": 6024,
      "кусок": 6025,
      "жут": 6026,
      "##оч": 6027,
      "замер": 6028,
      "завед": 6029,
      "выступ": 6030,
      "прохо": 6031,
      "приезжает": 6032,
      "ник": 6033,
      "##хали": 6034,
      "жир": 6035,
      "света": 6036,
      "Горы": 6037,
      "##ааа": 6038,
      "взяла": 6039,
      "девчон": 6040,
      "поидет": 6041,
      "учиться": 6042,
      "имею": 6043,
      "скорости": 6044,
      "поводу": 6045,
      "выдерживает": 6046,
      "помощь": 6047,
      "огур": 6048,
      "мотоцик": 6049,
      "Дет": 6050,
      "##мена": 6051,
      "потра": 6052,
      "##курен": 6053,
      "##гих": 6054,
      "полковник": 6055,
      "винова": 6056,
      "Мадам": 6057,
      "филосо": 6058,
      "подоб": 6059,
      "##ick": 6060,
      "харак": 6061,
      "##ителю": 6062,
      "возьм": 6063,
      "судья": 6064,
      "внимательно": 6065,
      "Решили": 6066,
      "музыка": 6067,
      "концов": 6068,
      "03": 6069,
      "ГИБ": 6070,
      "дик": 6071,
      "##вшего": 6072,
      "##тныи": 6073,
      "##шал": 6074,
      "##up": 6075,
      "дому": 6076,
      "монет": 6077,
      "кафе": 6078,
      "##альное": 6079,
      "друж": 6080,
      "Приезжает": 6081,
      "больнои": 6082,
      "вечно": 6083,
      "дважды": 6084,
      "тури": 6085,
      "десят": 6086,
      "вторых": 6087,
      "лома": 6088,
      "темпера": 6089,
      "????": 6090,
      "карман": 6091,
      "попасть": 6092,
      "крыль": 6093,
      "чувствую": 6094,
      "предложение": 6095,
      "руковод": 6096,
      "Вон": 6097,
      "##ler": 6098,
      "##СЬ": 6099,
      "##торе": 6100,
      "защит": 6101,
      "моим": 6102,
      "известно": 6103,
      "Приехал": 6104,
      "##ствовать": 6105,
      "нашу": 6106,
      "##мета": 6107,
      "произносит": 6108,
      "песню": 6109,
      "спросила": 6110,
      "внутрен": 6111,
      "людям": 6112,
      "in": 6113,
      "Друг": 6114,
      "Спи": 6115,
      "Секс": 6116,
      "##ip": 6117,
      "##мого": 6118,
      "изо": 6119,
      "первое": 6120,
      "виду": 6121,
      "видеть": 6122,
      "Вова": 6123,
      "##бус": 6124,
      "!\",": 6125,
      "моих": 6126,
      "родителеи": 6127,
      "поможет": 6128,
      "услу": 6129,
      "метод": 6130,
      "##ist": 6131,
      "свинья": 6132,
      "праздник": 6133,
      "ГИБДД": 6134,
      "БО": 6135,
      "ВЫ": 6136,
      "Слыш": 6137,
      "всп": 6138,
      "устраи": 6139,
      "##ie": 6140,
      "##фаль": 6141,
      "##ДЕ": 6142,
      "##ТИ": 6143,
      "##work": 6144,
      "##оту": 6145,
      "прошел": 6146,
      "##еза": 6147,
      "##нусь": 6148,
      "бага": 6149,
      "план": 6150,
      "скрип": 6151,
      "собственно": 6152,
      "##вших": 6153,
      "алка": 6154,
      "настоящии": 6155,
      "Кирко": 6156,
      "золота": 6157,
      "##шенко": 6158,
      "Говорит": 6159,
      "вытаски": 6160,
      "Молодая": 6161,
      "Вся": 6162,
      "Год": 6163,
      "Их": 6164,
      "##гнали": 6165,
      "##БО": 6166,
      "##ребл": 6167,
      "##чиком": 6168,
      "спине": 6169,
      "..\"": 6170,
      "предпо": 6171,
      "##валивается": 6172,
      "вида": 6173,
      "ответила": 6174,
      "возвращ": 6175,
      "##рикмах": 6176,
      "Вечером": 6177,
      "неуда": 6178,
      "третьего": 6179,
      "крокодил": 6180,
      "Би": 6181,
      "Гена": 6182,
      "Кот": 6183,
      "анали": 6184,
      "хру": 6185,
      "##вен": 6186,
      "##мос": 6187,
      "поет": 6188,
      "##стег": 6189,
      "зарабаты": 6190,
      "прод": 6191,
      "##мии": 6192,
      "##зап": 6193,
      "##комен": 6194,
      "полностью": 6195,
      "насел": 6196,
      "слона": 6197,
      "всему": 6198,
      "##никами": 6199,
      "Тоже": 6200,
      "кармана": 6201,
      "Стар": 6202,
      "##возь": 6203,
      "возвраща": 6204,
      "Представ": 6205,
      "класса": 6206,
      "лошади": 6207,
      "##ружес": 6208,
      "лезет": 6209,
      "Другои": 6210,
      "микро": 6211,
      "Машенька": 6212,
      "гаиш": 6213,
      "Вань": 6214,
      "Евро": 6215,
      "ПРО": 6216,
      "снять": 6217,
      "цель": 6218,
      "##ee": 6219,
      "##эн": 6220,
      "##тором": 6221,
      "##ляют": 6222,
      "извините": 6223,
      "созна": 6224,
      "##пад": 6225,
      "##вешь": 6226,
      "##зация": 6227,
      "пиец": 6228,
      "важ": 6229,
      "##ственного": 6230,
      "молодо": 6231,
      "##полн": 6232,
      "никаких": 6233,
      "##телеи": 6234,
      "здоровье": 6235,
      "##аньше": 6236,
      "счастья": 6237,
      "отношения": 6238,
      "экспер": 6239,
      "Понимаешь": 6240,
      "дождь": 6241,
      "протягивает": 6242,
      "презервативы": 6243,
      "ОТ": 6244,
      "##XX": 6245,
      "##ромец": 6246,
      "непло": 6247,
      "##емыи": 6248,
      "##даи": 6249,
      "замен": 6250,
      "мужчинои": 6251,
      "##вижу": 6252,
      "##потом": 6253,
      ":-)": 6254,
      "##ительная": 6255,
      "Изра": 6256,
      "половина": 6257,
      "объявление": 6258,
      "убед": 6259,
      "месяцев": 6260,
      "возьму": 6261,
      "армию": 6262,
      "фирмы": 6263,
      "поимал": 6264,
      "спальню": 6265,
      "Чебурашка": 6266,
      "33": 6267,
      "Сад": 6268,
      "##гаться": 6269,
      "пооб": 6270,
      "наше": 6271,
      "капу": 6272,
      "обос": 6273,
      "ноут": 6274,
      "соци": 6275,
      "подска": 6276,
      "куку": 6277,
      "чувак": 6278,
      "твоего": 6279,
      "лекар": 6280,
      "пыт": 6281,
      "морду": 6282,
      "белые": 6283,
      "Внима": 6284,
      "Кли": 6285,
      "Нов": 6286,
      "ехать": 6287,
      "снял": 6288,
      "схва": 6289,
      "твор": 6290,
      "хрена": 6291,
      "##oi": 6292,
      "##щать": 6293,
      "##воде": 6294,
      "засы": 6295,
      "##оти": 6296,
      "коня": 6297,
      "кораб": 6298,
      "выходят": 6299,
      "##веp": 6300,
      "##тывает": 6301,
      "\"\",": 6302,
      "верев": 6303,
      "##ворились": 6304,
      "вашем": 6305,
      "братан": 6306,
      "упала": 6307,
      "большое": 6308,
      "одея": 6309,
      "##седатель": 6310,
      "специали": 6311,
      "произошло": 6312,
      "днев": 6313,
      "##ино": 6314,
      "##гам": 6315,
      "##жут": 6316,
      "##бке": 6317,
      "##енем": 6318,
      "кош": 6319,
      "посмот": 6320,
      "тещи": 6321,
      "##чном": 6322,
      "видимо": 6323,
      "##ожен": 6324,
      "##брать": 6325,
      "правду": 6326,
      "Миха": 6327,
      "никакого": 6328,
      "компьютера": 6329,
      "экзамене": 6330,
      "иностран": 6331,
      "тормозит": 6332,
      "##матривает": 6333,
      "ВСЕ": 6334,
      "аэро": 6335,
      "гов": 6336,
      "сб": 6337,
      "хит": 6338,
      "общего": 6339,
      "пад": 6340,
      "знако": 6341,
      "##ежур": 6342,
      "слома": 6343,
      "держит": 6344,
      "груз": 6345,
      "ответить": 6346,
      "дива": 6347,
      "##видет": 6348,
      "Никола": 6349,
      "печень": 6350,
      "леитен": 6351,
      "организ": 6352,
      "Ивановна": 6353,
      "пороге": 6354,
      "надписью": 6355,
      "читаю": 6356,
      "администра": 6357,
      "##интерес": 6358,
      "?!!!": 6359,
      "крем": 6360,
      "лом": 6361,
      "##тен": 6362,
      "##аешь": 6363,
      "##пев": 6364,
      "##щил": 6365,
      "##раться": 6366,
      "##илы": 6367,
      "обща": 6368,
      "воины": 6369,
      "первом": 6370,
      "стрем": 6371,
      "куро": 6372,
      "##жат": 6373,
      "воде": 6374,
      "переп": 6375,
      "##валился": 6376,
      "последние": 6377,
      "скром": 6378,
      "играют": 6379,
      "встречу": 6380,
      "прыг": 6381,
      "неудо": 6382,
      "Mic": 6383,
      "Ав": 6384,
      "Будь": 6385,
      "Мен": 6386,
      "вру": 6387,
      "штраф": 6388,
      "##тo": 6389,
      "##ИИ": 6390,
      "пояс": 6391,
      "выклю": 6392,
      "##меp": 6393,
      "##жусь": 6394,
      "очки": 6395,
      "##ческую": 6396,
      "Пациент": 6397,
      "детям": 6398,
      "второе": 6399,
      "##лушаите": 6400,
      "рыбка": 6401,
      "шаг": 6402,
      "Баба": 6403,
      "горит": 6404,
      "приятель": 6405,
      "название": 6406,
      "спинои": 6407,
      "худо": 6408,
      "Украины": 6409,
      "обязан": 6410,
      "лекции": 6411,
      "Вовочки": 6412,
      "Летит": 6413,
      "зеленыи": 6414,
      "удовольствие": 6415,
      "Але": 6416,
      "Дело": 6417,
      "Нев": 6418,
      "Сво": 6419,
      "жало": 6420,
      "##чине": 6421,
      "##дят": 6422,
      "##важ": 6423,
      "##реп": 6424,
      "##матоло": 6425,
      "##няют": 6426,
      "папу": 6427,
      "##еться": 6428,
      "туф": 6429,
      "вска": 6430,
      "##мыш": 6431,
      "нашла": 6432,
      "диа": 6433,
      "осво": 6434,
      "свето": 6435,
      "глуп": 6436,
      "адрес": 6437,
      "марта": 6438,
      "хорошего": 6439,
      "объявляет": 6440,
      "костюм": 6441,
      "is": 6442,
      "Нью": 6443,
      "муч": 6444,
      "##читься": 6445,
      "##АС": 6446,
      "налево": 6447,
      "загад": 6448,
      "спа": 6449,
      "##енина": 6450,
      "##ляр": 6451,
      "каких": 6452,
      "вось": 6453,
      "##альных": 6454,
      "дур": 6455,
      "пирож": 6456,
      "червя": 6457,
      "вспомина": 6458,
      "сержант": 6459,
      "покажу": 6460,
      "грана": 6461,
      "широ": 6462,
      "Муромец": 6463,
      "Весь": 6464,
      "снизу": 6465,
      "доктору": 6466,
      "Реклама": 6467,
      "Пpо": 6468,
      "Ху": 6469,
      "мис": 6470,
      "пель": 6471,
      "ть": 6472,
      "урок": 6473,
      "##if": 6474,
      "##шет": 6475,
      "##ox": 6476,
      "нев": 6477,
      "##аля": 6478,
      "##нился": 6479,
      "заг": 6480,
      "задает": 6481,
      "##ружен": 6482,
      "просты": 6483,
      "провед": 6484,
      "воина": 6485,
      "##жишь": 6486,
      "лице": 6487,
      "тепло": 6488,
      "слом": 6489,
      "Капитан": 6490,
      "колес": 6491,
      "взды": 6492,
      "правиль": 6493,
      "##ственнои": 6494,
      "Точно": 6495,
      "гаран": 6496,
      "весел": 6497,
      "земля": 6498,
      "похож": 6499,
      "##ителям": 6500,
      "выдержал": 6501,
      "идешь": 6502,
      "клуб": 6503,
      "31": 6504,
      "36": 6505,
      "Ап": 6506,
      "Глу": 6507,
      "Кстати": 6508,
      "Раньше": 6509,
      "села": 6510,
      "эстон": 6511,
      "##теи": 6512,
      "##ЛЕ": 6513,
      "##ровали": 6514,
      "##ними": 6515,
      "выр": 6516,
      "##евид": 6517,
      "##товыи": 6518,
      "##сона": 6519,
      "вздох": 6520,
      "##arr": 6521,
      "называют": 6522,
      "##!!!!!!!!": 6523,
      "некоторые": 6524,
      "букву": 6525,
      "Моиша": 6526,
      "Самыи": 6527,
      "положил": 6528,
      "просыпа": 6529,
      "уверен": 6530,
      "Чапаев": 6531,
      "Урок": 6532,
      "геи": 6533,
      "кину": 6534,
      "сре": 6535,
      "шика": 6536,
      "##der": 6537,
      "##шеб": 6538,
      "##зает": 6539,
      "##eb": 6540,
      "##аку": 6541,
      "раком": 6542,
      "выдает": 6543,
      "отры": 6544,
      "извин": 6545,
      "##мея": 6546,
      "##онер": 6547,
      "##мотрел": 6548,
      "жили": 6549,
      "колод": 6550,
      "Подож": 6551,
      "страна": 6552,
      "хотелось": 6553,
      "бабки": 6554,
      "убить": 6555,
      "большую": 6556,
      "яицо": 6557,
      "морде": 6558,
      "бутылка": 6559,
      "наверно": 6560,
      "самолете": 6561,
      "сообщение": 6562,
      "сильнее": 6563,
      "спуска": 6564,
      "Рядом": 6565,
      "Иногда": 6566,
      "рем": 6567,
      "яму": 6568,
      "##еща": 6569,
      "пок": 6570,
      "поход": 6571,
      "полицеи": 6572,
      "##роды": 6573,
      "сом": 6574,
      "##гия": 6575,
      "любовник": 6576,
      "##ell": 6577,
      "покупать": 6578,
      "Марь": 6579,
      "посмотрите": 6580,
      "хлеба": 6581,
      "##тивов": 6582,
      "пляже": 6583,
      "выиграл": 6584,
      "неожиданно": 6585,
      "Генерал": 6586,
      "04": 6587,
      "08": 6588,
      "Вес": 6589,
      "Пят": 6590,
      "Француз": 6591,
      "##пен": 6592,
      "##pод": 6593,
      "пона": 6594,
      "##ровои": 6595,
      "##решь": 6596,
      "приглас": 6597,
      "извращ": 6598,
      "##вица": 6599,
      "папы": 6600,
      "прекра": 6601,
      "##брасы": 6602,
      "правило": 6603,
      "камень": 6604,
      "улыба": 6605,
      "лучшии": 6606,
      "использова": 6607,
      "кольцо": 6608,
      "Главное": 6609,
      "колхоз": 6610,
      "понедельник": 6611,
      "Бел": 6612,
      "Кос": 6613,
      "древ": 6614,
      "жрать": 6615,
      "сис": 6616,
      "цело": 6617,
      "##нy": 6618,
      "##ванием": 6619,
      "##голь": 6620,
      "##риф": 6621,
      "зажи": 6622,
      "отчет": 6623,
      "##ськи": 6624,
      "##тила": 6625,
      "##мум": 6626,
      "спал": 6627,
      "Понял": 6628,
      "##елась": 6629,
      "##чках": 6630,
      "конь": 6631,
      "##зыв": 6632,
      "дешев": 6633,
      "соседи": 6634,
      "положено": 6635,
      "Знаю": 6636,
      "Сталин": 6637,
      "твоих": 6638,
      "увидеть": 6639,
      "глазах": 6640,
      "пальцы": 6641,
      "недоум": 6642,
      "Сергеи": 6643,
      "ближе": 6644,
      "НЕТ": 6645,
      "слабо": 6646,
      "оказался": 6647,
      "Поздрав": 6648,
      "приеме": 6649,
      "пароль": 6650,
      "##груз": 6651,
      "29": 6652,
      "КУ": 6653,
      "Пять": 6654,
      "лен": 6655,
      "синя": 6656,
      "##тую": 6657,
      "##нг": 6658,
      "##pои": 6659,
      "поехал": 6660,
      "##вании": 6661,
      "нежно": 6662,
      "##даются": 6663,
      "захва": 6664,
      "##гатель": 6665,
      "Поэтому": 6666,
      "стр": 6667,
      "делятся": 6668,
      "полнои": 6669,
      "надоело": 6670,
      "крутои": 6671,
      "исправ": 6672,
      "продавец": 6673,
      "интересуется": 6674,
      "##ish": 6675,
      "квартиры": 6676,
      "обеща": 6677,
      "виски": 6678,
      "Сосед": 6679,
      "подруге": 6680,
      "Ак": 6681,
      "аф": 6682,
      "бос": 6683,
      "кле": 6684,
      "меб": 6685,
      "уехал": 6686,
      "хол": 6687,
      "холо": 6688,
      "шар": 6689,
      "##игры": 6690,
      "##еше": 6691,
      "##плю": 6692,
      "посе": 6693,
      "наду": 6694,
      "##ола": 6695,
      "горе": 6696,
      "моска": 6697,
      "мужскои": 6698,
      "больнице": 6699,
      "ваших": 6700,
      "##овали": 6701,
      "##рошу": 6702,
      "буль": 6703,
      "попыт": 6704,
      "Подо": 6705,
      "попадает": 6706,
      "Москву": 6707,
      "душу": 6708,
      "президента": 6709,
      "картошку": 6710,
      "Солдат": 6711,
      "директора": 6712,
      "оконча": 6713,
      "кладбище": 6714,
      "господа": 6715,
      "Кри": 6716,
      "Луч": 6717,
      "веж": 6718,
      "ежик": 6719,
      "##чком": 6720,
      "##ску": 6721,
      "##ллеи": 6722,
      "##цеи": 6723,
      "това": 6724,
      "прикинь": 6725,
      "могла": 6726,
      "больницу": 6727,
      "большим": 6728,
      "возб": 6729,
      "?!\"": 6730,
      "##фига": 6731,
      "имел": 6732,
      "начинаю": 6733,
      "##тивныи": 6734,
      "граф": 6735,
      "Россию": 6736,
      "адво": 6737,
      "##вшие": 6738,
      "##зоваться": 6739,
      "Препод": 6740,
      "циф": 6741,
      "остановке": 6742,
      "физи": 6743,
      "рыбалку": 6744,
      "05": 6745,
      "Был": 6746,
      "Ев": 6747,
      "Утро": 6748,
      "убор": 6749,
      "экра": 6750,
      "##пел": 6751,
      "##яне": 6752,
      "##лка": 6753,
      "##гите": 6754,
      "##шин": 6755,
      "##филь": 6756,
      "##ВЕ": 6757,
      "кое": 6758,
      "растер": 6759,
      "проц": 6760,
      "спину": 6761,
      "##льмен": 6762,
      "ниж": 6763,
      "##иска": 6764,
      "стюардес": 6765,
      "Нав": 6766,
      "хомя": 6767,
      "матом": 6768,
      "самым": 6769,
      "##мерть": 6770,
      "сыном": 6771,
      "клавиату": 6772,
      "##резать": 6773,
      "красивые": 6774,
      "танцу": 6775,
      "молоко": 6776,
      "обнаруж": 6777,
      "голуб": 6778,
      "четвертыи": 6779,
      "музыку": 6780,
      "стену": 6781,
      "хлоп": 6782,
      "классе": 6783,
      "09": 6784,
      "02": 6785,
      "54": 6786,
      "Гла": 6787,
      "Росто": 6788,
      "Сама": 6789,
      "бегает": 6790,
      "дес": 6791,
      "лину": 6792,
      "реж": 6793,
      "сес": 6794,
      "сети": 6795,
      "фразу": 6796,
      "хра": 6797,
      "цеп": 6798,
      "##смен": 6799,
      "нако": 6800,
      "зачет": 6801,
      "##ковыи": 6802,
      "ваще": 6803,
      "которым": 6804,
      "##ствуют": 6805,
      "разговаривает": 6806,
      "группа": 6807,
      "зоопар": 6808,
      "##ight": 6809,
      "таблетки": 6810,
      "кнопку": 6811,
      "Пушкин": 6812,
      "\"-": 6813,
      "Фед": 6814,
      "иначе": 6815,
      "пало": 6816,
      "слад": 6817,
      "слушаи": 6818,
      "##вшая": 6819,
      "##ея": 6820,
      "##жается": 6821,
      "коноп": 6822,
      "высовы": 6823,
      "##едине": 6824,
      "##тило": 6825,
      "пацан": 6826,
      "будь": 6827,
      "##шаи": 6828,
      "старая": 6829,
      "##хие": 6830,
      "левои": 6831,
      "красивои": 6832,
      "говорили": 6833,
      "Стоят": 6834,
      "Москвы": 6835,
      "спирт": 6836,
      "животное": 6837,
      "высоко": 6838,
      "смысл": 6839,
      "поставили": 6840,
      "фигня": 6841,
      "нерв": 6842,
      "повезло": 6843,
      "Ar": 6844,
      "влю": 6845,
      "впечат": 6846,
      "еди": 6847,
      "оку": 6848,
      "фер": 6849,
      "шлю": 6850,
      "##тите": 6851,
      "показать": 6852,
      "народу": 6853,
      "моем": 6854,
      "моск": 6855,
      "##шись": 6856,
      "перем": 6857,
      "степ": 6858,
      "мешок": 6859,
      "информа": 6860,
      "совме": 6861,
      "траха": 6862,
      "студентов": 6863,
      "этаже": 6864,
      "занимается": 6865,
      "любимая": 6866,
      "сделаи": 6867,
      "работают": 6868,
      "наркомана": 6869,
      "Видишь": 6870,
      "подумать": 6871,
      "использу": 6872,
      "Открывает": 6873,
      "Рядовои": 6874,
      "Герма": 6875,
      "Нуж": 6876,
      "впол": 6877,
      "влез": 6878,
      "внизу": 6879,
      "ешь": 6880,
      "ждут": 6881,
      "пет": 6882,
      "##яно": 6883,
      "##шш": 6884,
      "##колад": 6885,
      "##рина": 6886,
      "запо": 6887,
      "##лон": 6888,
      "дости": 6889,
      "##шими": 6890,
      "##евер": 6891,
      "поса": 6892,
      "переста": 6893,
      "бур": 6894,
      "##суль": 6895,
      "начать": 6896,
      "Кур": 6897,
      "Русс": 6898,
      "мамои": 6899,
      "аккурат": 6900,
      "всякии": 6901,
      "холодно": 6902,
      "смогу": 6903,
      "2000": 6904,
      "земли": 6905,
      "главныи": 6906,
      "##ждения": 6907,
      "познакоми": 6908,
      "запах": 6909,
      "закри": 6910,
      "существо": 6911,
      "Особ": 6912,
      "кушать": 6913,
      "Сдела": 6914,
      "Тво": 6915,
      "Увид": 6916,
      "дрова": 6917,
      "мэ": 6918,
      "фу": 6919,
      "шер": 6920,
      "##чался": 6921,
      "##лки": 6922,
      "##ph": 6923,
      "назна": 6924,
      "##рица": 6925,
      "забира": 6926,
      "прова": 6927,
      "##идя": 6928,
      "столи": 6929,
      "мышь": 6930,
      "##ord": 6931,
      "упот": 6932,
      "Теща": 6933,
      "шею": 6934,
      "книги": 6935,
      "сообщает": 6936,
      "образова": 6937,
      "##ИТЕ": 6938,
      "Понимаете": 6939,
      "математи": 6940,
      "##rosoft": 6941,
      ".,": 6942,
      "Бол": 6943,
      "Дмит": 6944,
      "Кор": 6945,
      "Сте": 6946,
      "зим": 6947,
      "эфф": 6948,
      "##ило": 6949,
      "##кнул": 6950,
      "##лн": 6951,
      "##дю": 6952,
      "##te": 6953,
      "народа": 6954,
      "##народ": 6955,
      "номера": 6956,
      "первые": 6957,
      "##ального": 6958,
      "##пок": 6959,
      "послал": 6960,
      "реально": 6961,
      "контак": 6962,
      "путь": 6963,
      "коллек": 6964,
      "девять": 6965,
      "менее": 6966,
      "девочку": 6967,
      "Ильич": 6968,
      "внутри": 6969,
      "интеллигент": 6970,
      "неприят": 6971,
      "асфаль": 6972,
      "поговорить": 6973,
      "Американец": 6974,
      "истер": 6975,
      "мля": 6976,
      "пo": 6977,
      "##там": 6978,
      "помы": 6979,
      "неж": 6980,
      "##нести": 6981,
      "выскакивает": 6982,
      "##иские": 6983,
      "##чаешь": 6984,
      "##виду": 6985,
      "окру": 6986,
      "играл": 6987,
      "##полож": 6988,
      "банку": 6989,
      "сделаю": 6990,
      "добро": 6991,
      "стучит": 6992,
      "ближаи": 6993,
      "менед": 6994,
      "Сижу": 6995,
      "выглядит": 6996,
      "##жимает": 6997,
      "армян": 6998,
      "зимои": 6999,
      "ружье": 7000,
      "Странно": 7001,
      "Бело": 7002,
      "Леж": 7003,
      "Фу": 7004,
      "лите": 7005,
      "ню": 7006,
      "##нныи": 7007,
      "##над": 7008,
      "выру": 7009,
      "вышли": 7010,
      "выпуска": 7011,
      "##мую": 7012,
      "нор": 7013,
      "сорок": 7014,
      "##няка": 7015,
      "##цах": 7016,
      "держ": 7017,
      "бери": 7018,
      "##варь": 7019,
      "востор": 7020,
      "семе": 7021,
      "занимаются": 7022,
      "терро": 7023,
      "Пух": 7024,
      "считает": 7025,
      "поворачи": 7026,
      "программиста": 7027,
      "впервые": 7028,
      "геро": 7029,
      "Тебя": 7030,
      "многие": 7031,
      "Петрович": 7032,
      "Сту": 7033,
      "Ца": 7034,
      "авари": 7035,
      "дли": 7036,
      "ибо": 7037,
      "ноль": 7038,
      "##ченно": 7039,
      "##кнуть": 7040,
      "##az": 7041,
      "##щаться": 7042,
      "##13": 7043,
      "##кость": 7044,
      "выключ": 7045,
      "прок": 7046,
      "мон": 7047,
      "кад": 7048,
      "ногах": 7049,
      "Поим": 7050,
      "даст": 7051,
      "лето": 7052,
      "помощи": 7053,
      "соседу": 7054,
      "пятьдесят": 7055,
      "никакои": 7056,
      "языке": 7057,
      "умерла": 7058,
      "едят": 7059,
      "восклиц": 7060,
      "довольно": 7061,
      "вовремя": 7062,
      "pабот": 7063,
      "воздух": 7064,
      "посыла": 7065,
      "безопасности": 7066,
      "07": 7067,
      "Иду": 7068,
      "плем": 7069,
      "сходить": 7070,
      "смущ": 7071,
      "убира": 7072,
      "##чел": 7073,
      "##сков": 7074,
      "##ливает": 7075,
      "##надца": 7076,
      "кошку": 7077,
      "##един": 7078,
      "##тира": 7079,
      "##идешь": 7080,
      "##нуло": 7081,
      "ворот": 7082,
      "таи": 7083,
      "##бах": 7084,
      "реак": 7085,
      "оправ": 7086,
      "##стрелил": 7087,
      "имени": 7088,
      "труп": 7089,
      "раскры": 7090,
      "правила": 7091,
      "Самое": 7092,
      "число": 7093,
      "попугая": 7094,
      "злои": 7095,
      "Шапочка": 7096,
      "санти": 7097,
      "результате": 7098,
      "интеллек": 7099,
      "корабл": 7100,
      "опаз": 7101,
      "##рикмахер": 7102,
      "МА": 7103,
      "ито": 7104,
      "##вки": 7105,
      "##ора": 7106,
      "##еча": 7107,
      "##ack": 7108,
      "##женно": 7109,
      "поезда": 7110,
      "заключ": 7111,
      "##еис": 7112,
      "подпис": 7113,
      "разби": 7114,
      "партии": 7115,
      "трудом": 7116,
      "мяса": 7117,
      "офицер": 7118,
      "читал": 7119,
      "балкон": 7120,
      "понрав": 7121,
      "специально": 7122,
      "Прапорщик": 7123,
      "седня": 7124,
      "ужасе": 7125,
      "характер": 7126,
      "Змеи": 7127,
      "Итак": 7128,
      "въ": 7129,
      "зят": 7130,
      "кред": 7131,
      "уве": 7132,
      "устал": 7133,
      "наб": 7134,
      "напомина": 7135,
      "##ворачивается": 7136,
      "прото": 7137,
      "прибы": 7138,
      "стер": 7139,
      "##пока": 7140,
      "речь": 7141,
      "мило": 7142,
      "родила": 7143,
      "тради": 7144,
      "Могу": 7145,
      "##чительно": 7146,
      "просил": 7147,
      "сквозь": 7148,
      "порну": 7149,
      "смеш": 7150,
      "газеты": 7151,
      "собрались": 7152,
      "Преподаватель": 7153,
      "##новича": 7154,
      "вороб": 7155,
      "каждому": 7156,
      "странно": 7157,
      "косяк": 7158,
      "Александр": 7159,
      "Просыпается": 7160,
      "температу": 7161,
      "as": 7162,
      "Встает": 7163,
      "Гера": 7164,
      "дым": 7165,
      "демокра": 7166,
      "ровно": 7167,
      "хер": 7168,
      "##хар": 7169,
      "##ющих": 7170,
      "##гг": 7171,
      "##бин": 7172,
      "поехали": 7173,
      "выго": 7174,
      "##дись": 7175,
      "##почки": 7176,
      "Наде": 7177,
      "##жись": 7178,
      "Запорожец": 7179,
      "театр": 7180,
      "реа": 7181,
      "молчат": 7182,
      "напол": 7183,
      "правои": 7184,
      "комплек": 7185,
      "газете": 7186,
      "деревню": 7187,
      "историю": 7188,
      "))))": 7189,
      "кабинете": 7190,
      "Скоро": 7191,
      "55": 7192,
      "белье": 7193,
      "врез": 7194,
      "вpем": 7195,
      "##рту": 7196,
      "##ВИ": 7197,
      "##енное": 7198,
      "##стная": 7199,
      "##голо": 7200,
      "приста": 7201,
      "##гаются": 7202,
      "изб": 7203,
      "Поидем": 7204,
      "##сист": 7205,
      "##стили": 7206,
      "##граф": 7207,
      "Мужчины": 7208,
      "##ильник": 7209,
      "смотрите": 7210,
      "половину": 7211,
      "умные": 7212,
      "евреев": 7213,
      "телефона": 7214,
      "красиво": 7215,
      "языком": 7216,
      "скоростью": 7217,
      "танк": 7218,
      "##est": 7219,
      "##ess": 7220,
      "звук": 7221,
      "требует": 7222,
      "двоих": 7223,
      "ботинки": 7224,
      "восклицает": 7225,
      "PM": 7226,
      "Сэр": 7227,
      "бь": 7228,
      "броси": 7229,
      "пед": 7230,
      "##пли": 7231,
      "##юз": 7232,
      "##ОО": 7233,
      "пожал": 7234,
      "##вае": 7235,
      "##сики": 7236,
      "##читал": 7237,
      "##бии": 7238,
      "##онныи": 7239,
      "пузы": 7240,
      "берут": 7241,
      "запол": 7242,
      "мерс": 7243,
      "подумала": 7244,
      "русскои": 7245,
      "сможет": 7246,
      "троллеи": 7247,
      "мозг": 7248,
      "Больше": 7249,
      "требуется": 7250,
      "кармане": 7251,
      "справа": 7252,
      "##запно": 7253,
      "Microsoft": 7254,
      "Аб": 7255,
      "аку": 7256,
      "здрав": 7257,
      "сут": 7258,
      "уш": 7259,
      "ужи": 7260,
      "##тку": 7261,
      "##сю": 7262,
      "##гр": 7263,
      "##драт": 7264,
      "##ux": 7265,
      "##ЕБ": 7266,
      "##ff": 7267,
      "выт": 7268,
      "приоб": 7269,
      "сопро": 7270,
      "подчин": 7271,
      "слон": 7272,
      "детстве": 7273,
      "кричат": 7274,
      "##шками": 7275,
      "несет": 7276,
      "Бабка": 7277,
      "губы": 7278,
      "админ": 7279,
      "песни": 7280,
      "##ложил": 7281,
      "студенты": 7282,
      "супружес": 7283,
      "ужасно": 7284,
      "власти": 7285,
      "силы": 7286,
      "заица": 7287,
      "перекрест": 7288,
      "солнце": 7289,
      "Гля": 7290,
      "Сан": 7291,
      "пинг": 7292,
      "фран": 7293,
      "ясно": 7294,
      "##РР": 7295,
      "##ce": 7296,
      "поигра": 7297,
      "кома": 7298,
      "##ревич": 7299,
      "проще": 7300,
      "##чивает": 7301,
      "Поп": 7302,
      "препода": 7303,
      "боя": 7304,
      "##водят": 7305,
      "проснулся": 7306,
      "бесс": 7307,
      "бутерб": 7308,
      "хозяика": 7309,
      "чувству": 7310,
      "придумал": 7311,
      "миллионов": 7312,
      "Товарищи": 7313,
      "взглядом": 7314,
      "заявляет": 7315,
      "ученые": 7316,
      "бассе": 7317,
      "застря": 7318,
      "Настоящии": 7319,
      "кирпич": 7320,
      "господин": 7321,
      "чемодан": 7322,
      "бухгалтер": 7323,
      "Нор": 7324,
      "демон": 7325,
      "ждать": 7326,
      "опер": 7327,
      "срок": 7328,
      "##яж": 7329,
      "##нении": 7330,
      "##итер": 7331,
      "##нат": 7332,
      "##махи": 7333,
      "сплю": 7334,
      "сокра": 7335,
      "##лева": 7336,
      "##альным": 7337,
      "купили": 7338,
      "Чтоб": 7339,
      "слож": 7340,
      "##ческом": 7341,
      "сидишь": 7342,
      "Мат": 7343,
      "останови": 7344,
      "##ort": 7345,
      "плохои": 7346,
      "понимает": 7347,
      "смеется": 7348,
      "##ich": 7349,
      "букв": 7350,
      "повтор": 7351,
      "потре": 7352,
      "форму": 7353,
      "футбо": 7354,
      "ставить": 7355,
      "космо": 7356,
      "презервативов": 7357,
      "Киев": 7358,
      "группы": 7359,
      "рассказывать": 7360,
      "телеграм": 7361,
      "растет": 7362,
      "Америке": 7363,
      "Брежнев": 7364,
      "Гиви": 7365,
      "литерату": 7366,
      "?)": 7367,
      "Входит": 7368,
      "Ок": 7369,
      "Обра": 7370,
      "Тор": 7371,
      "гло": 7372,
      "увели": 7373,
      "##вку": 7374,
      "##рд": 7375,
      "поступ": 7376,
      "наи": 7377,
      "##дании": 7378,
      "догада": 7379,
      "##аса": 7380,
      "черная": 7381,
      "мешает": 7382,
      "Ваше": 7383,
      "вирус": 7384,
      "дверью": 7385,
      "сково": 7386,
      "брата": 7387,
      "шоколад": 7388,
      "товарищи": 7389,
      "начальника": 7390,
      "собрался": 7391,
      "##пустили": 7392,
      "штук": 7393,
      "Карл": 7394,
      "капита": 7395,
      "фраза": 7396,
      "англичанин": 7397,
      "Игра": 7398,
      "Мор": 7399,
      "ОБ": 7400,
      "жу": 7401,
      "зо": 7402,
      "лени": 7403,
      "рес": 7404,
      "##вит": 7405,
      "##овои": 7406,
      "заты": 7407,
      "##нышко": 7408,
      "##шишь": 7409,
      "ноч": 7410,
      "##няю": 7411,
      "видом": 7412,
      "водкои": 7413,
      "времена": 7414,
      "саит": 7415,
      "саду": 7416,
      "фига": 7417,
      "последнеи": 7418,
      "программа": 7419,
      "шест": 7420,
      "связ": 7421,
      "квартира": 7422,
      "назов": 7423,
      "назвать": 7424,
      "имеют": 7425,
      "неделе": 7426,
      "умеешь": 7427,
      "Прекрас": 7428,
      "душа": 7429,
      "операции": 7430,
      "тысячи": 7431,
      "положить": 7432,
      "состояние": 7433,
      "существует": 7434,
      "сантех": 7435,
      "has": 7436,
      "Лек": 7437,
      "Пси": 7438,
      "вбегает": 7439,
      "дни": 7440,
      "петь": 7441,
      "##чину": 7442,
      "##ib": 7443,
      "##de": 7444,
      "##шит": 7445,
      "##щить": 7446,
      "##енным": 7447,
      "##коп": 7448,
      "заглядывает": 7449,
      "##илет": 7450,
      "проигра": 7451,
      "прихожу": 7452,
      "##ельно": 7453,
      "кучу": 7454,
      "Пришли": 7455,
      "Кому": 7456,
      "долг": 7457,
      "##ительные": 7458,
      "совесть": 7459,
      "машин": 7460,
      "третья": 7461,
      "метал": 7462,
      "рабочии": 7463,
      "герои": 7464,
      "встретил": 7465,
      "показывают": 7466,
      "ситуация": 7467,
      "Афри": 7468,
      "чемпиона": 7469,
      "Мало": 7470,
      "Рож": 7471,
      "Сне": 7472,
      "говно": 7473,
      "жду": 7474,
      "оке": 7475,
      "рев": 7476,
      "сэ": 7477,
      "##чется": 7478,
      "##уме": 7479,
      "##денька": 7480,
      "покры": 7481,
      "##роны": 7482,
      "##ланд": 7483,
      "рад": 7484,
      "прибли": 7485,
      "прибегает": 7486,
      "##лят": 7487,
      "##евшии": 7488,
      "##мок": 7489,
      "##анныи": 7490,
      "Прикинь": 7491,
      "контра": 7492,
      "##ительного": 7493,
      ".--": 7494,
      "поправ": 7495,
      "Дочка": 7496,
      "парке": 7497,
      "каждую": 7498,
      "##ard": 7499,
      "курсе": 7500,
      "ловит": 7501,
      "анекдоты": 7502,
      "корову": 7503,
      "##ССР": 7504,
      "Дурак": 7505,
      "площади": 7506,
      "галсту": 7507,
      "светофо": 7508,
      "Навстречу": 7509,
      "зоопарке": 7510,
      "Dr": 7511,
      "De": 7512,
      "Твои": 7513,
      "Шер": 7514,
      "бри": 7515,
      "што": 7516,
      "##вказ": 7517,
      "##04": 7518,
      "##дами": 7519,
      "проб": 7520,
      "причина": 7521,
      "пришло": 7522,
      "##мож": 7523,
      "избав": 7524,
      "##дишь": 7525,
      "##бовали": 7526,
      "пачку": 7527,
      "превы": 7528,
      "стара": 7529,
      "##бая": 7530,
      "мыло": 7531,
      "##шелек": 7532,
      "вести": 7533,
      "вско": 7534,
      "Отлично": 7535,
      "##порта": 7536,
      "вашему": 7537,
      "шепотом": 7538,
      "русскому": 7539,
      "пишется": 7540,
      "разговаривать": 7541,
      "прыгает": 7542,
      "обрадо": 7543,
      "предпочит": 7544,
      "ch": 7545,
      "Аи": 7546,
      "Лу": 7547,
      "рель": 7548,
      "сцен": 7549,
      "##вью": 7550,
      "##ске": 7551,
      "##шить": 7552,
      "##ГА": 7553,
      "покои": 7554,
      "пожа": 7555,
      "поезде": 7556,
      "##рович": 7557,
      "выла": 7558,
      "проити": 7559,
      "##удим": 7560,
      "##стик": 7561,
      "##лым": 7562,
      "пишу": 7563,
      "деда": 7564,
      "тридцать": 7565,
      "кажды": 7566,
      "##умал": 7567,
      "волшеб": 7568,
      "курят": 7569,
      "скре": 7570,
      "блдь": 7571,
      "поидешь": 7572,
      "команду": 7573,
      "покупает": 7574,
      "##щаясь": 7575,
      "##ичок": 7576,
      "крыше": 7577,
      "##ill": 7578,
      "зовет": 7579,
      "удоб": 7580,
      "задание": 7581,
      "выпивает": 7582,
      "директору": 7583,
      "тряс": 7584,
      "ковбои": 7585,
      "Уважаемые": 7586,
      "52": 7587,
      "Иор": 7588,
      "Лон": 7589,
      "Пе": 7590,
      "Се": 7591,
      "Снова": 7592,
      "СССР": 7593,
      "Ух": 7594,
      "гы": 7595,
      "##тин": 7596,
      "##кнов": 7597,
      "##шил": 7598,
      "##pит": 7599,
      "##кала": 7600,
      "##лог": 7601,
      "выдел": 7602,
      "горо": 7603,
      "##гады": 7604,
      "разбира": 7605,
      "##вим": 7606,
      "Попро": 7607,
      "##дум": 7608,
      "##туи": 7609,
      "самую": 7610,
      "мыть": 7611,
      "бата": 7612,
      "##еная": 7613,
      "вещь": 7614,
      "##ствовал": 7615,
      "скажешь": 7616,
      "немедленно": 7617,
      "решение": 7618,
      "испы": 7619,
      "##планет": 7620,
      "сест": 7621,
      "подарил": 7622,
      "офисе": 7623,
      "форме": 7624,
      "Больнои": 7625,
      "операцион": 7626,
      "Пиво": 7627,
      "##легка": 7628,
      "пассажир": 7629,
      "видео": 7630,
      "задумался": 7631,
      "согласился": 7632,
      "парашют": 7633,
      "##сексу": 7634,
      "услышал": 7635,
      "Дядя": 7636,
      "маиор": 7637,
      "Секрет": 7638,
      "Угу": 7639,
      "Хва": 7640,
      "бре": 7641,
      "бле": 7642,
      "вя": 7643,
      "##шении": 7644,
      "##фт": 7645,
      "##ПО": 7646,
      "##ТУ": 7647,
      "##енки": 7648,
      "забор": 7649,
      "провести": 7650,
      "приколь": 7651,
      "##паи": 7652,
      "кусо": 7653,
      "кустов": 7654,
      "##скими": 7655,
      "##тур": 7656,
      "полит": 7657,
      "пережи": 7658,
      "беру": 7659,
      "делали": 7660,
      "будущее": 7661,
      "большин": 7662,
      "глуб": 7663,
      "хорошие": 7664,
      "##2008": 7665,
      "милицию": 7666,
      "присут": 7667,
      "##казатель": 7668,
      "библи": 7669,
      "заняться": 7670,
      "Буду": 7671,
      "##лужи": 7672,
      "примерно": 7673,
      "журнали": 7674,
      "брюки": 7675,
      "старушка": 7676,
      "прошлом": 7677,
      "болезнь": 7678,
      "вскакивает": 7679,
      "сисад": 7680,
      "вполне": 7681,
      "st": 7682,
      "Аль": 7683,
      "БУ": 7684,
      "Исп": 7685,
      "МУ": 7686,
      "Новая": 7687,
      "Слу": 7688,
      "каль": 7689,
      "##яют": 7690,
      "забл": 7691,
      "задом": 7692,
      "выбегает": 7693,
      "отдела": 7694,
      "измер": 7695,
      "##щики": 7696,
      "стари": 7697,
      "Вышел": 7698,
      "##кольку": 7699,
      "тупо": 7700,
      "представляешь": 7701,
      "женщинами": 7702,
      "вопроса": 7703,
      "молодого": 7704,
      "увидев": 7705,
      "глазом": 7706,
      "украли": 7707,
      "создал": 7708,
      "звучит": 7709,
      "довер": 7710,
      "неизвест": 7711,
      "Бармен": 7712,
      "эроти": 7713,
      "06": 7714,
      "34": 7715,
      "42": 7716,
      "ПИ": 7717,
      "Фор": 7718,
      "ежи": 7719,
      "уво": 7720,
      "фанта": 7721,
      "##вил": 7722,
      "##крет": 7723,
      "##хнул": 7724,
      "##бед": 7725,
      "##бель": 7726,
      "##62007": 7727,
      "побы": 7728,
      "##лиз": 7729,
      "##кинул": 7730,
      "##льно": 7731,
      "##щими": 7732,
      "Наша": 7733,
      "жест": 7734,
      "Недавно": 7735,
      "було": 7736,
      "боро": 7737,
      "Подс": 7738,
      "##ологии": 7739,
      "маленькие": 7740,
      "горло": 7741,
      "ладо": 7742,
      "любимыи": 7743,
      "Сержант": 7744,
      "Видите": 7745,
      "улыбается": 7746,
      "вспомнил": 7747,
      "умира": 7748,
      "Следую": 7749,
      "качестве": 7750,
      "Помогите": 7751,
      "килограмм": 7752,
      "Покупа": 7753,
      "38": 7754,
      "al": 7755,
      "Зас": 7756,
      "ПРИ": 7757,
      "Чи": 7758,
      "Эта": 7759,
      "##чите": 7760,
      "##ющие": 7761,
      "##аке": 7762,
      "спрос": 7763,
      "стены": 7764,
      "пат": 7765,
      "##теp": 7766,
      "бана": 7767,
      "больного": 7768,
      "##ковь": 7769,
      "##)))": 7770,
      "думая": 7771,
      "чудо": 7772,
      "##one": 7773,
      "подож": 7774,
      "Батюшка": 7775,
      "попали": 7776,
      "такими": 7777,
      "пятыи": 7778,
      "молока": 7779,
      "собрал": 7780,
      "охоту": 7781,
      "наидется": 7782,
      "благодар": 7783,
      "Леони": 7784,
      "Вовочку": 7785,
      "поняли": 7786,
      "квадрат": 7787,
      "внеш": 7788,
      "согласи": 7789,
      "центре": 7790,
      "непонят": 7791,
      "Программист": 7792,
      "воскресенье": 7793,
      "Внимание": 7794,
      ".(": 7795,
      "Бан": 7796,
      "Дык": 7797,
      "Между": 7798,
      "ХО": 7799,
      "сним": 7800,
      "слегка": 7801,
      "ук": 7802,
      "устав": 7803,
      "яр": 7804,
      "##кви": 7805,
      "##кции": 7806,
      "##гался": 7807,
      "##ривает": 7808,
      "заби": 7809,
      "заказывает": 7810,
      "дох": 7811,
      "##тилась": 7812,
      "быст": 7813,
      "##еви": 7814,
      "Прошу": 7815,
      "выпьем": 7816,
      "маленького": 7817,
      "хорошее": 7818,
      "прям": 7819,
      "страшныи": 7820,
      "Марья": 7821,
      "фильма": 7822,
      "##рабан": 7823,
      "свист": 7824,
      "результат": 7825,
      "похмелья": 7826,
      "Никто": 7827,
      "Вну": 7828,
      "Гри": 7829,
      "Двер": 7830,
      "глю": 7831,
      "сеи": 7832,
      "сель": 7833,
      "срав": 7834,
      "##вут": 7835,
      "наво": 7836,
      "##вочке": 7837,
      "##даите": 7838,
      "выстрел": 7839,
      "##мас": 7840,
      "прост": 7841,
      "догад": 7842,
      "##тишь": 7843,
      "спам": 7844,
      "изум": 7845,
      "подряд": 7846,
      "пан": 7847,
      "патро": 7848,
      "##читать": 7849,
      "самых": 7850,
      "##ительнои": 7851,
      "рынке": 7852,
      "выпис": 7853,
      "следующее": 7854,
      "##ast": 7855,
      "мере": 7856,
      "американскии": 7857,
      "футболь": 7858,
      "##частье": 7859,
      "компания": 7860,
      "памяти": 7861,
      "Господин": 7862,
      "Медвед": 7863,
      "секретарша": 7864,
      "Всю": 7865,
      "путеше": 7866,
      "рюм": 7867,
      "вагон": 7868,
      "Англича": 7869,
      "конкурс": 7870,
      "Париж": 7871,
      "афоризм": 7872,
      "джентльмен": 7873,
      "-...": 7874,
      "48": 7875,
      "исс": 7876,
      "щел": 7877,
      "##ско": 7878,
      "##сот": 7879,
      "##товои": 7880,
      "повод": 7881,
      "##алы": 7882,
      "##рила": 7883,
      "забот": 7884,
      "##мали": 7885,
      "пробовал": 7886,
      "##чику": 7887,
      "##есня": 7888,
      "Поч": 7889,
      "хох": 7890,
      "Некото": 7891,
      "делом": 7892,
      "Нового": 7893,
      "##тельная": 7894,
      "половои": 7895,
      "печа": 7896,
      "Штирлица": 7897,
      "лап": 7898,
      "банке": 7899,
      "##атре": 7900,
      "Быстро": 7901,
      "новость": 7902,
      "велико": 7903,
      "система": 7904,
      "лыс": 7905,
      "расскажи": 7906,
      "вовсе": 7907,
      "познакомиться": 7908,
      "настроение": 7909,
      "мебель": 7910,
      "Поимал": 7911,
      "pе": 7912,
      "th": 7913,
      "Ежик": 7914,
      "бy": 7915,
      "ехал": 7916,
      "лот": 7917,
      "сно": 7918,
      "фаи": 7919,
      "##pед": 7920,
      "##ливыи": 7921,
      "##ович": 7922,
      "привя": 7923,
      "мороз": 7924,
      "спря": 7925,
      "##стах": 7926,
      "руль": 7927,
      "послуш": 7928,
      "посуду": 7929,
      "##ряс": 7930,
      "предо": 7931,
      "Закон": 7932,
      "деньгами": 7933,
      "##ительное": 7934,
      "сыгра": 7935,
      "импот": 7936,
      "криз": 7937,
      "женщинам": 7938,
      "остались": 7939,
      "запас": 7940,
      "кип": 7941,
      "задница": 7942,
      "ходу": 7943,
      "успоко": 7944,
      "жопе": 7945,
      "обещал": 7946,
      "##пустим": 7947,
      "плечо": 7948,
      "штука": 7949,
      "тетя": 7950,
      "яблоко": 7951,
      "Добрыи": 7952,
      "повторяется": 7953,
      "солдата": 7954,
      "везет": 7955,
      "помогите": 7956,
      "достать": 7957,
      "Новости": 7958,
      "сапоги": 7959,
      "СПИД": 7960,
      "Взял": 7961,
      "Геитс": 7962,
      "Брат": 7963,
      "Гар": 7964,
      "ПА": 7965,
      "беш": 7966,
      "уха": 7967,
      "##еров": 7968,
      "##pам": 7969,
      "##ХХ": 7970,
      "##ss": 7971,
      "наступ": 7972,
      "кошелек": 7973,
      "##нева": 7974,
      "отдал": 7975,
      "горы": 7976,
      "мощ": 7977,
      "москов": 7978,
      "##дость": 7979,
      "##мик": 7980,
      "извини": 7981,
      "Наши": 7982,
      "давать": 7983,
      "!!!-": 7984,
      "лист": 7985,
      "Приходят": 7986,
      "батюшка": 7987,
      "рецеп": 7988,
      "револю": 7989,
      "важно": 7990,
      "сложно": 7991,
      "пустои": 7992,
      "##краси": 7993,
      "направо": 7994,
      "совету": 7995,
      "парню": 7996,
      "берег": 7997,
      "красная": 7998,
      "программы": 7999,
      "##резал": 8000,
      "выходить": 8001,
      "душе": 8002,
      "огонь": 8003,
      "взгляд": 8004,
      "чудес": 8005,
      "состоит": 8006,
      "морожен": 8007,
      "Собака": 8008,
      "Дмитрии": 8009,
      "Ель": 8010,
      "Много": 8011,
      "Тре": 8012,
      "Умер": 8013,
      "мяс": 8014,
      "##рта": 8015,
      "##дныи": 8016,
      "##ser": 8017,
      "почес": 8018,
      "погиб": 8019,
      "##кос": 8020,
      "##ковые": 8021,
      "##елем": 8022,
      "##манов": 8023,
      "##маты": 8024,
      "гостеи": 8025,
      "##енья": 8026,
      "вож": 8027,
      "размера": 8028,
      "##щиков": 8029,
      "##вера": 8030,
      "##дия": 8031,
      "##бых": 8032,
      "столо": 8033,
      "голая": 8034,
      "Воро": 8035,
      "работал": 8036,
      "полтора": 8037,
      "##кольз": 8038,
      "летом": 8039,
      "живои": 8040,
      "взры": 8041,
      "песоч": 8042,
      "обеда": 8043,
      "джип": 8044,
      "Экзамен": 8045,
      "ширинку": 8046,
      "Еи": 8047,
      "Зал": 8048,
      "Кас": 8049,
      "Лег": 8050,
      "Роб": 8051,
      "Ску": 8052,
      "ух": 8053,
      "цели": 8054,
      "##рити": 8055,
      "##ry": 8056,
      "##ain": 8057,
      "##pаз": 8058,
      "вырос": 8059,
      "приходи": 8060,
      "канди": 8061,
      "состав": 8062,
      "разработ": 8063,
      "табу": 8064,
      "##бора": 8065,
      "ручку": 8066,
      "посид": 8067,
      "стоматоло": 8068,
      "##живать": 8069,
      "##чее": 8070,
      "##шат": 8071,
      "##000": 8072,
      "опла": 8073,
      "Дома": 8074,
      "вопросом": 8075,
      "##чено": 8076,
      "восхи": 8077,
      "маленькои": 8078,
      "самому": 8079,
      "скла": 8080,
      "яиц": 8081,
      "съем": 8082,
      "назвал": 8083,
      "весело": 8084,
      "##лемента": 8085,
      "операцию": 8086,
      "изобрет": 8087,
      "шкафу": 8088,
      "возрасте": 8089,
      "станции": 8090,
      "вылезает": 8091,
      "доске": 8092,
      "университ": 8093,
      "маршрут": 8094,
      "##away": 8095,
      "воспита": 8096,
      "неудобно": 8097,
      "43": 8098,
      "Дел": 8099,
      "Иа": 8100,
      "НИ": 8101,
      "Тер": 8102,
      "Хри": 8103,
      "боб": 8104,
      "вза": 8105,
      "луж": 8106,
      "хала": 8107,
      "##лес": 8108,
      "##БА": 8109,
      "погла": 8110,
      "##кали": 8111,
      "затя": 8112,
      "раска": 8113,
      "пропу": 8114,
      "продать": 8115,
      "##чивается": 8116,
      "обу": 8117,
      "курил": 8118,
      "##ленные": 8119,
      "исклю": 8120,
      "третью": 8121,
      "##полез": 8122,
      "произнес": 8123,
      "песок": 8124,
      "##ree": 8125,
      "мяч": 8126,
      "белых": 8127,
      "199": 8128,
      "постоян": 8129,
      "сильныи": 8130,
      "поняла": 8131,
      "слева": 8132,
      "движения": 8133,
      "трамваи": 8134,
      "беременна": 8135,
      "обеспе": 8136,
      "44": 8137,
      "RE": 8138,
      "ат": 8139,
      "евро": 8140,
      "прет": 8141,
      "чел": 8142,
      "##чут": 8143,
      "##чении": 8144,
      "##еда": 8145,
      "##пп": 8146,
      "##бри": 8147,
      "##эта": 8148,
      "поти": 8149,
      "##каю": 8150,
      "##комат": 8151,
      "коре": 8152,
      "ран": 8153,
      "прог": 8154,
      "простите": 8155,
      "##порили": 8156,
      "знала": 8157,
      "##ковскии": 8158,
      "попол": 8159,
      "боится": 8160,
      "Ваня": 8161,
      "Послушаи": 8162,
      "рассла": 8163,
      "##ведения": 8164,
      "##дале": 8165,
      "дураки": 8166,
      "##носить": 8167,
      "красивыи": 8168,
      "называть": 8169,
      "##зовать": 8170,
      "Серге": 8171,
      "распро": 8172,
      "Иванна": 8173,
      "остановился": 8174,
      "бармен": 8175,
      "ошибки": 8176,
      "коровы": 8177,
      "журна": 8178,
      ":)))": 8179,
      "содержа": 8180,
      "порядок": 8181,
      "спортсмен": 8182,
      "Бед": 8183,
      "Бас": 8184,
      "Тан": 8185,
      "пеи": 8186,
      "плот": 8187,
      "##тами": 8188,
      "##еро": 8189,
      "##лке": 8190,
      "##дки": 8191,
      "покрас": 8192,
      "напа": 8193,
      "накры": 8194,
      "##валось": 8195,
      "завали": 8196,
      "вызов": 8197,
      "отдель": 8198,
      "проз": 8199,
      "приз": 8200,
      "##чиков": 8201,
      "##муд": 8202,
      "каст": 8203,
      "номе": 8204,
      "##ставили": 8205,
      "##пози": 8206,
      "Напри": 8207,
      "куча": 8208,
      "знаем": 8209,
      "##учил": 8210,
      "дека": 8211,
      "пуль": 8212,
      "предпри": 8213,
      "##инец": 8214,
      "чест": 8215,
      "мурав": 8216,
      "Девушки": 8217,
      "##all": 8218,
      "здорово": 8219,
      "писал": 8220,
      "встать": 8221,
      "забыла": 8222,
      "удивляется": 8223,
      "похоже": 8224,
      "угодно": 8225,
      "попробовать": 8226,
      "богаты": 8227,
      "птица": 8228,
      "##АААА": 8229,
      "Комп": 8230,
      "процесс": 8231,
      "монитор": 8232,
      "редко": 8233,
      "бодуна": 8234,
      "46": 8235,
      "Крем": 8236,
      "Ск": 8237,
      "лаз": 8238,
      "прел": 8239,
      "урод": 8240,
      "францу": 8241,
      "##чне": 8242,
      "##пля": 8243,
      "##io": 8244,
      "##ЛЯ": 8245,
      "пома": 8246,
      "почув": 8247,
      "##кадем": 8248,
      "нед": 8249,
      "заеб": 8250,
      "защи": 8251,
      "##едет": 8252,
      "проходя": 8253,
      "спут": 8254,
      "##еник": 8255,
      "измени": 8256,
      "##щили": 8257,
      "одол": 8258,
      "черные": 8259,
      "Вах": 8260,
      "##рование": 8261,
      "вопросов": 8262,
      "губ": 8263,
      "носить": 8264,
      "девствен": 8265,
      "апель": 8266,
      "всякие": 8267,
      "техни": 8268,
      "Соглас": 8269,
      "пальто": 8270,
      "книга": 8271,
      "одежду": 8272,
      "орган": 8273,
      "диско": 8274,
      "хули": 8275,
      "службы": 8276,
      "Вечер": 8277,
      "созда": 8278,
      "беда": 8279,
      "пассажиры": 8280,
      "професси": 8281,
      "бегем": 8282,
      "появилась": 8283,
      "роско": 8284,
      "институте": 8285,
      "Телеф": 8286,
      "населения": 8287,
      "эксперим": 8288,
      "увелич": 8289,
      "99": 8290,
      "Дама": 8291,
      "Нель": 8292,
      "вит": 8293,
      "зять": 8294,
      "ян": 8295,
      "##сен": 8296,
      "##жаться": 8297,
      "##цуж": 8298,
      "##ИЯ": 8299,
      "##эль": 8300,
      "##ШЬ": 8301,
      "##qu": 8302,
      "##тона": 8303,
      "##калы": 8304,
      "проход": 8305,
      "##таться": 8306,
      "соли": 8307,
      "поднял": 8308,
      "подходят": 8309,
      "##екта": 8310,
      "папои": 8311,
      "пили": 8312,
      "попала": 8313,
      "Посмотри": 8314,
      "клави": 8315,
      "несчаст": 8316,
      "успока": 8317,
      "бабушки": 8318,
      "дурака": 8319,
      "блок": 8320,
      "кормить": 8321,
      "ремонт": 8322,
      "медицин": 8323,
      "Плохо": 8324,
      "автор": 8325,
      "Горыныч": 8326,
      "Клиент": 8327,
      "56": 8328,
      "Alex": 8329,
      "XXX": 8330,
      "Гит": 8331,
      "МИ": 8332,
      "Мет": 8333,
      "белая": 8334,
      "жерт": 8335,
      "нен": 8336,
      "ядер": 8337,
      "##яг": 8338,
      "##торию": 8339,
      "нат": 8340,
      "неф": 8341,
      "неужели": 8342,
      "ковыря": 8343,
      "спят": 8344,
      "соревно": 8345,
      "##сир": 8346,
      "людь": 8347,
      "Вообще": 8348,
      "возника": 8349,
      "полгода": 8350,
      "Одно": 8351,
      "пpед": 8352,
      "куплю": 8353,
      "Миша": 8354,
      "леса": 8355,
      "русская": 8356,
      "рабочего": 8357,
      "похуд": 8358,
      "продавщи": 8359,
      "возможность": 8360,
      "манья": 8361,
      "Работа": 8362,
      "##веица": 8363,
      "попробуи": 8364,
      "рубль": 8365,
      "просьба": 8366,
      "копеи": 8367,
      "высовывается": 8368,
      "вpемя": 8369,
      "-(": 8370,
      "зря": 8371,
      "ол": 8372,
      "оза": 8373,
      "свидет": 8374,
      "члена": 8375,
      "##ото": 8376,
      "##пс": 8377,
      "##ПА": 8378,
      "##ЕИ": 8379,
      "##эм": 8380,
      "##OS": 8381,
      "##торов": 8382,
      "продал": 8383,
      "спец": 8384,
      "каф": 8385,
      "##енькои": 8386,
      "Начина": 8387,
      "столу": 8388,
      "Кого": 8389,
      "интим": 8390,
      "любую": 8391,
      "##брали": 8392,
      "##итая": 8393,
      "полоса": 8394,
      "дипло": 8395,
      "вчераш": 8396,
      "намного": 8397,
      "остров": 8398,
      "завтрак": 8399,
      "назвали": 8400,
      "толпа": 8401,
      "Расска": 8402,
      "слушает": 8403,
      "##рованныи": 8404,
      "выбрасы": 8405,
      "испуган": 8406,
      "аське": 8407,
      "сохран": 8408,
      "неплохо": 8409,
      "вздыхает": 8410,
      "Например": 8411,
      "людьми": 8412,
      "Вов": 8413,
      "Дам": 8414,
      "кин": 8415,
      "лбу": 8416,
      "оцен": 8417,
      "пыл": 8418,
      "угла": 8419,
      "##жала": 8420,
      "##pет": 8421,
      "##ЯЯ": 8422,
      "показал": 8423,
      "##рала": 8424,
      "##ковы": 8425,
      "##рук": 8426,
      "##доб": 8427,
      "пери": 8428,
      "кусты": 8429,
      "думала": 8430,
      "наслед": 8431,
      "Кана": 8432,
      "парни": 8433,
      "Разве": 8434,
      "круто": 8435,
      "зубов": 8436,
      "оборачивается": 8437,
      "забыли": 8438,
      "хозяина": 8439,
      "##ike": 8440,
      "пятницу": 8441,
      "##pуг": 8442,
      "стул": 8443,
      "хорошеи": 8444,
      "гроб": 8445,
      "чукчи": 8446,
      "портрет": 8447,
      "плюс": 8448,
      "уничто": 8449,
      "Беседуют": 8450,
      "темноте": 8451,
      "Краси": 8452,
      "Лежит": 8453,
      "гроз": 8454,
      "ом": 8455,
      "оставля": 8456,
      "орать": 8457,
      "трен": 8458,
      "удер": 8459,
      "эмо": 8460,
      "##илась": 8461,
      "##пель": 8462,
      "##den": 8463,
      "##ail": 8464,
      "##фил": 8465,
      "##бю": 8466,
      "попер": 8467,
      "##стка": 8468,
      "надел": 8469,
      "наступил": 8470,
      "отру": 8471,
      "##иды": 8472,
      "##чих": 8473,
      "ножки": 8474,
      "вошел": 8475,
      "развод": 8476,
      "##шаю": 8477,
      "турист": 8478,
      "суда": 8479,
      "?!?!": 8480,
      "пласти": 8481,
      "Черт": 8482,
      "саха": 8483,
      "семьи": 8484,
      "банка": 8485,
      "##емая": 8486,
      "смеха": 8487,
      "съесть": 8488,
      "терри": 8489,
      "жалоб": 8490,
      "дамы": 8491,
      "Было": 8492,
      "охотник": 8493,
      "идем": 8494,
      "концер": 8495,
      "оставил": 8496,
      "трамвае": 8497,
      "автомобиля": 8498,
      "сборнои": 8499,
      "текст": 8500,
      "Останавливает": 8501,
      "оружие": 8502,
      "!.": 8503,
      "to": 8504,
      "Клин": 8505,
      "дежур": 8506,
      "еру": 8507,
      "кил": 8508,
      "лиса": 8509,
      "опуска": 8510,
      "яд": 8511,
      "##пц": 8512,
      "##oy": 8513,
      "##per": 8514,
      "##лис": 8515,
      "недель": 8516,
      "##инке": 8517,
      "вылетает": 8518,
      "отпуска": 8519,
      "просят": 8520,
      "кан": 8521,
      "##гаем": 8522,
      "##ушек": 8523,
      "перво": 8524,
      "строго": 8525,
      "##альную": 8526,
      "хок": 8527,
      "теще": 8528,
      "рекомен": 8529,
      "индеи": 8530,
      "минист": 8531,
      "думали": 8532,
      "##чета": 8533,
      "начало": 8534,
      "расши": 8535,
      "позже": 8536,
      "финан": 8537,
      "кругом": 8538,
      "любовником": 8539,
      "книжку": 8540,
      "здоровыи": 8541,
      "четырех": 8542,
      "Водка": 8543,
      "нравятся": 8544,
      "космет": 8545,
      "подумав": 8546,
      "ездить": 8547,
      "скучно": 8548,
      "##ost": 8549,
      "убии": 8550,
      "откро": 8551,
      "секунду": 8552,
      "обезьяны": 8553,
      "закусы": 8554,
      "проститутка": 8555,
      "##гноз": 8556,
      "градусов": 8557,
      "философ": 8558,
      "кредит": 8559,
      "сцену": 8560,
      "53": 8561,
      "Un": 8562,
      "Ленина": 8563,
      "Учен": 8564,
      "бит": 8565,
      "ию": 8566,
      "италь": 8567,
      "ракет": 8568,
      "явно": 8569,
      "##зво": 8570,
      "##II": 8571,
      "##IN": 8572,
      "##ногие": 8573,
      "##кают": 8574,
      "##ковои": 8575,
      "##руга": 8576,
      "отдает": 8577,
      "отдать": 8578,
      "приезжа": 8579,
      "##утро": 8580,
      "спишь": 8581,
      "облег": 8582,
      "изде": 8583,
      "поднять": 8584,
      "воо": 8585,
      "##иски": 8586,
      "##сив": 8587,
      "##понд": 8588,
      "пары": 8589,
      "##анты": 8590,
      "стою": 8591,
      "барабан": 8592,
      "Пара": 8593,
      "боли": 8594,
      "соврем": 8595,
      "держа": 8596,
      "втором": 8597,
      "рассказать": 8598,
      "малы": 8599,
      "ряд": 8600,
      "##ешно": 8601,
      "##стями": 8602,
      "англиискии": 8603,
      "Суп": 8604,
      "замужем": 8605,
      "подумали": 8606,
      "предложил": 8607,
      "восклик": 8608,
      "холодильнике": 8609,
      "упаков": 8610,
      "перевер": 8611,
      "катего": 8612,
      "придумали": 8613,
      "подозр": 8614,
      "Киркоров": 8615,
      "com": 8616,
      "аг": 8617,
      "гени": 8618,
      "гита": 8619,
      "плен": 8620,
      "фар": 8621,
      "хран": 8622,
      "челю": 8623,
      "юмо": 8624,
      "##вела": 8625,
      "##уют": 8626,
      "##лению": 8627,
      "##гин": 8628,
      "поте": 8629,
      "##роваться": 8630,
      "##лам": 8631,
      "##лаго": 8632,
      "кожа": 8633,
      "##неет": 8634,
      "##ляем": 8635,
      "каш": 8636,
      "обмо": 8637,
      "нога": 8638,
      "разум": 8639,
      "перег": 8640,
      "##поp": 8641,
      "посреди": 8642,
      "будит": 8643,
      "старого": 8644,
      "бат": 8645,
      "опе": 8646,
      "сыр": 8647,
      "колеса": 8648,
      "грузина": 8649,
      "скамеи": 8650,
      "криком": 8651,
      "диван": 8652,
      "иску": 8653,
      "осталась": 8654,
      "увидела": 8655,
      "деви": 8656,
      "Садись": 8657,
      "некоторых": 8658,
      "едем": 8659,
      "американцы": 8660,
      "кресть": 8661,
      "форма": 8662,
      "знакомыи": 8663,
      "представь": 8664,
      "##ьих": 8665,
      "обраща": 8666,
      "##????????": 8667,
      "единственныи": 8668,
      "лягушка": 8669,
      "захотелось": 8670,
      "Милиционер": 8671,
      "медсестра": 8672,
      "Поздравляю": 8673,
      "Особенно": 8674,
      "Ана": 8675,
      "Пил": 8676,
      "Четыре": 8677,
      "сет": 8678,
      "свали": 8679,
      "##тка": 8680,
      "##ега": 8681,
      "##рке": 8682,
      "##ящии": 8683,
      "##гнов": 8684,
      "##ug": 8685,
      "##rk": 8686,
      "##ГУ": 8687,
      "##ъя": 8688,
      "##SM": 8689,
      "##ену": 8690,
      "##итя": 8691,
      "##новили": 8692,
      "##ват": 8693,
      "незам": 8694,
      "зая": 8695,
      "завя": 8696,
      "...?": 8697,
      "коне": 8698,
      "проку": 8699,
      "прогу": 8700,
      "изуч": 8701,
      "##ушкои": 8702,
      "перел": 8703,
      "менять": 8704,
      "послать": 8705,
      "голыи": 8706,
      "##нимается": 8707,
      "бане": 8708,
      "века": 8709,
      "реки": 8710,
      "Прошло": 8711,
      "Продав": 8712,
      "тум": 8713,
      "богу": 8714,
      "дороже": 8715,
      "услы": 8716,
      "магази": 8717,
      "##носится": 8718,
      "пыль": 8719,
      "смеяться": 8720,
      "арбу": 8721,
      "##ЕНЬ": 8722,
      "записку": 8723,
      "менты": 8724,
      "растут": 8725,
      "литра": 8726,
      "Немец": 8727,
      "пенси": 8728,
      "фотографии": 8729,
      "субботу": 8730,
      "молодости": 8731,
      "леитенант": 8732,
      "табурет": 8733,
      "Коло": 8734,
      "Пря": 8735,
      "Стои": 8736,
      "Тур": 8737,
      "гим": 8738,
      "деть": 8739,
      "фин": 8740,
      "энер": 8741,
      "##чнее": 8742,
      "##уются": 8743,
      "##ian": 8744,
      "##ЫИ": 8745,
      "##ЧИ": 8746,
      "##ver": 8747,
      "##ЗА": 8748,
      "##раи": 8749,
      "##ворот": 8750,
      "##рились": 8751,
      "запу": 8752,
      "заним": 8753,
      "отка": 8754,
      "##едливо": 8755,
      "прилав": 8756,
      "городу": 8757,
      "##тиру": 8758,
      "##тивы": 8759,
      "##енькие": 8760,
      "разбил": 8761,
      "##град": 8762,
      "которому": 8763,
      "опы": 8764,
      "Отве": 8765,
      "боятся": 8766,
      "простои": 8767,
      "Маик": 8768,
      "##ina": 8769,
      "боле": 8770,
      "Моз": 8771,
      "иск": 8772,
      "беско": 8773,
      "##говаривает": 8774,
      "баню": 8775,
      "собакои": 8776,
      "деду": 8777,
      "##ложить": 8778,
      "пилот": 8779,
      "принтер": 8780,
      "ворона": 8781,
      "сигареты": 8782,
      "Хорошии": 8783,
      "порядо": 8784,
      "двена": 8785,
      "корабль": 8786,
      "проваид": 8787,
      "##удимыи": 8788,
      "век": 8789,
      "ген": 8790,
      "ими": 8791,
      "крос": 8792,
      "прит": 8793,
      "шку": 8794,
      "эт": 8795,
      "##uz": 8796,
      "##ah": 8797,
      "##СТО": 8798,
      "##това": 8799,
      "##енную": 8800,
      "негра": 8801,
      "непод": 8802,
      "##емор": 8803,
      "заим": 8804,
      "##лош": 8805,
      "вын": 8806,
      "прот": 8807,
      "##есед": 8808,
      "##исто": 8809,
      "парикмахер": 8810,
      "дачу": 8811,
      "##пира": 8812,
      "##ентя": 8813,
      "##лых": 8814,
      "##енному": 8815,
      "живешь": 8816,
      "распа": 8817,
      "расстро": 8818,
      "сахар": 8819,
      "прапор": 8820,
      "окном": 8821,
      "Тара": 8822,
      "красные": 8823,
      "Ради": 8824,
      "соседка": 8825,
      "дураков": 8826,
      "съед": 8827,
      "сможешь": 8828,
      "чувства": 8829,
      "добрыи": 8830,
      "мозга": 8831,
      "##центов": 8832,
      "бросить": 8833,
      "ключи": 8834,
      "каждое": 8835,
      "##age": 8836,
      "Хотя": 8837,
      "бежать": 8838,
      "зрения": 8839,
      "Sp": 8840,
      "Газ": 8841,
      "Гав": 8842,
      "Жа": 8843,
      "СМ": 8844,
      "Эти": 8845,
      "соль": 8846,
      "##дка": 8847,
      "##eт": 8848,
      "пова": 8849,
      "##вов": 8850,
      "выпа": 8851,
      "выхожу": 8852,
      "доченька": 8853,
      "подготов": 8854,
      "##чание": 8855,
      "##вее": 8856,
      "##бочку": 8857,
      "##стие": 8858,
      "Нео": 8859,
      "тест": 8860,
      "вероят": 8861,
      "насчет": 8862,
      "меха": 8863,
      "Провер": 8864,
      "сумо": 8865,
      "##лета": 8866,
      "ответили": 8867,
      "пpос": 8868,
      "скотина": 8869,
      "последнего": 8870,
      "...\"\"": 8871,
      "банки": 8872,
      "апт": 8873,
      "побольше": 8874,
      "днях": 8875,
      "камеру": 8876,
      "милиционе": 8877,
      "кухни": 8878,
      "пользоваться": 8879,
      "позвонить": 8880,
      "##клон": 8881,
      "##ИНА": 8882,
      "брюнет": 8883,
      "##ризон": 8884,
      "возмущенно": 8885,
      "отсутствие": 8886,
      "обоих": 8887,
      "Президент": 8888,
      "отдохнуть": 8889,
      "Твоя": 8890,
      "употребл": 8891,
      "кастрю": 8892,
      "Нельзя": 8893,
      "37": 8894,
      "дольше": 8895,
      "ех": 8896,
      "седь": 8897,
      "ун": 8898,
      "фев": 8899,
      "##now": 8900,
      "##yp": 8901,
      "##se": 8902,
      "##СА": 8903,
      "почи": 8904,
      "пози": 8905,
      "подает": 8906,
      "копе": 8907,
      "##куля": 8908,
      "тороп": 8909,
      "##сец": 8910,
      "приехали": 8911,
      "##лька": 8912,
      "##льная": 8913,
      "одес": 8914,
      "Нап": 8915,
      "пиши": 8916,
      "женат": 8917,
      "##казывать": 8918,
      "колени": 8919,
      "сиськи": 8920,
      "каждом": 8921,
      "автомати": 8922,
      "рассказал": 8923,
      "муха": 8924,
      "утю": 8925,
      "объя": 8926,
      "крут": 8927,
      "сесть": 8928,
      "Люблю": 8929,
      "программу": 8930,
      "##ванныи": 8931,
      "органи": 8932,
      "##щенко": 8933,
      "##казано": 8934,
      "готовить": 8935,
      "средства": 8936,
      "Тишина": 8937,
      "Здравствуи": 8938,
      "Хотите": 8939,
      "удовольствием": 8940,
      "лифте": 8941,
      "ненавид": 8942,
      "пьешь": 8943,
      "диване": 8944,
      "космонав": 8945,
      "sp": 8946,
      "Рез": 8947,
      "Фа": 8948,
      "яго": 8949,
      "##нкт": 8950,
      "##ai": 8951,
      "##tr": 8952,
      "##цени": 8953,
      "##ВЕТ": 8954,
      "##носи": 8955,
      "##ерен": 8956,
      "невы": 8957,
      "##кипа": 8958,
      "прикры": 8959,
      "принять": 8960,
      "##тива": 8961,
      "##жег": 8962,
      "паp": 8963,
      "##бир": 8964,
      "##чеpа": 8965,
      "сказку": 8966,
      "милая": 8967,
      "тур": 8968,
      "##сыла": 8969,
      "кричать": 8970,
      "малыш": 8971,
      "родителям": 8972,
      "последних": 8973,
      "Мир": 8974,
      "студенту": 8975,
      "##провод": 8976,
      "балу": 8977,
      "Путина": 8978,
      "деиствия": 8979,
      "грех": 8980,
      "плеч": 8981,
      "власть": 8982,
      "Господь": 8983,
      "дерева": 8984,
      "становятся": 8985,
      "сочинении": 8986,
      "белого": 8987,
      "Думаю": 8988,
      "побежал": 8989,
      "разбуд": 8990,
      "прочитал": 8991,
      "КАК": 8992,
      "золото": 8993,
      "поиму": 8994,
      "аудитории": 8995,
      "троих": 8996,
      "зоопарк": 8997,
      "##ножко": 8998,
      "пытался": 8999,
      "Иис": 9000,
      "Опыт": 9001,
      "гне": 9002,
      "нa": 9003,
      "огляды": 9004,
      "рту": 9005,
      "сдал": 9006,
      "фона": 9007,
      "хро": 9008,
      "##нo": 9009,
      "##ывают": 9010,
      "##ющего": 9011,
      "##шлы": 9012,
      "##ud": 9013,
      "##pан": 9014,
      "##листы": 9015,
      "некраси": 9016,
      "##лах": 9017,
      "выда": 9018,
      "выидет": 9019,
      "отмет": 9020,
      "призыв": 9021,
      "перего": 9022,
      "##казала": 9023,
      "##стика": 9024,
      "##луб": 9025,
      "маг": 9026,
      "прежде": 9027,
      "конкрет": 9028,
      "Извини": 9029,
      "грузов": 9030,
      "нашему": 9031,
      "болта": 9032,
      "помидо": 9033,
      "бабушке": 9034,
      "международ": 9035,
      "милиция": 9036,
      "корми": 9037,
      "##курить": 9038,
      "готовит": 9039,
      "популяр": 9040,
      "стираль": 9041,
      "показывать": 9042,
      "сдавать": 9043,
      "пидж": 9044,
      "экскур": 9045,
      "гражданин": 9046,
      "познакомился": 9047,
      "Земля": 9048,
      "Андреи": 9049,
      "ветерина": 9050,
      "Слава": 9051,
      "аптеке": 9052,
      "41": 9053,
      "ВИ": 9054,
      "Воль": 9055,
      "Кры": 9056,
      "авиа": 9057,
      "еды": 9058,
      "зла": 9059,
      "ик": 9060,
      "тэ": 9061,
      "уга": 9062,
      "шее": 9063,
      "##ово": 9064,
      "##яли": 9065,
      "##лите": 9066,
      "##ДУ": 9067,
      "##AN": 9068,
      "постра": 9069,
      "небе": 9070,
      "##нать": 9071,
      "зали": 9072,
      "оте": 9073,
      "прошла": 9074,
      "процентов": 9075,
      "каба": 9076,
      "обвин": 9077,
      "разм": 9078,
      "##патоло": 9079,
      "##вишь": 9080,
      "##дик": 9081,
      "людо": 9082,
      "стати": 9083,
      "##грани": 9084,
      "конвер": 9085,
      "##хаи": 9086,
      "Коз": 9087,
      "возник": 9088,
      "сломал": 9089,
      "сиденье": 9090,
      "запрет": 9091,
      "утрен": 9092,
      "мерсед": 9093,
      "газет": 9094,
      "наверняка": 9095,
      "танце": 9096,
      "распла": 9097,
      "радости": 9098,
      "голубои": 9099,
      "идея": 9100,
      "концерт": 9101,
      "возраст": 9102,
      "ресторана": 9103,
      "расскажу": 9104,
      "звезды": 9105,
      "попробуите": 9106,
      "ограни": 9107,
      "психиат": 9108,
      "шампанского": 9109,
      "Некоторые": 9110,
      "py": 9111,
      "Вик": 9112,
      "Время": 9113,
      "Олимпи": 9114,
      "Пес": 9115,
      "Поль": 9116,
      "Удив": 9117,
      "оху": 9118,
      "угу": 9119,
      "ушеи": 9120,
      "##их": 9121,
      "##пь": 9122,
      "##ывая": 9123,
      "##uck": 9124,
      "##pыи": 9125,
      "##052007": 9126,
      "##эл": 9127,
      "##эд": 9128,
      "##22": 9129,
      "##енку": 9130,
      "выстав": 9131,
      "вооб": 9132,
      "никуда": 9133,
      "даю": 9134,
      "преж": 9135,
      "##ссо": 9136,
      "полном": 9137,
      "туп": 9138,
      "русским": 9139,
      "сексе": 9140,
      "##женныи": 9141,
      "муз": 9142,
      "Бабу": 9143,
      "метра": 9144,
      "Саша": 9145,
      "Полу": 9146,
      "##респонд": 9147,
      "2007": 9148,
      "билеты": 9149,
      "Мерс": 9150,
      "слушать": 9151,
      "занятия": 9152,
      "Вовочке": 9153,
      "покупатель": 9154,
      "заявил": 9155,
      "появились": 9156,
      "телевизору": 9157,
      "глубоко": 9158,
      "публичныи": 9159,
      "Пассажи": 9160,
      "Здорово": 9161,
      "казар": 9162,
      "Нужно": 9163,
      "Англичанин": 9164,
      "\")": 9165,
      "-)": 9166,
      "Вои": 9167,
      "Дал": 9168,
      "Един": 9169,
      "РА": 9170,
      "Шел": 9171,
      "ву": 9172,
      "др": 9173,
      "зе": 9174,
      "фон": 9175,
      "шев": 9176,
      "юно": 9177,
      "##удок": 9178,
      "##oh": 9179,
      "##жар": 9180,
      "нашим": 9181,
      "##ришь": 9182,
      "заика": 9183,
      "точки": 9184,
      "##дова": 9185,
      "обья": 9186,
      "##вилась": 9187,
      "##гиналь": 9188,
      "##мею": 9189,
      "##тус": 9190,
      "дух": 9191,
      "##сса": 9192,
      "воздуш": 9193,
      "пулем": 9194,
      "##ine": 9195,
      "##ственные": 9196,
      "Моро": 9197,
      "несколь": 9198,
      "##ate": 9199,
      "носу": 9200,
      "считают": 9201,
      "автобуса": 9202,
      "Маленькая": 9203,
      "радость": 9204,
      "кабинета": 9205,
      "Карло": 9206,
      "пассажиров": 9207,
      "фамилию": 9208,
      "использовать": 9209,
      "снег": 9210,
      "конфет": 9211,
      "довольныи": 9212,
      "Третья": 9213,
      "развити": 9214,
      "изменяет": 9215,
      "замерз": 9216,
      "золотая": 9217,
      "итоге": 9218,
      "Попробу": 9219,
      "Леонид": 9220,
      "95": 9221,
      "Маи": 9222,
      "Чаи": 9223,
      "Чеp": 9224,
      "брит": 9225,
      "гер": 9226,
      "грит": 9227,
      "смы": 9228,
      "тремя": 9229,
      "юбил": 9230,
      "##бился": 9231,
      "##ЧЕ": 9232,
      "помер": 9233,
      "находят": 9234,
      "договор": 9235,
      "##уты": 9236,
      "каиф": 9237,
      "обго": 9238,
      "##енью": 9239,
      "##иских": 9240,
      "первому": 9241,
      "мыши": 9242,
      "##арша": 9243,
      "##овался": 9244,
      "слове": 9245,
      "сканд": 9246,
      "##рования": 9247,
      "муль": 9248,
      "роддо": 9249,
      "заправ": 9250,
      "помоги": 9251,
      "последнюю": 9252,
      "светло": 9253,
      "решает": 9254,
      "студен": 9255,
      "большого": 9256,
      "следующеи": 9257,
      "##бегают": 9258,
      "хватило": 9259,
      "туалета": 9260,
      "дереве": 9261,
      "матрос": 9262,
      "ведут": 9263,
      "оргазм": 9264,
      "здоровья": 9265,
      "инопланет": 9266,
      "погода": 9267,
      "вдво": 9268,
      "Смотрите": 9269,
      "соглашается": 9270,
      "умирает": 9271,
      "Думает": 9272,
      "солдаты": 9273,
      "остальное": 9274,
      "практически": 9275,
      "салон": 9276,
      "аппарат": 9277,
      "вытаскивает": 9278,
      "шикар": 9279,
      "49": 9280,
      "Тра": 9281,
      "Уч": 9282,
      "Хру": 9283,
      "Яну": 9284,
      "вpа": 9285,
      "ня": 9286,
      "рта": 9287,
      "тpи": 9288,
      "##врат": 9289,
      "##ись": 9290,
      "##праши": 9291,
      "##шни": 9292,
      "##oin": 9293,
      "##oot": 9294,
      "##ock": 9295,
      "##зья": 9296,
      "##ХО": 9297,
      "##ровая": 9298,
      "##стреля": 9299,
      "##волен": 9300,
      "заму": 9301,
      "топор": 9302,
      "##тар": 9303,
      "горизон": 9304,
      "##есос": 9305,
      "##льник": 9306,
      "##иского": 9307,
      "##няк": 9308,
      "кум": 9309,
      "!!!!!!": 9310,
      "Вован": 9311,
      "молот": 9312,
      "словом": 9313,
      "тупои": 9314,
      "переход": 9315,
      "##женная": 9316,
      "расстоя": 9317,
      "умная": 9318,
      "твоему": 9319,
      "беседу": 9320,
      "Такои": 9321,
      "анг": 9322,
      "##ass": 9323,
      "резино": 9324,
      "##еного": 9325,
      "учил": 9326,
      "Анка": 9327,
      "похожи": 9328,
      "похожа": 9329,
      "суде": 9330,
      "задумы": 9331,
      "валяется": 9332,
      "ложится": 9333,
      "киноте": 9334,
      "чужои": 9335,
      "молчание": 9336,
      "системы": 9337,
      "мудрость": 9338,
      "Пpиходит": 9339,
      "смертью": 9340,
      "кресло": 9341,
      "вариант": 9342,
      "##НЫИ": 9343,
      "перекрестке": 9344,
      "период": 9345,
      "Hи": 9346,
      "Дис": 9347,
      "Обы": 9348,
      "бьют": 9349,
      "пик": 9350,
      "##оны": 9351,
      "##аем": 9352,
      "##ber": 9353,
      "##pa": 9354,
      "##ЛЮ": 9355,
      "##ТЕ": 9356,
      "##стнои": 9357,
      "##стую": 9358,
      "напер": 9359,
      "раби": 9360,
      "отме": 9361,
      "##еды": 9362,
      "##чия": 9363,
      "##рыня": 9364,
      "подальше": 9365,
      "##цина": 9366,
      "стои": 9367,
      "##сток": 9368,
      "##зали": 9369,
      "теп": 9370,
      "течение": 9371,
      "полная": 9372,
      "Какую": 9373,
      "компом": 9374,
      "инет": 9375,
      "Катя": 9376,
      "Подума": 9377,
      "Всегда": 9378,
      "трусах": 9379,
      ".\"\"": 9380,
      "лучшее": 9381,
      "заднеи": 9382,
      "заднице": 9383,
      "немножко": 9384,
      "маленькую": 9385,
      "беседуют": 9386,
      "красоты": 9387,
      "##вольно": 9388,
      "страшного": 9389,
      "страшная": 9390,
      "Антон": 9391,
      "успех": 9392,
      "умереть": 9393,
      "работаешь": 9394,
      "поворо": 9395,
      "матча": 9396,
      "##ителем": 9397,
      "десяти": 9398,
      "охота": 9399,
      "Собрались": 9400,
      "Совсем": 9401,
      "свидание": 9402,
      "Виа": 9403,
      "грязь": 9404,
      "реклам": 9405,
      "зубами": 9406,
      "приглашает": 9407,
      "привык": 9408,
      "принесли": 9409,
      "садись": 9410,
      "выраст": 9411,
      "коньяк": 9412,
      "сохра": 9413,
      "заканчивается": 9414,
      "сломался": 9415,
      "вежливо": 9416,
      "##лементарно": 9417,
      "47": 9418,
      "Tr": 9419,
      "ВА": 9420,
      "Вста": 9421,
      "ДЕ": 9422,
      "Дальше": 9423,
      "Ого": 9424,
      "Оба": 9425,
      "Тет": 9426,
      "вен": 9427,
      "кpи": 9428,
      "мнение": 9429,
      "оча": 9430,
      "##уда": 9431,
      "##уса": 9432,
      "##ьев": 9433,
      "##где": 9434,
      "##pал": 9435,
      "##брь": 9436,
      "##НЯ": 9437,
      "##ЖЕ": 9438,
      "насту": 9439,
      "натя": 9440,
      "##варя": 9441,
      "##олго": 9442,
      "отключ": 9443,
      "спеш": 9444,
      "##мир": 9445,
      "сок": 9446,
      "##вича": 9447,
      "перен": 9448,
      "стака": 9449,
      "##ровка": 9450,
      "сказки": 9451,
      "Хоть": 9452,
      "Мастер": 9453,
      "##зино": 9454,
      "сереб": 9455,
      "оскор": 9456,
      "молодец": 9457,
      "интервью": 9458,
      "лавочке": 9459,
      "##чатся": 9460,
      "Моисе": 9461,
      "удается": 9462,
      "фаил": 9463,
      "живем": 9464,
      "любое": 9465,
      "Спрашивают": 9466,
      "подарить": 9467,
      "серьезно": 9468,
      "тюрьме": 9469,
      "золотои": 9470,
      "вправо": 9471,
      "лекарство": 9472,
      "##надле": 9473,
      ")))))": 9474,
      "КП": 9475,
      "Лиса": 9476,
      "Нед": 9477,
      "учили": 9478,
      "хр": 9479,
      "цар": 9480,
      "##th": 9481,
      "##фика": 9482,
      "##pел": 9483,
      "##ццо": 9484,
      "##ЫЫ": 9485,
      "##ВД": 9486,
      "##ky": 9487,
      "##итар": 9488,
      "##стера": 9489,
      "##кается": 9490,
      "заве": 9491,
      "захожу": 9492,
      "принадле": 9493,
      "подро": 9494,
      "подвод": 9495,
      "женского": 9496,
      "##уша": 9497,
      "переи": 9498,
      "мышка": 9499,
      "Пришла": 9500,
      "коммента": 9501,
      "бояться": 9502,
      "##лено": 9503,
      "?????": 9504,
      "Мыти": 9505,
      "бесполез": 9506,
      "Доктоp": 9507,
      "бабушку": 9508,
      "убегает": 9509,
      "эксп": 9510,
[...]
